{
  "version": "1.0",
  "truncation": null,
  "padding": null,
  "added_tokens": [
    {
      "id": 0,
      "content": "<unk>",
      "single_word": false,
      "lstrip": false,
      "rstrip": false,
      "normalized": false,
      "special": true
    },
    {
      "id": 1,
      "content": "<s>",
      "single_word": false,
      "lstrip": false,
      "rstrip": false,
      "normalized": false,
      "special": true
    },
    {
      "id": 2,
      "content": "</s>",
      "single_word": false,
      "lstrip": false,
      "rstrip": false,
      "normalized": false,
      "special": true
    },
    {
      "id": 3,
      "content": "<pad>",
      "single_word": false,
      "lstrip": false,
      "rstrip": false,
      "normalized": false,
      "special": true
    }
  ],
  "normalizer": null,
  "pre_tokenizer": {
    "type": "Sequence",
    "pretokenizers": [
      {
        "type": "Split",
        "pattern": {
          "Regex": "(?i:'s|'t|'re|'ve|'m|'ll|'d)|[^\\r\\n\\p{L}\\p{N}]?\\p{L}+|\\p{N}{1,3}| ?[^\\s\\p{L}\\p{N}]+[\\r\\n]*|\\s*[\\r\\n]+|\\s+(?!\\S)|\\s+"
        },
        "behavior": "Isolated",
        "invert": false
      },
      {
        "type": "ByteLevel",
        "add_prefix_space": false,
        "trim_offsets": true,
        "use_regex": false
      }
    ]
  },
  "post_processor": {
    "type": "TemplateProcessing",
    "single": [
      {
        "SpecialToken": {
          "id": "<s>",
          "type_id": 0
        }
      },
      {
        "Sequence": {
          "id": "A",
          "type_id": 0
        }
      }
    ],
    "pair": [
      {
        "SpecialToken": {
          "id": "<s>",
          "type_id": 0
        }
      },
      {
        "Sequence": {
          "id": "A",
          "type_id": 0
        }
      },
      {
        "SpecialToken": {
          "id": "<s>",
          "type_id": 1
        }
      },
      {
        "Sequence": {
          "id": "B",
          "type_id": 1
        }
      }
    ],
    "special_tokens": {
      "<s>": {
        "id": "<s>",
        "ids": [
          1
        ],
        "tokens": [
          "<s>"
        ]
      }
    }
  },
  "decoder": {
    "type": "ByteLevel",
    "add_prefix_space": true,
    "trim_offsets": true,
    "use_regex": true
  },
  "model": {
    "type": "BPE",
    "dropout": null,
    "unk_token": "<unk>",
    "continuing_subword_prefix": null,
    "end_of_word_suffix": null,
    "fuse_unk": false,
    "byte_fallback": false,
    "ignore_merges": false,
    "vocab": {
      "<unk>": 0,
      "<s>": 1,
      "</s>": 2,
      "<pad>": 3,
      "\t": 4,
      "\n": 5,
      "!": 6,
      "\"": 7,
      "#": 8,
      "$": 9,
      "%": 10,
      "&": 11,
      "'": 12,
      "(": 13,
      ")": 14,
      "*": 15,
      "+": 16,
      ",": 17,
      "-": 18,
      ".": 19,
      "/": 20,
      "0": 21,
      "1": 22,
      "2": 23,
      "3": 24,
      "4": 25,
      "5": 26,
      "6": 27,
      "7": 28,
      "8": 29,
      "9": 30,
      ":": 31,
      ";": 32,
      "<": 33,
      "=": 34,
      ">": 35,
      "?": 36,
      "@": 37,
      "A": 38,
      "B": 39,
      "C": 40,
      "D": 41,
      "E": 42,
      "F": 43,
      "G": 44,
      "H": 45,
      "I": 46,
      "J": 47,
      "K": 48,
      "L": 49,
      "M": 50,
      "N": 51,
      "O": 52,
      "P": 53,
      "Q": 54,
      "R": 55,
      "S": 56,
      "T": 57,
      "U": 58,
      "V": 59,
      "W": 60,
      "X": 61,
      "Y": 62,
      "Z": 63,
      "[": 64,
      "\\": 65,
      "]": 66,
      "^": 67,
      "_": 68,
      "`": 69,
      "a": 70,
      "b": 71,
      "c": 72,
      "d": 73,
      "e": 74,
      "f": 75,
      "g": 76,
      "h": 77,
      "i": 78,
      "j": 79,
      "k": 80,
      "l": 81,
      "m": 82,
      "n": 83,
      "o": 84,
      "p": 85,
      "q": 86,
      "r": 87,
      "s": 88,
      "t": 89,
      "u": 90,
      "v": 91,
      "w": 92,
      "x": 93,
      "y": 94,
      "z": 95,
      "{": 96,
      "|": 97,
      "}": 98,
      "~": 99,
      "¡": 100,
      "¢": 101,
      "£": 102,
      "¥": 103,
      "§": 104,
      "©": 105,
      "«": 106,
      "¬": 107,
      "­": 108,
      "®": 109,
      "°": 110,
      "±": 111,
      "·": 112,
      "»": 113,
      "À": 114,
      "Á": 115,
      "Â": 116,
      "Ä": 117,
      "Å": 118,
      "Æ": 119,
      "Ç": 120,
      "É": 121,
      "Ë": 122,
      "Í": 123,
      "Î": 124,
      "Ñ": 125,
      "Ó": 126,
      "Ô": 127,
      "Õ": 128,
      "Ö": 129,
      "×": 130,
      "Ø": 131,
      "Ú": 132,
      "Ü": 133,
      "Ý": 134,
      "Þ": 135,
      "ß": 136,
      "à": 137,
      "á": 138,
      "â": 139,
      "ã": 140,
      "ä": 141,
      "å": 142,
      "æ": 143,
      "ç": 144,
      "è": 145,
      "é": 146,
      "ê": 147,
      "ë": 148,
      "ì": 149,
      "í": 150,
      "î": 151,
      "ï": 152,
      "ð": 153,
      "ñ": 154,
      "ò": 155,
      "ó": 156,
      "ô": 157,
      "õ": 158,
      "ö": 159,
      "÷": 160,
      "ø": 161,
      "ù": 162,
      "ú": 163,
      "û": 164,
      "ü": 165,
      "ý": 166,
      "þ": 167,
      "ÿ": 168,
      "Ā": 169,
      "ā": 170,
      "ă": 171,
      "ą": 172,
      "Ć": 173,
      "ć": 174,
      "Č": 175,
      "č": 176,
      "ď": 177,
      "Đ": 178,
      "đ": 179,
      "Ē": 180,
      "ē": 181,
      "ė": 182,
      "ę": 183,
      "ě": 184,
      "ĝ": 185,
      "Ğ": 186,
      "ğ": 187,
      "Ġ": 188,
      "ġ": 189,
      "ģ": 190,
      "ħ": 191,
      "ĩ": 192,
      "Ī": 193,
      "ī": 194,
      "ĭ": 195,
      "İ": 196,
      "ı": 197,
      "ļ": 198,
      "ľ": 199,
      "Ł": 200,
      "ł": 201,
      "ń": 202,
      "ņ": 203,
      "ň": 204,
      "ŋ": 205,
      "Ō": 206,
      "ō": 207,
      "Ŏ": 208,
      "ŏ": 209,
      "ő": 210,
      "Œ": 211,
      "œ": 212,
      "Ř": 213,
      "ř": 214,
      "Ś": 215,
      "ś": 216,
      "Ş": 217,
      "ş": 218,
      "Š": 219,
      "š": 220,
      "Ţ": 221,
      "ţ": 222,
      "ť": 223,
      "ũ": 224,
      "Ū": 225,
      "ū": 226,
      "ŭ": 227,
      "ů": 228,
      "ű": 229,
      "ų": 230,
      "ź": 231,
      "Ż": 232,
      "ż": 233,
      "Ž": 234,
      "ž": 235,
      "Ə": 236,
      "ơ": 237,
      "ư": 238,
      "ǎ": 239,
      "ǐ": 240,
      "ǒ": 241,
      "ǔ": 242,
      "ǵ": 243,
      "ȃ": 244,
      "Ș": 245,
      "ș": 246,
      "ț": 247,
      "ɐ": 248,
      "ɑ": 249,
      "ɒ": 250,
      "ɔ": 251,
      "ɕ": 252,
      "ə": 253,
      "ɛ": 254,
      "ɡ": 255,
      "ɣ": 256,
      "ɦ": 257,
      "ɨ": 258,
      "ɪ": 259,
      "ɫ": 260,
      "ɯ": 261,
      "ɲ": 262,
      "ɾ": 263,
      "ʁ": 264,
      "ʂ": 265,
      "ʃ": 266,
      "ʊ": 267,
      "ʋ": 268,
      "ʌ": 269,
      "ʒ": 270,
      "ʔ": 271,
      "ʹ": 272,
      "ʻ": 273,
      "ʼ": 274,
      "ʽ": 275,
      "ʾ": 276,
      "ʿ": 277,
      "ˈ": 278,
      "ˌ": 279,
      "ː": 280,
      "˗": 281,
      "́": 282,
      "̃": 283,
      "̄": 284,
      "̈": 285,
      "̉": 286,
      "̊": 287,
      "̋": 288,
      "̧": 289,
      "̯": 290,
      "̰": 291,
      "̱": 292,
      "̲": 293,
      "͡": 294,
      "Α": 295,
      "Β": 296,
      "Δ": 297,
      "Ε": 298,
      "Κ": 299,
      "Λ": 300,
      "Μ": 301,
      "Ν": 302,
      "Π": 303,
      "Σ": 304,
      "Τ": 305,
      "Φ": 306,
      "Ω": 307,
      "ά": 308,
      "έ": 309,
      "ή": 310,
      "ί": 311,
      "α": 312,
      "β": 313,
      "γ": 314,
      "δ": 315,
      "ε": 316,
      "ζ": 317,
      "η": 318,
      "θ": 319,
      "ι": 320,
      "κ": 321,
      "λ": 322,
      "μ": 323,
      "ν": 324,
      "ξ": 325,
      "ο": 326,
      "π": 327,
      "ρ": 328,
      "ς": 329,
      "σ": 330,
      "τ": 331,
      "υ": 332,
      "φ": 333,
      "χ": 334,
      "ω": 335,
      "ό": 336,
      "ύ": 337,
      "ώ": 338,
      "Ё": 339,
      "Є": 340,
      "І": 341,
      "Ў": 342,
      "А": 343,
      "Б": 344,
      "В": 345,
      "Г": 346,
      "Д": 347,
      "Е": 348,
      "Ж": 349,
      "З": 350,
      "И": 351,
      "Й": 352,
      "К": 353,
      "Л": 354,
      "М": 355,
      "Н": 356,
      "О": 357,
      "П": 358,
      "Р": 359,
      "С": 360,
      "Т": 361,
      "У": 362,
      "Ф": 363,
      "Х": 364,
      "Ц": 365,
      "Ч": 366,
      "Ш": 367,
      "Щ": 368,
      "Ы": 369,
      "Ь": 370,
      "Э": 371,
      "Ю": 372,
      "Я": 373,
      "а": 374,
      "б": 375,
      "в": 376,
      "г": 377,
      "д": 378,
      "е": 379,
      "ж": 380,
      "з": 381,
      "и": 382,
      "й": 383,
      "к": 384,
      "л": 385,
      "м": 386,
      "н": 387,
      "о": 388,
      "п": 389,
      "р": 390,
      "с": 391,
      "т": 392,
      "у": 393,
      "ф": 394,
      "х": 395,
      "ц": 396,
      "ч": 397,
      "ш": 398,
      "щ": 399,
      "ъ": 400,
      "ы": 401,
      "ь": 402,
      "э": 403,
      "ю": 404,
      "я": 405,
      "ѐ": 406,
      "ё": 407,
      "є": 408,
      "і": 409,
      "ї": 410,
      "ј": 411,
      "ћ": 412,
      "ў": 413,
      "Ғ": 414,
      "ғ": 415,
      "Қ": 416,
      "қ": 417,
      "ң": 418,
      "ү": 419,
      "ұ": 420,
      "Ҳ": 421,
      "ҳ": 422,
      "Ҷ": 423,
      "ҷ": 424,
      "һ": 425,
      "Ә": 426,
      "ә": 427,
      "ӣ": 428,
      "Ө": 429,
      "ө": 430,
      "Ӯ": 431,
      "ӯ": 432,
      "Ա": 433,
      "Հ": 434,
      "ա": 435,
      "գ": 436,
      "դ": 437,
      "ե": 438,
      "զ": 439,
      "ի": 440,
      "լ": 441,
      "կ": 442,
      "մ": 443,
      "յ": 444,
      "ն": 445,
      "ո": 446,
      "պ": 447,
      "ս": 448,
      "վ": 449,
      "տ": 450,
      "ր": 451,
      "ւ": 452,
      "ְ": 453,
      "ָ": 454,
      "א": 455,
      "ב": 456,
      "ג": 457,
      "ד": 458,
      "ה": 459,
      "ו": 460,
      "ז": 461,
      "ח": 462,
      "ט": 463,
      "י": 464,
      "כ": 465,
      "ל": 466,
      "ם": 467,
      "מ": 468,
      "ן": 469,
      "נ": 470,
      "ס": 471,
      "ע": 472,
      "פ": 473,
      "ק": 474,
      "ר": 475,
      "ש": 476,
      "ת": 477,
      "،": 478,
      "ء": 479,
      "آ": 480,
      "أ": 481,
      "ؤ": 482,
      "إ": 483,
      "ئ": 484,
      "ا": 485,
      "ب": 486,
      "ة": 487,
      "ت": 488,
      "ث": 489,
      "ج": 490,
      "ح": 491,
      "خ": 492,
      "د": 493,
      "ذ": 494,
      "ر": 495,
      "ز": 496,
      "س": 497,
      "ش": 498,
      "ص": 499,
      "ض": 500,
      "ط": 501,
      "ظ": 502,
      "ع": 503,
      "غ": 504,
      "ـ": 505,
      "ف": 506,
      "ق": 507,
      "ك": 508,
      "ل": 509,
      "م": 510,
      "ن": 511,
      "ه": 512,
      "و": 513,
      "ى": 514,
      "ي": 515,
      "ً": 516,
      "ٌ": 517,
      "ٍ": 518,
      "َ": 519,
      "ُ": 520,
      "ِ": 521,
      "ّ": 522,
      "ْ": 523,
      "٠": 524,
      "١": 525,
      "٢": 526,
      "٩": 527,
      "ٰ": 528,
      "ٱ": 529,
      "ٹ": 530,
      "پ": 531,
      "چ": 532,
      "ڈ": 533,
      "ژ": 534,
      "ک": 535,
      "گ": 536,
      "ں": 537,
      "ھ": 538,
      "ہ": 539,
      "ۋ": 540,
      "ی": 541,
      "ے": 542,
      "ە": 543,
      "ۡ": 544,
      "۰": 545,
      "۱": 546,
      "۲": 547,
      "۳": 548,
      "۴": 549,
      "۵": 550,
      "۷": 551,
      "۸": 552,
      "۹": 553,
      "އ": 554,
      "ަ": 555,
      "ް": 556,
      "ं": 557,
      "अ": 558,
      "आ": 559,
      "इ": 560,
      "ए": 561,
      "ओ": 562,
      "क": 563,
      "ग": 564,
      "च": 565,
      "ज": 566,
      "ट": 567,
      "ड": 568,
      "ण": 569,
      "त": 570,
      "थ": 571,
      "द": 572,
      "ध": 573,
      "न": 574,
      "प": 575,
      "ब": 576,
      "भ": 577,
      "म": 578,
      "य": 579,
      "र": 580,
      "ल": 581,
      "व": 582,
      "श": 583,
      "स": 584,
      "ह": 585,
      "ा": 586,
      "ि": 587,
      "ी": 588,
      "ु": 589,
      "ू": 590,
      "े": 591,
      "ै": 592,
      "ो": 593,
      "्": 594,
      "०": 595,
      "१": 596,
      "२": 597,
      "५": 598,
      "८": 599,
      "ক": 600,
      "জ": 601,
      "ত": 602,
      "দ": 603,
      "ন": 604,
      "প": 605,
      "ব": 606,
      "ম": 607,
      "য": 608,
      "র": 609,
      "ল": 610,
      "স": 611,
      "া": 612,
      "ি": 613,
      "ী": 614,
      "ু": 615,
      "ে": 616,
      "্": 617,
      "க": 618,
      "ா": 619,
      "ி": 620,
      "்": 621,
      "ത": 622,
      "ാ": 623,
      "്": 624,
      "්": 625,
      "ก": 626,
      "ง": 627,
      "ช": 628,
      "น": 629,
      "ม": 630,
      "ย": 631,
      "ร": 632,
      "ล": 633,
      "ว": 634,
      "อ": 635,
      "า": 636,
      "ิ": 637,
      "เ": 638,
      "າ": 639,
      "་": 640,
      "မ": 641,
      "ာ": 642,
      "း": 643,
      "်": 644,
      "ა": 645,
      "ბ": 646,
      "გ": 647,
      "დ": 648,
      "ე": 649,
      "ვ": 650,
      "თ": 651,
      "ი": 652,
      "კ": 653,
      "ლ": 654,
      "მ": 655,
      "ნ": 656,
      "ო": 657,
      "რ": 658,
      "ს": 659,
      "ტ": 660,
      "უ": 661,
      "ხ": 662,
      "ḍ": 663,
      "Ḡ": 664,
      "ḡ": 665,
      "Ḥ": 666,
      "ḥ": 667,
      "Ḩ": 668,
      "ḩ": 669,
      "ḭ": 670,
      "ḵ": 671,
      "ṃ": 672,
      "ṇ": 673,
      "Ṣ": 674,
      "ṣ": 675,
      "Ṭ": 676,
      "ṭ": 677,
      "ẓ": 678,
      "ẕ": 679,
      "ẖ": 680,
      "ẗ": 681,
      "ạ": 682,
      "ả": 683,
      "ấ": 684,
      "ầ": 685,
      "ậ": 686,
      "ắ": 687,
      "ế": 688,
      "ề": 689,
      "ể": 690,
      "ễ": 691,
      "ệ": 692,
      "ị": 693,
      "ọ": 694,
      "ố": 695,
      "ồ": 696,
      "ổ": 697,
      "ộ": 698,
      "ớ": 699,
      "ờ": 700,
      "ợ": 701,
      "ụ": 702,
      "ủ": 703,
      "ứ": 704,
      "ử": 705,
      "ữ": 706,
      "ự": 707,
      "ỳ": 708,
      "ỹ": 709,
      "ἀ": 710,
      "Ἀ": 711,
      "ῆ": 712,
      "​": 713,
      "‌": 714,
      "‍": 715,
      "‎": 716,
      "‏": 717,
      "‐": 718,
      "‒": 719,
      "–": 720,
      "—": 721,
      "―": 722,
      "‘": 723,
      "’": 724,
      "‚": 725,
      "‛": 726,
      "“": 727,
      "”": 728,
      "„": 729,
      "‟": 730,
      "†": 731,
      "‡": 732,
      "•": 733,
      "‰": 734,
      "′": 735,
      "⁃": 736,
      "⁄": 737,
      "⁣": 738,
      "₩": 739,
      "€": 740,
      "₹": 741,
      "⃗": 742,
      "⃣": 743,
      "←": 744,
      "↑": 745,
      "→": 746,
      "↓": 747,
      "↔": 748,
      "∆": 749,
      "∑": 750,
      "−": 751,
      "∙": 752,
      "√": 753,
      "∞": 754,
      "≈": 755,
      "≡": 756,
      "≤": 757,
      "≥": 758,
      "⋅": 759,
      "⏓": 760,
      "─": 761,
      "█": 762,
      "■": 763,
      "□": 764,
      "▪": 765,
      "▫": 766,
      "△": 767,
      "►": 768,
      "●": 769,
      "☃": 770,
      "☎": 771,
      "♂": 772,
      "♭": 773,
      "⚡": 774,
      "⚽": 775,
      "✅": 776,
      "✓": 777,
      "✔": 778,
      "❌": 779,
      "❗": 780,
      "❤": 781,
      "➖": 782,
      "➡": 783,
      "⟨": 784,
      "⟩": 785,
      "⠀": 786,
      "⦁": 787,
      "ⲁ": 788,
      "ⲉ": 789,
      "ⲛ": 790,
      "ⲟ": 791,
      "ⲩ": 792,
      "ⴰ": 793,
      "、": 794,
      "。": 795,
      "《": 796,
      "》": 797,
      "『": 798,
      "』": 799,
      "あ": 800,
      "い": 801,
      "う": 802,
      "お": 803,
      "か": 804,
      "が": 805,
      "き": 806,
      "く": 807,
      "こ": 808,
      "さ": 809,
      "し": 810,
      "す": 811,
      "た": 812,
      "ち": 813,
      "っ": 814,
      "て": 815,
      "で": 816,
      "と": 817,
      "な": 818,
      "に": 819,
      "の": 820,
      "は": 821,
      "ま": 822,
      "み": 823,
      "も": 824,
      "ら": 825,
      "り": 826,
      "る": 827,
      "れ": 828,
      "を": 829,
      "ん": 830,
      "ア": 831,
      "イ": 832,
      "エ": 833,
      "オ": 834,
      "カ": 835,
      "キ": 836,
      "ク": 837,
      "サ": 838,
      "シ": 839,
      "ジ": 840,
      "ス": 841,
      "タ": 842,
      "ッ": 843,
      "ト": 844,
      "ド": 845,
      "ニ": 846,
      "ハ": 847,
      "バ": 848,
      "パ": 849,
      "フ": 850,
      "プ": 851,
      "ム": 852,
      "ャ": 853,
      "ラ": 854,
      "リ": 855,
      "ル": 856,
      "レ": 857,
      "ロ": 858,
      "ン": 859,
      "・": 860,
      "ー": 861,
      "一": 862,
      "三": 863,
      "上": 864,
      "下": 865,
      "世": 866,
      "中": 867,
      "之": 868,
      "二": 869,
      "五": 870,
      "井": 871,
      "京": 872,
      "人": 873,
      "代": 874,
      "会": 875,
      "公": 876,
      "化": 877,
      "北": 878,
      "十": 879,
      "南": 880,
      "原": 881,
      "古": 882,
      "史": 883,
      "司": 884,
      "合": 885,
      "同": 886,
      "和": 887,
      "四": 888,
      "国": 889,
      "國": 890,
      "地": 891,
      "城": 892,
      "大": 893,
      "天": 894,
      "女": 895,
      "子": 896,
      "学": 897,
      "安": 898,
      "家": 899,
      "富": 900,
      "小": 901,
      "山": 902,
      "島": 903,
      "川": 904,
      "市": 905,
      "平": 906,
      "年": 907,
      "座": 908,
      "建": 909,
      "式": 910,
      "張": 911,
      "愛": 912,
      "文": 913,
      "新": 914,
      "方": 915,
      "日": 916,
      "明": 917,
      "月": 918,
      "有": 919,
      "木": 920,
      "本": 921,
      "李": 922,
      "村": 923,
      "来": 924,
      "東": 925,
      "校": 926,
      "民": 927,
      "水": 928,
      "江": 929,
      "海": 930,
      "物": 931,
      "王": 932,
      "生": 933,
      "田": 934,
      "町": 935,
      "白": 936,
      "的": 937,
      "社": 938,
      "神": 939,
      "立": 940,
      "竹": 941,
      "第": 942,
      "等": 943,
      "花": 944,
      "行": 945,
      "語": 946,
      "道": 947,
      "郎": 948,
      "部": 949,
      "野": 950,
      "金": 951,
      "集": 952,
      "馬": 953,
      "高": 954,
      "가": 955,
      "개": 956,
      "공": 957,
      "광": 958,
      "구": 959,
      "국": 960,
      "기": 961,
      "김": 962,
      "대": 963,
      "도": 964,
      "동": 965,
      "떡": 966,
      "로": 967,
      "리": 968,
      "문": 969,
      "미": 970,
      "민": 971,
      "부": 972,
      "사": 973,
      "상": 974,
      "서": 975,
      "수": 976,
      "시": 977,
      "아": 978,
      "연": 979,
      "울": 980,
      "원": 981,
      "은": 982,
      "을": 983,
      "의": 984,
      "이": 985,
      "인": 986,
      "자": 987,
      "장": 988,
      "정": 989,
      "제": 990,
      "주": 991,
      "지": 992,
      "학": 993,
      "한": 994,
      "호": 995,
      "화": 996,
      "": 997,
      "️": 998,
      "﻿": 999,
      "￼": 1000,
      "�": 1001,
      "𝄆": 1002,
      "𝄇": 1003,
      "la": 1004,
      "sh": 1005,
      "da": 1006,
      "ni": 1007,
      "ga": 1008,
      "ri": 1009,
      "li": 1010,
      "Ġb": 1011,
      "ti": 1012,
      "si": 1013,
      "di": 1014,
      "Ġt": 1015,
      "ma": 1016,
      "ch": 1017,
      "o‘": 1018,
      "lar": 1019,
      "ar": 1020,
      "Ġk": 1021,
      "ng": 1022,
      "Ġq": 1023,
      "ya": 1024,
      "gan": 1025,
      "on": 1026,
      "va": 1027,
      "ra": 1028,
      "Ġo": 1029,
      "il": 1030,
      "lari": 1031,
      "ning": 1032,
      "Ġh": 1033,
      "gi": 1034,
      "Ġva": 1035,
      "ta": 1036,
      "Ġa": 1037,
      "Ġy": 1038,
      "Ġs": 1039,
      "shi": 1040,
      "Ġm": 1041,
      "or": 1042,
      "Ġi": 1043,
      "Ġu": 1044,
      "chi": 1045,
      "Ġta": 1046,
      "Ġe": 1047,
      "Ġma": 1048,
      "ka": 1049,
      "na": 1050,
      "ki": 1051,
      "di.": 1052,
      "dan": 1053,
      "mi": 1054,
      "zi": 1055,
      "mo": 1056,
      "un": 1057,
      "lan": 1058,
      "Ġbi": 1059,
      "Ġbo": 1060,
      "sa": 1061,
      "lik": 1062,
      "er": 1063,
      "\n\n": 1064,
      "cha": 1065,
      "at": 1066,
      "st": 1067,
      "Ġo‘": 1068,
      "yi": 1069,
      "lo": 1070,
      "Ġj": 1071,
      "ro": 1072,
      "de": 1073,
      "Ġha": 1074,
      "Ġqi": 1075,
      "Ġx": 1076,
      "Ġf": 1077,
      "yo": 1078,
      "Ġmu": 1079,
      "qi": 1080,
      "Ġsh": 1081,
      "dagi": 1082,
      "bi": 1083,
      "lgan": 1084,
      "Ġbo‘": 1085,
      "qa": 1086,
      "ur": 1087,
      "g‘": 1088,
      "Ġ1": 1089,
      "lash": 1090,
      "ĠS": 1091,
      "an": 1092,
      "vo": 1093,
      "en": 1094,
      "Ġ2": 1095,
      "Ġp": 1096,
      "ĠA": 1097,
      "ĠM": 1098,
      "rish": 1099,
      "ĠB": 1100,
      "Ġda": 1101,
      "Ġke": 1102,
      "no": 1103,
      "ay": 1104,
      "ĠO": 1105,
      "siya": 1106,
      "Ġ(": 1107,
      "uv": 1108,
      "so": 1109,
      "Ġbilan": 1110,
      "Ġtu": 1111,
      "ligi": 1112,
      "ba": 1113,
      "do": 1114,
      "oli": 1115,
      "re": 1116,
      "ston": 1117,
      "al": 1118,
      "Ġto": 1119,
      "Ġish": 1120,
      "Ġuch": 1121,
      "Ġyo": 1122,
      "Ġya": 1123,
      ".\n": 1124,
      "be": 1125,
      "bo": 1126,
      "ĠT": 1127,
      "Ġko‘": 1128,
      "Ġqili": 1129,
      "yil": 1130,
      "ĠR": 1131,
      "Ġbe": 1132,
      "ara": 1133,
      "vi": 1134,
      "ah": 1135,
      "Ġham": 1136,
      "-yil": 1137,
      "Ġbosh": 1138,
      "Ġko": 1139,
      "sida": 1140,
      "larni": 1141,
      "Ġde": 1142,
      "zbe": 1143,
      "Ġ“": 1144,
      "Ġna": 1145,
      "Ġso": 1146,
      "oy": 1147,
      "Ġuchun": 1148,
      "es": 1149,
      "ĠK": 1150,
      "ul": 1151,
      "Ġki": 1152,
      "za": 1153,
      "kiston": 1154,
      "lab": 1155,
      "ona": 1156,
      "zo": 1157,
      "di.\n": 1158,
      "lat": 1159,
      "ja": 1160,
      "Ġ20": 1161,
      "zbekiston": 1162,
      "Ġhu": 1163,
      "ub": 1164,
      "Ġoʻ": 1165,
      "ot": 1166,
      "Ġoli": 1167,
      "et": 1168,
      "Ġsa": 1169,
      "aro": 1170,
      "tish": 1171,
      "iz": 1172,
      "Ġtash": 1173,
      "Ġqo": 1174,
      "Ġbu": 1175,
      "Ġku": 1176,
      "tgan": 1177,
      "Ġte": 1178,
      "Ġra": 1179,
      "larini": 1180,
      "Ġ\n": 1181,
      "ĠU": 1182,
      "Ġto‘": 1183,
      "Ġchi": 1184,
      "um": 1185,
      "ĠI": 1186,
      "yat": 1187,
      "Ġbir": 1188,
      "to": 1189,
      "ha": 1190,
      ".\n\n": 1191,
      "Ġja": 1192,
      "‘zbekiston": 1193,
      "larning": 1194,
      "fa": 1195,
      "Ġ—": 1196,
      "le": 1197,
      "Ġqo‘": 1198,
      "ko": 1199,
      "us": 1200,
      "Ġho": 1201,
      "lishi": 1202,
      "Ġyu": 1203,
      "gani": 1204,
      "ladi": 1205,
      "tib": 1206,
      "Ġtar": 1207,
      "ĠP": 1208,
      "Ġka": 1209,
      "langan": 1210,
      "Ġboʻ": 1211,
      "qda": 1212,
      "gʻ": 1213,
      "fi": 1214,
      "kt": 1215,
      "Ġch": 1216,
      "rat": 1217,
      "yati": 1218,
      "kin": 1219,
      "ĠN": 1220,
      "Ġyil": 1221,
      "ab": 1222,
      "yicha": 1223,
      "larga": 1224,
      "Ġhi": 1225,
      "ĠD": 1226,
      "tirish": 1227,
      "rin": 1228,
      "lani": 1229,
      "ilo": 1230,
      "ĠQ": 1231,
      "lika": 1232,
      "Ġqil": 1233,
      "mp": 1234,
      "vlat": 1235,
      "pub": 1236,
      "ent": 1237,
      "publika": 1238,
      "ĠO‘zbekiston": 1239,
      "uvchi": 1240,
      "ud": 1241,
      "ĠY": 1242,
      "ngi": 1243,
      "hi": 1244,
      "lib": 1245,
      "uri": 1246,
      "Ġsi": 1247,
      "tida": 1248,
      "larda": 1249,
      "mat": 1250,
      "uq": 1251,
      "moni": 1252,
      "g‘i": 1253,
      "20": 1254,
      "kat": 1255,
      "zir": 1256,
      "Ġ3": 1257,
      "ĠF": 1258,
      "kil": 1259,
      "ĠG": 1260,
      "Ġg": 1261,
      "Ġmi": 1262,
      "Ġor": 1263,
      "dir": 1264,
      "espublika": 1265,
      "lma": 1266,
      "ladi.": 1267,
      "ut": 1268,
      "ĠRespublika": 1269,
      "lu": 1270,
      "yin": 1271,
      "Ġin": 1272,
      "lariga": 1273,
      "lga": 1274,
      "Ġti": 1275,
      "ldi": 1276,
      "os": 1277,
      "ev": 1278,
      "Ġshah": 1279,
      "bu": 1280,
      "Ġfa": 1281,
      "niya": 1282,
      "moqda": 1283,
      "Ġyo‘": 1284,
      "ĠV": 1285,
      "kazi": 1286,
      "iy": 1287,
      "Ġqilish": 1288,
      "Ġeti": 1289,
      "ĠJ": 1290,
      "ĠH": 1291,
      "miz": 1292,
      "sti": 1293,
      "mu": 1294,
      "ĠRespublikasi": 1295,
      "Ġn": 1296,
      "man": 1297,
      "Ġay": 1298,
      "Ġbo‘yicha": 1299,
      "ĠBu": 1300,
      "gan.": 1301,
      "liy": 1302,
      "Ġv": 1303,
      "Ġre": 1304,
      "Ġtashkil": 1305,
      "Ġtomoni": 1306,
      "ir": 1307,
      "masi": 1308,
      "tiri": 1309,
      "miy": 1310,
      "ĠSh": 1311,
      "osh": 1312,
      "Ġ19": 1313,
      "ĠC": 1314,
      "Ġno": 1315,
      "Ġhiso": 1316,
      "Ġjoy": 1317,
      "Ġdavlat": 1318,
      "qo": 1319,
      "Ġba": 1320,
      "ĠX": 1321,
      "Ġso‘": 1322,
      "holi": 1323,
      "te": 1324,
      "Ġdo": 1325,
      "Ġshu": 1326,
      "Ġo‘z": 1327,
      "Ġtomonidan": 1328,
      "ĠL": 1329,
      "Ġsha": 1330,
      "kor": 1331,
      "as": 1332,
      "Sh": 1333,
      "00": 1334,
      "Ġama": 1335,
      "Ġ201": 1336,
      "Ġo‘t": 1337,
      "Ġoshi": 1338,
      "Ġaso": 1339,
      "Ġber": 1340,
      "dda": 1341,
      "rta": 1342,
      "Ġqar": 1343,
      "lish": 1344,
      "di.\n\n": 1345,
      "mon": 1346,
      "ort": 1347,
      "ol": 1348,
      "lov": 1349,
      "Ġbo‘lgan": 1350,
      "ĠE": 1351,
      "du": 1352,
      "rida": 1353,
      "ru": 1354,
      "Ġ4": 1355,
      "larida": 1356,
      "den": 1357,
      "Ġxo": 1358,
      "biy": 1359,
      ";\n": 1360,
      "Ġta’": 1361,
      "Ġqay": 1362,
      "lana": 1363,
      "rib": 1364,
      "Ġboshqa": 1365,
      "ran": 1366,
      "yot": 1367,
      "dek": 1368,
      "di,": 1369,
      "sini": 1370,
      "Ġ5": 1371,
      "Ġ«": 1372,
      "ĠMa": 1373,
      "g‘ri": 1374,
      "Ġ–": 1375,
      "Ġhaqi": 1376,
      "sha": 1377,
      "yotgan": 1378,
      "Ġtur": 1379,
      "Ġqa": 1380,
      "larining": 1381,
      "ov": 1382,
      "abar": 1383,
      "siz": 1384,
      "Ġme": 1385,
      "Ġvilo": 1386,
      "roq": 1387,
      "sp": 1388,
      "xona": 1389,
      "Ġxiz": 1390,
      "lay": 1391,
      "in": 1392,
      "zar": 1393,
      "siga": 1394,
      "dim": 1395,
      "Ġdeb": 1396,
      "Ġmum": 1397,
      "gar": 1398,
      "Ġik": 1399,
      "Ġmumkin": 1400,
      "rsa": 1401,
      "Ġ\n\n": 1402,
      "mani": 1403,
      "Ġkoʻ": 1404,
      "Ġav": 1405,
      "ku": 1406,
      "Ġqilin": 1407,
      "19": 1408,
      "el": 1409,
      "Ġto‘g‘ri": 1410,
      "tilgan": 1411,
      "lar,": 1412,
      "qar": 1413,
      "Ġxabar": 1414,
      "Ġaholi": 1415,
      "viy": 1416,
      "ziden": 1417,
      "Ġkuni": 1418,
      "lim": 1419,
      "Ġhamda": 1420,
      "lardan": 1421,
      "Ġhar": 1422,
      "siy": 1423,
      "ilgan": 1424,
      "-yilda": 1425,
      "Ġyoki": 1426,
      "rak": 1427,
      "reziden": 1428,
      "mida": 1429,
      "br": 1430,
      "Ġqu": 1431,
      "sidagi": 1432,
      "diy": 1433,
      "Ġmah": 1434,
      "mas": 1435,
      "mati": 1436,
      "dor": 1437,
      "Ġberi": 1438,
      "shbu": 1439,
      "sining": 1440,
      "lumo": 1441,
      "Ġega": 1442,
      "yu": 1443,
      "liq": 1444,
      "av": 1445,
      "Ġjamo": 1446,
      "chilik": 1447,
      "Ġhisob": 1448,
      "Ġmil": 1449,
      "Ġesa": 1450,
      "sta": 1451,
      "xs": 1452,
      "unda": 1453,
      "Ġ„": 1454,
      "lumot": 1455,
      "Ġlo": 1456,
      "Ġma’": 1457,
      "eri": 1458,
      "ora": 1459,
      "Ġamalga": 1460,
      "Ġjoylash": 1461,
      "son": 1462,
      "Ġhuj": 1463,
      "Ġolib": 1464,
      "bat": 1465,
      "Ġni": 1466,
      "oyda": 1467,
      "kent": 1468,
      "kaz": 1469,
      "Ġvazir": 1470,
      "digan": 1471,
      "Ġfaoli": 1472,
      "far": 1473,
      "jat": 1474,
      "alq": 1475,
      "Ġet": 1476,
      "ningdek": 1477,
      "Ġshahar": 1478,
      "anba": 1479,
      "lgi": 1480,
      "Ġij": 1481,
      "Ġbar": 1482,
      "Ġ6": 1483,
      "Ġetish": 1484,
      "ji": 1485,
      "Ġche": 1486,
      "Ġdavo": 1487,
      "Ġkiri": 1488,
      "ligini": 1489,
      "ldi.": 1490,
      "oshkent": 1491,
      "bir": 1492,
      "Ġmar": 1493,
      "Ġim": 1494,
      "it": 1495,
      "dam": 1496,
      "yor": 1497,
      "Ġfoyda": 1498,
      "Ġga": 1499,
      "b,": 1500,
      "mla": 1501,
      "Ġyi": 1502,
      "Ġji": 1503,
      "Ġvaq": 1504,
      "su": 1505,
      "Ġchiqa": 1506,
      "niq": 1507,
      "da,": 1508,
      "Ġ7": 1509,
      "may": 1510,
      "sin": 1511,
      "Ġmav": 1512,
      "cha,": 1513,
      "Ġyangi": 1514,
      "dar": 1515,
      "xi": 1516,
      "Ġbor": 1517,
      "Ġishlab": 1518,
      "tsiya": 1519,
      "Ġvazi": 1520,
      "fo": 1521,
      "am": 1522,
      "Ġolish": 1523,
      "Ġko‘rsa": 1524,
      "min": 1525,
      "Ġri": 1526,
      "ladi.\n": 1527,
      "ho": 1528,
      "Ġbelgi": 1529,
      "rinchi": 1530,
      "lanish": 1531,
      "Ġmo": 1532,
      "loq": 1533,
      "pi": 1534,
      "lari,": 1535,
      "giya": 1536,
      "Ġeng": 1537,
      "),": 1538,
      "pa": 1539,
      "riy": 1540,
      "lum": 1541,
      "tir": 1542,
      "Ġjamoa": 1543,
      "Ġsu": 1544,
      "Ġtumani": 1545,
      "Ġkor": 1546,
      "Ġqis": 1547,
      "ey": 1548,
      "Ġuning": 1549,
      "Ġchiqi": 1550,
      "Ġshar": 1551,
      "dbir": 1552,
      "aniya": 1553,
      "tin": 1554,
      "bol": 1555,
      "Ġnafar": 1556,
      "qat": 1557,
      "Ġvo": 1558,
      "Ġhaqida": 1559,
      "Manba": 1560,
      "ye": 1561,
      "Ġqoʻ": 1562,
      "Ġun": 1563,
      "Ġd": 1564,
      "Ġviloyati": 1565,
      "tan": 1566,
      "ron": 1567,
      "Ġqon": 1568,
      "Ġikki": 1569,
      "Ġdi": 1570,
      "zim": 1571,
      "Ġkun": 1572,
      "gacha": 1573,
      "lda": 1574,
      "tiro": 1575,
      "lib,": 1576,
      "Manbalar": 1577,
      "shli": 1578,
      "Ġxizmat": 1579,
      "laridan": 1580,
      "Ġkishi": 1581,
      "Ġmamla": 1582,
      "Ġqab": 1583,
      "ĠToshkent": 1584,
      "lif": 1585,
      "kta": 1586,
      "ra,": 1587,
      "Ġtaq": 1588,
      "Ġqat": 1589,
      "ningdek,": 1590,
      ":\n": 1591,
      "uqaro": 1592,
      "gra": 1593,
      "di\n\n": 1594,
      "Ġ8": 1595,
      "lashtirish": 1596,
      "tini": 1597,
      "Ġpro": 1598,
      "Ġdara": 1599,
      "Ġil": 1600,
      "Ġhujjat": 1601,
      "lgan.": 1602,
      "Ġye": 1603,
      "Ġqara": 1604,
      "var": 1605,
      "Ġvazirligi": 1606,
      "Ġaniq": 1607,
      "Ġbirinchi": 1608,
      "Ġko‘p": 1609,
      "Ġkomp": 1610,
      "Ġtas": 1611,
      "Ġrivo": 1612,
      "Ġqabul": 1613,
      "yiha": 1614,
      "ladigan": 1615,
      "Ġoldi": 1616,
      "ossiya": 1617,
      "Ġfaoliyati": 1618,
      "mpi": 1619,
      "Ġjoylashgan": 1620,
      "Ġ200": 1621,
      "niy": 1622,
      "utbol": 1623,
      "QSh": 1624,
      "Ġrah": 1625,
      "yasi": 1626,
      "moqda.": 1627,
      "qin": 1628,
      "Ġqarshi": 1629,
      "Ġjo": 1630,
      "Ġsifa": 1631,
      "gu": 1632,
      "Ġkerak": 1633,
      "Ġuni": 1634,
      "Ġas": 1635,
      "Ġfuqaro": 1636,
      "mar": 1637,
      "Ġchiq": 1638,
      "llar": 1639,
      "ĠSa": 1640,
      "Ġo‘r": 1641,
      "Ġhuq": 1642,
      "Ġrivoj": 1643,
      "Ġmamlakat": 1644,
      "Ġfo": 1645,
      "ĠDa": 1646,
      "lantirish": 1647,
      "po": 1648,
      "ĠYa": 1649,
      "Ġro": 1650,
      "Ġxalq": 1651,
      "Ġsay": 1652,
      "lanishi": 1653,
      "Ġdaraja": 1654,
      "Ġfi": 1655,
      "Ġyet": 1656,
      "ngiz": 1657,
      "Ġishtiro": 1658,
      "tiso": 1659,
      "liya": 1660,
      "nd": 1661,
      "Ġbo‘l": 1662,
      "noma": 1663,
      "Ġqish": 1664,
      "Ġman": 1665,
      "Ġ9": 1666,
      "Ġtoʻ": 1667,
      "Ġmay": 1668,
      "Ġyer": 1669,
      "Ġmaq": 1670,
      "riya": 1671,
      "rezidenti": 1672,
      "Ġushbu": 1673,
      "Ġshaxs": 1674,
      "Ġzar": 1675,
      "bor": 1676,
      "sidan": 1677,
      "Ġloyiha": 1678,
      "Ġban": 1679,
      "Ġming": 1680,
      "likda": 1681,
      "lalar": 1682,
      "Ġyor": 1683,
      "Ġshart": 1684,
      "Ġtop": 1685,
      "Ġfutbol": 1686,
      "Ġ10": 1687,
      "Ġtan": 1688,
      "oʻ": 1689,
      "Ġorqa": 1690,
      "kur": 1691,
      "tasi": 1692,
      "Ġta'": 1693,
      "siyasi": 1694,
      "Ġhara": 1695,
      "tija": 1696,
      "Ġtay": 1697,
      "Ġo‘tkazi": 1698,
      "tda": 1699,
      "Ġr": 1700,
      "oni": 1701,
      "sa,": 1702,
      "enga": 1703,
      "don": 1704,
      "lot": 1705,
      "tiga": 1706,
      "Ġdast": 1707,
      "ver": 1708,
      "Ġtayyor": 1709,
      "riga": 1710,
      "Ġyana": 1711,
      "Ġbarcha": 1712,
      "port": 1713,
      "mir": 1714,
      "Ġtarki": 1715,
      "Ġo`": 1716,
      "ĠVa": 1717,
      "undan": 1718,
      "Ġ\"": 1719,
      "201": 1720,
      "Ġsaba": 1721,
      "Ġo‘zi": 1722,
      "Ġboshqar": 1723,
      "Ġoshirish": 1724,
      "Ġquri": 1725,
      "nat": 1726,
      "erma": 1727,
      "ek": 1728,
      "O‘zbekiston": 1729,
      "Ġmilli": 1730,
      "Ġavto": 1731,
      "Ġmaqsa": 1732,
      "Ġqayta": 1733,
      "Ġsifatida": 1734,
      "lekt": 1735,
      "Ġma'": 1736,
      "Ġetgan": 1737,
      "moq": 1738,
      "Ġ-": 1739,
      "Ġqan": 1740,
      "Ma": 1741,
      "ĠRossiya": 1742,
      "layotgan": 1743,
      "xshi": 1744,
      "Ġshi": 1745,
      "Ġhaqda": 1746,
      "rash": 1747,
      "ĠAQSh": 1748,
      "Ġkeyin": 1749,
      "Ġqonun": 1750,
      "Ġolin": 1751,
      "Ġmuvo": 1752,
      "fiq": 1753,
      "Ġpay": 1754,
      "Ġberish": 1755,
      "ĠCh": 1756,
      "ala": 1757,
      "Ġsaq": 1758,
      "lon": 1759,
      "qtiso": 1760,
      "mini": 1761,
      "Ġsoha": 1762,
      "atta": 1763,
      "diq": 1764,
      "Ġqilgan": 1765,
      "Ġorqali": 1766,
      "vir": 1767,
      "Ġto‘g‘risida": 1768,
      "Ġo‘rin": 1769,
      "dir.": 1770,
      "Ġqaror": 1771,
      "Ġmasa": 1772,
      "rini": 1773,
      "mol": 1774,
      "Ġne": 1775,
      "lashtiri": 1776,
      "rasida": 1777,
      "ari": 1778,
      "Ġza": 1779,
      "Ġyaxshi": 1780,
      "Ġoi": 1781,
      "Ġras": 1782,
      "Ġmuvofiq": 1783,
      "om": 1784,
      "lashi": 1785,
      "yx": 1786,
      "rilgan": 1787,
      "Ġmaj": 1788,
      "Ġyosh": 1789,
      "logiya": 1790,
      "lin": 1791,
      "ter": 1792,
      "uru": 1793,
      "Ġqilingan": 1794,
      "Ġnatija": 1795,
      "Ġalo": 1796,
      "Ġtex": 1797,
      "zkur": 1798,
      "uz": 1799,
      "Ġsabab": 1800,
      "rik": 1801,
      "gʻi": 1802,
      "Ġyo‘l": 1803,
      "Ġtak": 1804,
      "xbor": 1805,
      "dida": 1806,
      "Ġboʻyicha": 1807,
      "unday": 1808,
      "”,": 1809,
      "Ġdav": 1810,
      "Ġkon": 1811,
      "chilar": 1812,
      "san": 1813,
      "Ġholat": 1814,
      "jud": 1815,
      "avo": 1816,
      "Ġmun": 1817,
      "Ġko‘ra,": 1818,
      "lagan": 1819,
      "uvi": 1820,
      "chisi": 1821,
      "Ġmudda": 1822,
      "xta": 1823,
      "Ġhoki": 1824,
      "Ġuy": 1825,
      "rim": 1826,
      "go": 1827,
      "nali": 1828,
      "ĠShu": 1829,
      "vat": 1830,
      "Ġtush": 1831,
      "Ġmarkazi": 1832,
      "Ġhudu": 1833,
      "xborot": 1834,
      "Ġishtirok": 1835,
      "biga": 1836,
      "Ġtashkilot": 1837,
      "Ġboʻlgan": 1838,
      "Ġkel": 1839,
      "Ġdoi": 1840,
      "Ġtalab": 1841,
      "Ġedi.": 1842,
      "Ġqishloq": 1843,
      "timo": 1844,
      "Ġsoli": 1845,
      "Ġkm": 1846,
      "Ġol": 1847,
      ".\n\nManbalar": 1848,
      "pe": 1849,
      "radi.": 1850,
      "Ġoyi": 1851,
      "Ġbuy": 1852,
      "sal": 1853,
      "Ġcha": 1854,
      "Ġis": 1855,
      "Ġtadbir": 1856,
      "eo": 1857,
      "Ġoy": 1858,
      "Ġkompaniya": 1859,
      "kan": 1860,
      "Ġtasdiq": 1861,
      "quv": 1862,
      "Ġchora": 1863,
      "Ġkatta": 1864,
      "nida": 1865,
      "Ġmavjud": 1866,
      "Ġla": 1867,
      "Ġorgan": 1868,
      "Ġak": 1869,
      "oliya": 1870,
      "sita": 1871,
      "Ġtizi": 1872,
      "val": 1873,
      "ĠMar": 1874,
      "ĠZ": 1875,
      "hat": 1876,
      "Ġxav": 1877,
      "Ġo‘rta": 1878,
      "Ġharakat": 1879,
      "liga": 1880,
      "bar": 1881,
      "yidagi": 1882,
      "Ġxodim": 1883,
      "is": 1884,
      "Ġ15": 1885,
      "Ġom": 1886,
      "Ġpar": 1887,
      "Ġ18": 1888,
      "nal": 1889,
      "Ġmahsu": 1890,
      "Ġularning": 1891,
      "lmagan": 1892,
      "Ġsan": 1893,
      "Ġqo‘l": 1894,
      "Ġmas": 1895,
      "ĠMu": 1896,
      "tiq": 1897,
      "jon": 1898,
      "usu": 1899,
      "Ġemas": 1900,
      "shim": 1901,
      "Ġguru": 1902,
      "Ġoshiri": 1903,
      "rezident": 1904,
      "ndi": 1905,
      "Ġichi": 1906,
      "bil": 1907,
      "ktlari": 1908,
      "zm": 1909,
      "Ġshak": 1910,
      "qiy": 1911,
      "korlik": 1912,
      "Ġbo‘lib": 1913,
      "Ġtegi": 1914,
      "Ġaj": 1915,
      "Ġyuri": 1916,
      "Ġtez": 1917,
      "ganini": 1918,
      "Ġbo`": 1919,
      "ĠTa": 1920,
      "shda": 1921,
      "Ġnar": 1922,
      "lida": 1923,
      "Ġek": 1924,
      "Ġetilgan": 1925,
      "til": 1926,
      "Ġbirga": 1927,
      "Ġtartib": 1928,
      "Ġeta": 1929,
      "Ġmakta": 1930,
      "Ġsuv": 1931,
      "kinchi": 1932,
      "Ġmeh": 1933,
      "Ġta’min": 1934,
      "Ġelekt": 1935,
      "moya": 1936,
      "Ġyuza": 1937,
      "kid": 1938,
      "sport": 1939,
      "Ġmahal": 1940,
      "Ġbah": 1941,
      "day": 1942,
      "Ġar": 1943,
      "koni": 1944,
      "Ġdavomida": 1945,
      "Ġasosiy": 1946,
      "Ġxalqaro": 1947,
      "Ġyuqo": 1948,
      "liklar": 1949,
      "Ġbo‘lishi": 1950,
      "etr": 1951,
      "21": 1952,
      "Ġmuno": 1953,
      "doni": 1954,
      "sion": 1955,
      "Ġayo": 1956,
      "Ġma’lumot": 1957,
      "Ġso‘z": 1958,
      "Ġnazo": 1959,
      "Ġo‘tkaz": 1960,
      "evro": 1961,
      "Ġxizmati": 1962,
      "magan": 1963,
      "shga": 1964,
      "Ġmiq": 1965,
      "tax": 1966,
      "Ġmahsulot": 1967,
      "Ġviloyat": 1968,
      "ri,": 1969,
      "Ġumu": 1970,
      "O‘": 1971,
      "grafi": 1972,
      "Ġkuch": 1973,
      "Ġaxborot": 1974,
      "Ġtegishli": 1975,
      "Ġoʻz": 1976,
      "yan": 1977,
      "se": 1978,
      "bla": 1979,
      "shini": 1980,
      "fot": 1981,
      "unyo": 1982,
      "Ġrivojlantirish": 1983,
      "Ġyara": 1984,
      "Ġolgan": 1985,
      "Ġtari": 1986,
      "Ġchiqarish": 1987,
      "g`": 1988,
      "erg": 1989,
      "ĠMah": 1990,
      "-mo": 1991,
      "Ġxavf": 1992,
      "ati": 1993,
      "o‘ja": 1994,
      "Ġmasala": 1995,
      "me": 1996,
      "Ġtuman": 1997,
      "Ġholda": 1998,
      "Ġmumkin.": 1999,
      "Ġpun": 2000,
      "Ġrasmiy": 2001,
      "Ġbil": 2002,
      "Ġtashqa": 2003,
      "diya": 2004,
      "Ġyordam": 2005,
      "Ġob": 2006,
      "ĠOʻ": 2007,
      "Ġshuningdek,": 2008,
      "timoiy": 2009,
      "Ġfoiz": 2010,
      "dud": 2011,
      "mmu": 2012,
      "par": 2013,
      "ĠTur": 2014,
      "Ġhudud": 2015,
      "bari": 2016,
      "Ġ(19": 2017,
      "ahon": 2018,
      "Ġso‘m": 2019,
      "lovchi": 2020,
      "lini": 2021,
      "Ġbiz": 2022,
      "Ġyoz": 2023,
      "lanadi.": 2024,
      "Ġmillion": 2025,
      "Ġular": 2026,
      "Ġ12": 2027,
      "Ġg‘": 2028,
      "ke": 2029,
      "Ġ199": 2030,
      "Ġro‘": 2031,
      "Ġvosita": 2032,
      "Ġyuqori": 2033,
      "Bu": 2034,
      "virus": 2035,
      "Ġso‘ng": 2036,
      "Ġjavo": 2037,
      "Ġqaro": 2038,
      "uriy": 2039,
      "assa": 2040,
      "Ġtaqdim": 2041,
      "ral": 2042,
      "yabr": 2043,
      "Ġimkoni": 2044,
      "shimcha": 2045,
      "Ġqiladi": 2046,
      "Ġishlar": 2047,
      "Ġe’": 2048,
      "yev": 2049,
      "Ġmuho": 2050,
      "yish": 2051,
      "moqda.\n": 2052,
      "Ġyaqin": 2053,
      "Ġbelgilangan": 2054,
      "Ġchempi": 2055,
      "Ġmabla": 2056,
      "lam": 2057,
      "Ġquyidagi": 2058,
      "Ġshahri": 2059,
      ").": 2060,
      "Ġsud": 2061,
      "tining": 2062,
      "ĠDavlat": 2063,
      "Ġju": 2064,
      "Ġnom": 2065,
      "oro": 2066,
      "ura": 2067,
      "Ġsport": 2068,
      "-modda": 2069,
      "ĠO‘": 2070,
      "Ya": 2071,
      "Ġmin": 2072,
      "Ġkasal": 2073,
      "Ġhimoya": 2074,
      "zil": 2075,
      "Ġfar": 2076,
      "dik": 2077,
      "Ġjavob": 2078,
      "g‘liq": 2079,
      "Ġfoydalanish": 2080,
      "Ġasosida": 2081,
      "ki,": 2082,
      "ĠBi": 2083,
      "vdo": 2084,
      "qiq": 2085,
      "ĠNa": 2086,
      "Ġsoni": 2087,
      "mmo": 2088,
      "dan,": 2089,
      "ĠVazir": 2090,
      "Ġmunosa": 2091,
      "Ġ11": 2092,
      "Ġbiri": 2093,
      "Ġiqtiso": 2094,
      "Ġmilliy": 2095,
      "Ġqanday": 2096,
      "Ġto‘g‘risidagi": 2097,
      "Ġrahbari": 2098,
      "Ġpa": 2099,
      "xsus": 2100,
      "-son": 2101,
      "lmay": 2102,
      "assasa": 2103,
      "Ġumumiy": 2104,
      "Ġxo‘ja": 2105,
      "Ġsavdo": 2106,
      "Ġhuquq": 2107,
      "Ġharbiy": 2108,
      "Ġse": 2109,
      "Ġkabi": 2110,
      "tibi": 2111,
      "Ġo'": 2112,
      "mis": 2113,
      "Ġtaklif": 2114,
      "Ġer": 2115,
      "chki": 2116,
      "Ġnis": 2117,
      "tishi": 2118,
      "Ġjoriy": 2119,
      "ĠIn": 2120,
      "umla": 2121,
      "noyat": 2122,
      "Ġmuassasa": 2123,
      "ĠQo": 2124,
      "nik": 2125,
      "Ġisti": 2126,
      "ĠKa": 2127,
      "miga": 2128,
      "zod": 2129,
      "Ġan": 2130,
      "lar\n": 2131,
      "Ġasos": 2132,
      "Ġbera": 2133,
      "Ġkenga": 2134,
      "Ġdar": 2135,
      "Ġkorxona": 2136,
      "Ġyilda": 2137,
      "kra": 2138,
      "Ġtah": 2139,
      "Ġnash": 2140,
      "Ġhay": 2141,
      "ĠDe": 2142,
      "Ġyo‘q": 2143,
      "ste": 2144,
      "tu": 2145,
      "lub": 2146,
      "Ġma’lum": 2147,
      "kamasi": 2148,
      "Ġo‘ta": 2149,
      "Ġyoʻ": 2150,
      "-ta": 2151,
      "versi": 2152,
      "Ġtele": 2153,
      "Ġtib": 2154,
      "Ġnisba": 2155,
      "mad": 2156,
      "Ġreja": 2157,
      "tori": 2158,
      "Ġodam": 2159,
      "Ġoʻt": 2160,
      "lishini": 2161,
      "Ġmat": 2162,
      "Ġmuhi": 2163,
      "ayon": 2164,
      "ĠBo": 2165,
      "Ġqayd": 2166,
      "Ġijtimoiy": 2167,
      "Ġvi": 2168,
      "si,": 2169,
      "he": 2170,
      "Ġ0": 2171,
      "Ġ16": 2172,
      "ddiy": 2173,
      "Ġoʻrta": 2174,
      "rol": 2175,
      "dov": 2176,
      "200": 2177,
      "Ġnisbatan": 2178,
      "Ġmusta": 2179,
      "ziyo": 2180,
      "Ġkommu": 2181,
      "rij": 2182,
      "ĠVazirlar": 2183,
      "ft": 2184,
      "ĠW": 2185,
      "yna": 2186,
      "Ġmaxsus": 2187,
      "Ġtran": 2188,
      "sis": 2189,
      "ne": 2190,
      "Ġ14": 2191,
      "Ġjami": 2192,
      "meri": 2193,
      "Ġsoʻ": 2194,
      "sari": 2195,
      "rab": 2196,
      "Ġmablag‘": 2197,
      "shish": 2198,
      "oq": 2199,
      "ĠSha": 2200,
      "demi": 2201,
      "ĠAb": 2202,
      "Ġfil": 2203,
      "Ġvaqt": 2204,
      "Ġro‘yx": 2205,
      "Ġikkinchi": 2206,
      "Ġortiq": 2207,
      "Ġolingan": 2208,
      "onavirus": 2209,
      "Ġqadar": 2210,
      "Ġkam": 2211,
      "bida": 2212,
      "Ġkelib": 2213,
      "Ġres": 2214,
      "Ġ13": 2215,
      "Ġijro": 2216,
      "Shu": 2217,
      "ton": 2218,
      "anu": 2219,
      "ĠBa": 2220,
      "Ġdavom": 2221,
      "Ġbank": 2222,
      "Ġoyida": 2223,
      "Ġyuk": 2224,
      "Ġdol": 2225,
      "Ġ17": 2226,
      "kiya": 2227,
      "ech": 2228,
      "gent": 2229,
      "niga": 2230,
      "mobil": 2231,
      "Ġkm2": 2232,
      "Ġoila": 2233,
      "Ġpunktlari": 2234,
      "ban": 2235,
      "Ġhuku": 2236,
      "Ġbos": 2237,
      "oz": 2238,
      "Ġmoliya": 2239,
      "ril": 2240,
      "Ġajra": 2241,
      "Ġnazorat": 2242,
      "ks": 2243,
      "land": 2244,
      "Ġkar": 2245,
      "Ġchiqish": 2246,
      "ĠMir": 2247,
      "Ġvaziri": 2248,
      "Ġo‘yin": 2249,
      "Ġmarta": 2250,
      "Ġqo‘mi": 2251,
      "Ġnomi": 2252,
      "ĠTo": 2253,
      "lari\n": 2254,
      "Ġmaktab": 2255,
      "rov": 2256,
      "ĠNi": 2257,
      "esti": 2258,
      "ĠMahkamasi": 2259,
      "Ġtopshi": 2260,
      "itoy": 2261,
      "Ġus": 2262,
      "pre": 2263,
      "lati": 2264,
      "gik": 2265,
      "Ġshahrida": 2266,
      "Ġpul": 2267,
      "Ġml": 2268,
      ")\n": 2269,
      "-1": 2270,
      "Ġta’lim": 2271,
      "sat": 2272,
      "Ġoqi": 2273,
      "ĠTe": 2274,
      "sen": 2275,
      "limi": 2276,
      "Ġat": 2277,
      "taqa": 2278,
      "Ġprezidenti": 2279,
      "Ġyak": 2280,
      "Ġbino": 2281,
      "ve": 2282,
      "ina": 2283,
      "»,": 2284,
      "Ġvazifa": 2285,
      "Ġshta": 2286,
      "Ġal": 2287,
      "langan.": 2288,
      "merika": 2289,
      "Ġdunyo": 2290,
      "22": 2291,
      "Ġsiyo": 2292,
      "daryo": 2293,
      "Ġpo": 2294,
      "Ġyuzasidan": 2295,
      "biyot": 2296,
      "nishi": 2297,
      "Ġjumla": 2298,
      "likka": 2299,
      "lit": 2300,
      "ĠLi": 2301,
      "men": 2302,
      "Ġmajb": 2303,
      "qon": 2304,
      "Ġkoʻp": 2305,
      "Ġtarkibiga": 2306,
      "zor": 2307,
      "Ġxavfsiz": 2308,
      "Ġz": 2309,
      "landi.": 2310,
      "-iy": 2311,
      "Ġsaqlash": 2312,
      "Ġochi": 2313,
      "Ġmintaqa": 2314,
      "Ġjuda": 2315,
      "Ġo‘tgan": 2316,
      "Ġko‘rsat": 2317,
      "ĠNo": 2318,
      "Ġoʻyin": 2319,
      "ida": 2320,
      "tlar": 2321,
      "Ġqo‘shimcha": 2322,
      "nov": 2323,
      "Ġru": 2324,
      "roja": 2325,
      "tira": 2326,
      "Ġtushi": 2327,
      "Ġuchrash": 2328,
      "Ġgaz": 2329,
      "Ġhuqu": 2330,
      "xa": 2331,
      "siyo": 2332,
      "ard": 2333,
      "g‘iston": 2334,
      "kam": 2335,
      "Ġuniversi": 2336,
      "Ġqilina": 2337,
      "Ġaloqa": 2338,
      "zat": 2339,
      "Ġo‘qi": 2340,
      "Ġkoronavirus": 2341,
      "ĠPrezidenti": 2342,
      "sim": 2343,
      "Ġfaoliyatini": 2344,
      "Ġmaʼ": 2345,
      "Ġ(1": 2346,
      "Ġturli": 2347,
      "ĠAl": 2348,
      "Ta": 2349,
      "kon": 2350,
      "Ġxusu": 2351,
      "ĠKo": 2352,
      "tal": 2353,
      "Ġ30": 2354,
      "lubi": 2355,
      "mov": 2356,
      "ladi.\n\n": 2357,
      "Ġtek": 2358,
      "zon": 2359,
      "tiv": 2360,
      "Ġmazkur": 2361,
      "Ġmaqsadida": 2362,
      "Ġbora": 2363,
      "likni": 2364,
      "Ġo‘zgar": 2365,
      "Ġbo'": 2366,
      "tar": 2367,
      "Ġhozir": 2368,
      "Ġobye": 2369,
      "ĠFran": 2370,
      "Ġdegan": 2371,
      "xon": 2372,
      "Ġtugʻ": 2373,
      "Ġxorij": 2374,
      "Ġsta": 2375,
      "rishi": 2376,
      "yap": 2377,
      "shina": 2378,
      "Ġ25": 2379,
      "Ġilmiy": 2380,
      "Ġqildi.": 2381,
      "o‘l": 2382,
      "Ġmada": 2383,
      "Ġravi": 2384,
      "Ġfaoliyat": 2385,
      "Ġtaʼ": 2386,
      "ĠRa": 2387,
      "Ġshartnoma": 2388,
      "Ġterma": 2389,
      "Ġo‘tkazish": 2390,
      "ladi,": 2391,
      "chik": 2392,
      "Ġibo": 2393,
      "Ġmuam": 2394,
      "Ġmash": 2395,
      "Ġnafa": 2396,
      "ĠBosh": 2397,
      "ratsiya": 2398,
      "Ġinson": 2399,
      "Ġko`": 2400,
      "Ġxat": 2401,
      "Ġekan": 2402,
      "ĠYevro": 2403,
      "lom": 2404,
      "Ġtomon": 2405,
      "tika": 2406,
      "\n\nH": 2407,
      "zbek": 2408,
      "izi": 2409,
      "Ġbergan": 2410,
      "ziya": 2411,
      "Ġlavo": 2412,
      "Ġmaydon": 2413,
      "nchi": 2414,
      "Ġtekshi": 2415,
      "Ġ1-": 2416,
      "-yilgi": 2417,
      "ĠUshbu": 2418,
      "Ġavtomobil": 2419,
      "ĠKe": 2420,
      "Ġyo‘na": 2421,
      "rgan": 2422,
      "nan": 2423,
      "Ġimzo": 2424,
      "Ġtexno": 2425,
      "Ġbaja": 2426,
      "sil": 2427,
      "buot": 2428,
      "sin.\n": 2429,
      "Ġqismi": 2430,
      "Ġravishda": 2431,
      "ner": 2432,
      "mara": 2433,
      "nini": 2434,
      "im": 2435,
      "ĠII": 2436,
      "ea": 2437,
      "ĠOliy": 2438,
      "riq": 2439,
      "ĠSo": 2440,
      "Ġmuroja": 2441,
      "Ch": 2442,
      "Ġrahbar": 2443,
      "Ġishlari": 2444,
      "grafiyasi": 2445,
      "ksiya": 2446,
      "Ġjamoasi": 2447,
      "hida": 2448,
      "Ġetib": 2449,
      "ero": 2450,
      "von": 2451,
      "Ġkelish": 2452,
      "tirilgan": 2453,
      "lama": 2454,
      "ss": 2455,
      "Ġhokimi": 2456,
      "yingi": 2457,
      "alaba": 2458,
      "chalik": 2459,
      "Ġbosqi": 2460,
      "dora": 2461,
      "Ġmuammo": 2462,
      "Ġmul": 2463,
      "assis": 2464,
      "Ġmunosabat": 2465,
      "Ġyilning": 2466,
      "ĠAr": 2467,
      "yoti": 2468,
      "Ġkelgan": 2469,
      "Ġo‘rinbo": 2470,
      ",5": 2471,
      "Ġzarur": 2472,
      "lanuvchi": 2473,
      "Ġjinoyat": 2474,
      "tuvchi": 2475,
      "Ġlozim": 2476,
      "Ġtarqa": 2477,
      "Ġberilgan": 2478,
      "Ġchek": 2479,
      "holisi": 2480,
      "Ġhamkorlik": 2481,
      "qomat": 2482,
      "mor": 2483,
      "Ġfutbolchi": 2484,
      "lashga": 2485,
      "Ġsoliq": 2486,
      "ali": 2487,
      "ish": 2488,
      "Ġistiqomat": 2489,
      "lash,": 2490,
      "Ġbola": 2491,
      "unga": 2492,
      "Ġfaqat": 2493,
      "Ġto‘g‘risida”": 2494,
      "Ġoch": 2495,
      "arli": 2496,
      "Ġagent": 2497,
      "Ġmuhim": 2498,
      "Ġtarmoq": 2499,
      "Ġ|": 2500,
      "Ġsoat": 2501,
      "tik": 2502,
      "Ġraqa": 2503,
      "ermaniya": 2504,
      "ore": 2505,
      "lashtirilgan": 2506,
      "Ġbaho": 2507,
      "ulo": 2508,
      "qan": 2509,
      "Ġsar": 2510,
      "Ġyubo": 2511,
      "Ġmuddat": 2512,
      "Ġbal": 2513,
      "ganidan": 2514,
      "Ġtartibi": 2515,
      "Ġguruh": 2516,
      "-yilning": 2517,
      "bon": 2518,
      "ĠIs": 2519,
      "ĠMe": 2520,
      "Ġunga": 2521,
      "Ġshakl": 2522,
      "avolalar": 2523,
      "qil": 2524,
      "ski": 2525,
      "ilova": 2526,
      "gust": 2527,
      "Ġfik": 2528,
      "Ġdeya": 2529,
      "Ġmiqdo": 2530,
      "lifbo": 2531,
      "Ġsamara": 2532,
      "Ġket": 2533,
      "shiga": 2534,
      "000": 2535,
      "g'": 2536,
      "Ġmatbuot": 2537,
      "rif": 2538,
      "Ġkommuna": 2539,
      "kati": 2540,
      "Ġkomis": 2541,
      "Ġoldin": 2542,
      "Ġmahalliy": 2543,
      "Ġsov": 2544,
      "Ġqarori": 2545,
      "Ġayol": 2546,
      "taxassis": 2547,
      "Ġhavo": 2548,
      "Ġqur": 2549,
      "redi": 2550,
      "der": 2551,
      "Ġsodir": 2552,
      "Ġvafot": 2553,
      "Ġvakil": 2554,
      "Ġmurojaat": 2555,
      "Ġidora": 2556,
      "Ġhokim": 2557,
      "Ġmehnat": 2558,
      "biq": 2559,
      "-o": 2560,
      "-tadbir": 2561,
      "logik": 2562,
      "Ġdey": 2563,
      "Ġkeng": 2564,
      "Ġularni": 2565,
      "Ġuru": 2566,
      "Ġhech": 2567,
      "ĠMi": 2568,
      "kraina": 2569,
      "ligiga": 2570,
      "lar.": 2571,
      "Ġtizimi": 2572,
      "Ġuchi": 2573,
      "ĠUning": 2574,
      "bay": 2575,
      "Ġqilib": 2576,
      "Ġchora-tadbir": 2577,
      "Ġyanada": 2578,
      "Ġuz": 2579,
      "miz,": 2580,
      "lab-": 2581,
      "ĠHo": 2582,
      "Ġegal": 2583,
      "quvvat": 2584,
      "ayli": 2585,
      "Ġalma": 2586,
      "tiyo": 2587,
      "Ġ||": 2588,
      "zoq": 2589,
      "Ġboshlab": 2590,
      "xo": 2591,
      "Ġ2019": 2592,
      "Ġyash": 2593,
      "Ġ24": 2594,
      "kabr": 2595,
      "Ġosh": 2596,
      "Ġtayin": 2597,
      "voz": 2598,
      "Ġtugʻilgan": 2599,
      "Ġiborat": 2600,
      "Ġhaqidagi": 2601,
      "dqiq": 2602,
      "Ġqilishi": 2603,
      "ĠHa": 2604,
      "jo": 2605,
      "shni": 2606,
      "Ġbog‘liq": 2607,
      "Ġkim": 2608,
      "Ġvaziyat": 2609,
      "Ġinsti": 2610,
      "Ġbo‘lib,": 2611,
      "lab-quvvat": 2612,
      "ĠFar": 2613,
      "kaziy": 2614,
      "zda": 2615,
      "gara": 2616,
      "gram": 2617,
      "ce": 2618,
      "lik,": 2619,
      "sk": 2620,
      "Ġnazar": 2621,
      "Ġyerda": 2622,
      "log": 2623,
      "GC": 2624,
      "Ġ21": 2625,
      "rt": 2626,
      "Ġshax": 2627,
      "ĠTurkiya": 2628,
      "tak": 2629,
      "Ġtuf": 2630,
      "tob": 2631,
      "Ġyig‘i": 2632,
      "sum": 2633,
      "ĠYevropa": 2634,
      "ĠXitoy": 2635,
      "Ġnav": 2636,
      "Ġ2020": 2637,
      "Ġcho": 2638,
      "Ġgol": 2639,
      "ĠYangi": 2640,
      "Ġdoirasida": 2641,
      "deo": 2642,
      "Ġgʻ": 2643,
      "rda": 2644,
      "aydoni": 2645,
      "ĠLe": 2646,
      "Ġma'lum": 2647,
      "ĠQon": 2648,
      "Ġbut": 2649,
      "Ġtufayli": 2650,
      "nika": 2651,
      "vesti": 2652,
      "Alifbo": 2653,
      "Ġko‘rib": 2654,
      "ĠMil": 2655,
      "Ġtizim": 2656,
      "Ġiste": 2657,
      "Ġ23": 2658,
      "Ġqolgan": 2659,
      "Ġel": 2660,
      "-a": 2661,
      "Ġchempiona": 2662,
      "Ġrespublika": 2663,
      "metr": 2664,
      "ĠAf": 2665,
      "-h": 2666,
      "g‘ir": 2667,
      "zom": 2668,
      "ĠOsiyo": 2669,
      "ch,": 2670,
      "lanadi.\n": 2671,
      "Ġeksp": 2672,
      "Ġsho": 2673,
      "dqiqot": 2674,
      "malar": 2675,
      "Ġprezident": 2676,
      "ni,": 2677,
      "ktor": 2678,
      "Ġkira": 2679,
      "Ġnecha": 2680,
      "parta": 2681,
      "ĠMirziyo": 2682,
      "Ġhududi": 2683,
      "urt": 2684,
      "Ġdan": 2685,
      "vkat": 2686,
      "sir": 2687,
      "ĠJa": 2688,
      "Ġ2018": 2689,
      "Ġiy": 2690,
      "xt": 2691,
      "Ġdollar": 2692,
      "zan": 2693,
      "ng‘": 2694,
      "Ġmutaxassis": 2695,
      "ziq": 2696,
      ".uz": 2697,
      "ĠFransiya": 2698,
      "ĠGermaniya": 2699,
      "Ġoʻzi": 2700,
      "bot": 2701,
      "Ġuniversite": 2702,
      "Ġyetkazi": 2703,
      "nash": 2704,
      "Ġtexnologiya": 2705,
      "Ġope": 2706,
      "qand": 2707,
      "Ġe'": 2708,
      "mil": 2709,
      "Ġichki": 2710,
      "ksi": 2711,
      "batida": 2712,
      "Ġpoy": 2713,
      "Ġichida": 2714,
      "ĠAv": 2715,
      "sla": 2716,
      "kak": 2717,
      "Ġto‘xta": 2718,
      "chasi": 2719,
      "lak": 2720,
      "marqand": 2721,
      "Ġvaqtida": 2722,
      "dosh": 2723,
      "ĠRespublikasining": 2724,
      "Ġ22": 2725,
      "Ġtuga": 2726,
      "Ġjahon": 2727,
      "Ġnamo": 2728,
      "Ġma'lumot": 2729,
      "od": 2730,
      "onaviy": 2731,
      "Ġbaland": 2732,
      "Ġeh": 2733,
      "Ġetil": 2734,
      "ĠOʻzbekiston": 2735,
      "ster": 2736,
      "Ġqo‘mitasi": 2737,
      "araf": 2738,
      ".\nA": 2739,
      "ĠO‘zbekistonda": 2740,
      "lok": 2741,
      "Ġoʻr": 2742,
      "ĠSu": 2743,
      "ifa": 2744,
      "Ġjara": 2745,
      "Ġshaharlari": 2746,
      "Ġboshqarmasi": 2747,
      "Ġkilo": 2748,
      "Ġqo‘yil": 2749,
      "lardagi": 2750,
      "Ġxona": 2751,
      "ĠVi": 2752,
      ".\n\nG": 2753,
      "Ġmavsum": 2754,
      "Ġetilishi": 2755,
      "lis": 2756,
      "Ġmaqsad": 2757,
      "Ġalohida": 2758,
      "larimiz": 2759,
      "biya": 2760,
      "Ġ2017": 2761,
      "ĠSi": 2762,
      "shida": 2763,
      "-t": 2764,
      "Ġjarayo": 2765,
      "Ġtartibda": 2766,
      "Ġqoida": 2767,
      "Ġboʻlib,": 2768,
      "tidan": 2769,
      "ĠBe": 2770,
      "yotgani": 2771,
      "Ġdastur": 2772,
      "Ġmashina": 2773,
      "ĠSe": 2774,
      "Ġtala": 2775,
      "baqa": 2776,
      "tsi": 2777,
      "Ġelektr": 2778,
      "Ġiqtisodiy": 2779,
      "li,": 2780,
      "Ġto‘lov": 2781,
      "Ġtashqari,": 2782,
      "Ġammo": 2783,
      "prel": 2784,
      "Ġturi": 2785,
      "Ġhuquqi": 2786,
      "uk": 2787,
      "Ġxari": 2788,
      "rib,": 2789,
      "ddi": 2790,
      "Ġe’lon": 2791,
      "Ġrai": 2792,
      "Ġ“D": 2793,
      "Ġzi": 2794,
      "ham": 2795,
      "ĠNGC": 2796,
      "\n\nHavolalar": 2797,
      "Ġasosan": 2798,
      "Ġqator": 2799,
      "tilishi": 2800,
      "bod": 2801,
      "Ġshuningdek": 2802,
      "Ġhal": 2803,
      "ffa": 2804,
      "Ġ2021": 2805,
      "vestitsiya": 2806,
      "shma": 2807,
      "mart": 2808,
      "Ġko‘ra": 2809,
      "Ġorganlari": 2810,
      "alb": 2811,
      "Ġsoʻng": 2812,
      "Ġyuz": 2813,
      "Ġsharo": 2814,
      "Ġamal": 2815,
      "-ban": 2816,
      "rita": 2817,
      "Ġbayon": 2818,
      "Ġmuko": 2819,
      "ĠMarkaziy": 2820,
      "Ġjamoat": 2821,
      "gona": 2822,
      "Ġoliy": 2823,
      "moniy": 2824,
      "loh": 2825,
      "Ġyili": 2826,
      "Ġtani": 2827,
      "Ġshifo": 2828,
      "fta": 2829,
      "Ġkuza": 2830,
      "fon": 2831,
      "Ġyakun": 2832,
      "anubiy": 2833,
      "0-yil": 2834,
      "ert": 2835,
      "Ġbo‘lsa,": 2836,
      "nomasi": 2837,
      "Ġtashqi": 2838,
      "yapti": 2839,
      "Ġqoli": 2840,
      "Ġmuva": 2841,
      "liklari": 2842,
      "pp": 2843,
      "Ġchegara": 2844,
      "dj": 2845,
      "qal": 2846,
      "ĠQora": 2847,
      "Ġqiy": 2848,
      "Ġbutun": 2849,
      "Ġ“T": 2850,
      "Ġatro": 2851,
      "dro": 2852,
      "rd": 2853,
      "Ġyasha": 2854,
      "Ġo‘rinbosari": 2855,
      "Ġxorijiy": 2856,
      "kov": 2857,
      "Ġakt": 2858,
      "urs": 2859,
      "Ġaka": 2860,
      "ze": 2861,
      "bek": 2862,
      "Ġ198": 2863,
      "Ġhol": 2864,
      "Ġata": 2865,
      "Ġyirik": 2866,
      "jal": 2867,
      "Ġkiritish": 2868,
      "Ġdire": 2869,
      "Ġmln": 2870,
      "Ġkoʻrsa": 2871,
      "Ġta’minlash": 2872,
      "Ġpi": 2873,
      "ĠShi": 2874,
      "ĠMirziyoyev": 2875,
      "Ġxo‘jaligi": 2876,
      "mli": 2877,
      "SS": 2878,
      "Ġdeparta": 2879,
      "Aholisi": 2880,
      "ush": 2881,
      "ldi\n\n": 2882,
      "Ġqiladi.": 2883,
      "ĠAn": 2884,
      "Ġshunday": 2885,
      "yuk": 2886,
      "Ġinf": 2887,
      "ga,": 2888,
      "zu": 2889,
      "Ġjalb": 2890,
      "tibor": 2891,
      "Ġomma": 2892,
      "Ġqilinishi": 2893,
      "Ġsano": 2894,
      "Ġmumkin.\n": 2895,
      "lanib": 2896,
      "Ġchet": 2897,
      "Ġ\nM": 2898,
      "Ġmuvaffa": 2899,
      "Ġpaydo": 2900,
      "mal": 2901,
      "Ġfoizi": 2902,
      "Ġto‘p": 2903,
      "Ġfilm": 2904,
      "Ġvako": 2905,
      "gor": 2906,
      "Ġa’": 2907,
      "Ġbildir": 2908,
      "ĠShavkat": 2909,
      "Ġdu": 2910,
      "lanadi": 2911,
      "Ġ27": 2912,
      "rilishi": 2913,
      "Ġdedi": 2914,
      "ĠXalq": 2915,
      "ana": 2916,
      ":1": 2917,
      "chilari": 2918,
      "Ġmate": 2919,
      "siq": 2920,
      "kru": 2921,
      "Ġtabi": 2922,
      "gʻri": 2923,
      "ĠRo": 2924,
      "sho": 2925,
      "Ġ26": 2926,
      "Ġagentligi": 2927,
      "Ġtor": 2928,
      "Ġyoshli": 2929,
      "ssa": 2930,
      "Ġjam": 2931,
      "Ġhujum": 2932,
      "Ġzam": 2933,
      "Ġmaqo": 2934,
      "eografiyasi": 2935,
      "Ġgi": 2936,
      "Ġmetr": 2937,
      "fe": 2938,
      "Ġishga": 2939,
      "stik": 2940,
      "Ġhaj": 2941,
      "ID": 2942,
      "fes": 2943,
      "sobaqa": 2944,
      ":0": 2945,
      "Ġtibbiy": 2946,
      "Ġchiqqan": 2947,
      "Ġko‘rsatish": 2948,
      "hur": 2949,
      "ritaniya": 2950,
      "Ġklubi": 2951,
      "ĠUkraina": 2952,
      "gan.\n": 2953,
      "Ġle": 2954,
      "uniy": 2955,
      "Ġsaylov": 2956,
      "Ġnatijasida": 2957,
      "rial": 2958,
      "oreya": 2959,
      "xoro": 2960,
      "gun": 2961,
      "uni": 2962,
      "Ġusti": 2963,
      "tut": 2964,
      "Oʻ": 2965,
      "Ġsotib": 2966,
      "Ġa’zo": 2967,
      "Ġstan": 2968,
      "Ġchiqar": 2969,
      "Ġjur": 2970,
      "Ġkichik": 2971,
      "katsiya": 2972,
      "Ġxodimlari": 2973,
      "Ġro‘yxat": 2974,
      "Ġ28": 2975,
      "Ġuzoq": 2976,
      "uli": 2977,
      "Ġust": 2978,
      "Ġuchrashuv": 2979,
      "sib": 2980,
      "Ġboj": 2981,
      "Ġo‘rna": 2982,
      "Ġdasturi": 2983,
      "Ġbermoqda": 2984,
      "Ġorasida": 2985,
      "Ġalmash": 2986,
      "Ġbo‘lish": 2987,
      "Ġoid": 2988,
      "Ġjoyi": 2989,
      "Ġtik": 2990,
      "qalpo": 2991,
      "Ġkirish": 2992,
      "Ġdepartamen": 2993,
      "Ġqo‘y": 2994,
      "miz.": 2995,
      "Ġto‘g‘risida”gi": 2996,
      "ĠNe": 2997,
      "Ġo‘zga": 2998,
      "ngli": 2999,
      "Ġishon": 3000,
      "tti": 3001,
      "Ġombo": 3002,
      "tib,": 3003,
      "Ġbirgalikda": 3004,
      "Ġrux": 3005,
      "Ġbo‘lmagan": 3006,
      "Ġ100": 3007,
      "ldi,": 3008,
      "tiya": 3009,
      "valroq": 3010,
      ".\n\nGeografiyasi": 3011,
      "fat": 3012,
      "Ġyillik": 3013,
      "g‘ar": 3014,
      "Ġ“B": 3015,
      "Ġ50": 3016,
      "Ġmux": 3017,
      "Ġ“A": 3018,
      "Ġkm2.": 3019,
      "tilgan.": 3020,
      "\n\nManbalar": 3021,
      "ahar": 3022,
      "Ġzamonaviy": 3023,
      "laka": 3024,
      "vich": 3025,
      "Ġbunday": 3026,
      "6-yil": 3027,
      "Ġkredi": 3028,
      "che": 3029,
      "Ġtaqdir": 3030,
      "Ġqo‘lga": 3031,
      "-de": 3032,
      "ktabr": 3033,
      "Ġmanba": 3034,
      "Ġteng": 3035,
      "pu": 3036,
      "erti": 3037,
      "Ġqol": 3038,
      "lagan.": 3039,
      "Ġyarim": 3040,
      "bur": 3041,
      "rga": 3042,
      "aryo": 3043,
      "ene": 3044,
      "Ġboʻlib": 3045,
      "..": 3046,
      "mer": 3047,
      "Ġguruhi": 3048,
      "ĠKoreya": 3049,
      "Ġuchra": 3050,
      "yib": 3051,
      "nes": 3052,
      "vor": 3053,
      "oya": 3054,
      "Ġnazarda": 3055,
      "malari": 3056,
      "Ġhuz": 3057,
      "gina": 3058,
      "Ġyo‘nalish": 3059,
      "Ġmuh": 3060,
      "Ġtax": 3061,
      "Ġara": 3062,
      "Ġqo‘llab-quvvat": 3063,
      "Ġilk": 3064,
      "k,": 3065,
      "for": 3066,
      "Ġqurilish": 3067,
      "faza": 3068,
      "5-yil": 3069,
      "Ġhuzuri": 3070,
      "Ġxara": 3071,
      "Ġmos": 3072,
      "Ġyaratish": 3073,
      "fer": 3074,
      "Ġkompaniyasi": 3075,
      "Ġta’kid": 3076,
      "Ġista": 3077,
      "Ġklub": 3078,
      "ĠQozo": 3079,
      "Ġokru": 3080,
      "Ġkunda": 3081,
      "riza": 3082,
      "Ġmilliard": 3083,
      "tlari": 3084,
      "nergiya": 3085,
      "Ġelektron": 3086,
      "ĠSamarqand": 3087,
      "kama": 3088,
      "Ġbudj": 3089,
      "Ġsub": 3090,
      "Ġsobiq": 3091,
      "zlar": 3092,
      "Ġ“M": 3093,
      "ĠTra": 3094,
      "Ġdastlab": 3095,
      "ĠShuningdek,": 3096,
      "Ġqo`": 3097,
      "Ġjis": 3098,
      "per": 3099,
      "Ġtashqari": 3100,
      "Ġkerak.": 3101,
      "ĠRe": 3102,
      "stika": 3103,
      "Ġst": 3104,
      "lmas": 3105,
      "Ġora": 3106,
      "Ġboʻl": 3107,
      "Ġto‘liq": 3108,
      "Ġsurat": 3109,
      "4-yil": 3110,
      "ĠMaj": 3111,
      "uvchilar": 3112,
      "Ġqilgan.": 3113,
      "Ġmurab": 3114,
      "Ġmuhofaza": 3115,
      "Ġos": 3116,
      "ĠKu": 3117,
      "Ġbesh": 3118,
      "Ġko'": 3119,
      "Ġtaj": 3120,
      "Ġayb": 3121,
      "Ġfaol": 3122,
      "Ġtav": 3123,
      "Ġkilometr": 3124,
      "Ġuyu": 3125,
      "ktori": 3126,
      "kilo": 3127,
      "Ġmusobaqa": 3128,
      "lig‘i": 3129,
      "garlik": 3130,
      "Ġerkak": 3131,
      "slatib": 3132,
      "net": 3133,
      "Ġo‘rgani": 3134,
      "Toshkent": 3135,
      "gan,": 3136,
      "Ġ“S": 3137,
      "ergov": 3138,
      "tadi.": 3139,
      "Ġkirit": 3140,
      "99": 3141,
      "gari": 3142,
      "Ġayrim": 3143,
      "Ġxa": 3144,
      "muriy": 3145,
      "Ġhafta": 3146,
      "ligi,": 3147,
      "ede": 3148,
      "Ġota": 3149,
      "Ġenergiya": 3150,
      "Ġbaza": 3151,
      "qiqa": 3152,
      "Ġhukumat": 3153,
      "Ġdaro": 3154,
      "30": 3155,
      "Ġo‘quv": 3156,
      "kki": 3157,
      "ĠQu": 3158,
      "ĠSan": 3159,
      "Ġtayyorlash": 3160,
      "man.": 3161,
      "Ġetdi.": 3162,
      "Ġtumanida": 3163,
      "Ġo‘rtasida": 3164,
      "Ġjar": 3165,
      "moqchi": 3166,
      "evral": 3167,
      "komil": 3168,
      "Ġtransport": 3169,
      "Ġix": 3170,
      "vin": 3171,
      "Ġmahalla": 3172,
      "poniya": 3173,
      "Ġruxsat": 3174,
      "ylab": 3175,
      "3-yil": 3176,
      "Ġinvestitsiya": 3177,
      "ment": 3178,
      "Ġoqibatida": 3179,
      "tatsiya": 3180,
      "Ġter": 3181,
      "onal": 3182,
      "Ġ2-": 3183,
      "tabr": 3184,
      "laydi.": 3185,
      "Ġshaxslar": 3186,
      "Ġozod": 3187,
      "Ġbo‘lsa": 3188,
      "Ġtakomil": 3189,
      "Ġyetak": 3190,
      "Ġtovar": 3191,
      "Ġmarkaz": 3192,
      "Ġyildan": 3193,
      "Ġyan": 3194,
      "Ġo‘q": 3195,
      "yatini": 3196,
      "riba": 3197,
      "Ġbo‘ldi.": 3198,
      "Ġtibbiyot": 3199,
      "Ġtuzi": 3200,
      "qqi": 3201,
      "ĠMilliy": 3202,
      "bus": 3203,
      "Ġinter": 3204,
      "lashtir": 3205,
      "ttifo": 3206,
      "Ġinstitu": 3207,
      "Ġmalaka": 3208,
      "Ġnor": 3209,
      "Ġlavozi": 3210,
      "Ġyozi": 3211,
      "Ġkeyingi": 3212,
      "Ġmulk": 3213,
      "Ġoʻyna": 3214,
      "Ġtumanidagi": 3215,
      "Ġzarar": 3216,
      "Ġbemor": 3217,
      "Ġ(201": 3218,
      "Ġvoq": 3219,
      "Ġpe": 3220,
      "ĠAmerika": 3221,
      "unki": 3222,
      "mino": 3223,
      "Ġfan": 3224,
      "dul": 3225,
      "Ġhalok": 3226,
      "Ġpala": 3227,
      "ĠMahkamasining": 3228,
      "Ushbu": 3229,
      "Ġ197": 3230,
      "g‘a": 3231,
      "Ġvakolat": 3232,
      "dr": 3233,
      "kva": 3234,
      "Ġmanfa": 3235,
      "Ġayollar": 3236,
      "Ġprofes": 3237,
      "disa": 3238,
      "Ġtadqiqot": 3239,
      "Ġhisobi": 3240,
      "Ġerish": 3241,
      "Ġroʻ": 3242,
      "ensiya": 3243,
      "lanadigan": 3244,
      "ĠUn": 3245,
      "Ġqizi": 3246,
      "Ġ\n\nAlifbo": 3247,
      "Ġhisoblanadi.": 3248,
      "Ġchaqi": 3249,
      "Ġjang": 3250,
      "Ġhududida": 3251,
      "Ġmaro": 3252,
      "Ġjazo": 3253,
      "Ġobyekt": 3254,
      "ĠBritaniya": 3255,
      "chiligi": 3256,
      "Ġhukumati": 3257,
      "AR": 3258,
      "stan": 3259,
      "ĠLa": 3260,
      "ĠUlar": 3261,
      "Ġjaro": 3262,
      "Ġbojxona": 3263,
      "taliya": 3264,
      "Ġishi": 3265,
      "goh": 3266,
      "oniston": 3267,
      "Ġbolalar": 3268,
      "rishga": 3269,
      "Ġraisi": 3270,
      "Ġtalaba": 3271,
      "Ġjurnali": 3272,
      "kich": 3273,
      "ĠKenga": 3274,
      "Ġ(200": 3275,
      "Ġariza": 3276,
      "landiya": 3277,
      "Ġbozor": 3278,
      "tiril": 3279,
      "yut": 3280,
      "Ġo‘tkazilgan": 3281,
      "Ġkelishi": 3282,
      "Ġdeyi": 3283,
      "Ġ29": 3284,
      "mush": 3285,
      "Ġvoqea": 3286,
      "Ġmodda": 3287,
      "Ġhisobga": 3288,
      "por": 3289,
      "Ġmuhokama": 3290,
      "mlar": 3291,
      "Ġyuridik": 3292,
      "Ġmaydoni": 3293,
      "ĠMo": 3294,
      "Ġmashhur": 3295,
      "50": 3296,
      "shin": 3297,
      "Shuningdek,": 3298,
      "Ġxil": 3299,
      "Ġtajriba": 3300,
      "Ġnarsa": 3301,
      "Ġoxi": 3302,
      "moliy": 3303,
      "ratura": 3304,
      "-f": 3305,
      "lil": 3306,
      "Ġqiluvchi": 3307,
      "bogi": 3308,
      "s,": 3309,
      "ĠHu": 3310,
      "Ġko‘cha": 3311,
      "Ġnavbat": 3312,
      "Ġ“O‘": 3313,
      "ilgan.": 3314,
      "Da": 3315,
      "Ġlit": 3316,
      "Ġpoli": 3317,
      "ĠTash": 3318,
      "mpaniya": 3319,
      "indi": 3320,
      "ĠBiroq": 3321,
      "-19": 3322,
      ".\nB": 3323,
      "Ġbo‘ladi.": 3324,
      "Ġjumladan": 3325,
      "Ġqilib,": 3326,
      "tirib": 3327,
      "Mu": 3328,
      ")\n\n": 3329,
      "rati": 3330,
      "Ġbit": 3331,
      "xir": 3332,
      "Ġikkita": 3333,
      "Ġsababli": 3334,
      "Ġkas": 3335,
      "gen": 3336,
      "Ġqoʻl": 3337,
      "ndijon": 3338,
      "dal": 3339,
      "Ġtoʻgʻri": 3340,
      "Ġtushun": 3341,
      "Ġkucha": 3342,
      "uldu": 3343,
      "Ġli": 3344,
      "Ġimp": 3345,
      "ngil": 3346,
      "Ġquv": 3347,
      "Ġmustah": 3348,
      "ler": 3349,
      "Ġmanfaat": 3350,
      "Ġvideo": 3351,
      "ytirish": 3352,
      "Eslatib": 3353,
      "ridan": 3354,
      "Ġjismoniy": 3355,
      "Ġxarajat": 3356,
      "masiga": 3357,
      "Ġhuzuridagi": 3358,
      "ash": 3359,
      "udi": 3360,
      "Ġiqtisodi": 3361,
      "Ġvaki": 3362,
      "Ġta'lim": 3363,
      "Ġkir": 3364,
      "Ġbuzi": 3365,
      "Ġaylan": 3366,
      "kar": 3367,
      "ts": 3368,
      "Ġuchinchi": 3369,
      "Ġokrugi": 3370,
      "ror": 3371,
      "Ko": 3372,
      "Ġimkoniyat": 3373,
      "ĠMazkur": 3374,
      "Ġ31": 3375,
      "Ġsana": 3376,
      "ĠPo": 3377,
      "ĠKon": 3378,
      "chta": 3379,
      "Ho": 3380,
      "qalpog‘iston": 3381,
      "Ġ1.": 3382,
      "Ġgap": 3383,
      "Ġmaterial": 3384,
      "Ġovoz": 3385,
      "lanib,": 3386,
      "Ġkomissiya": 3387,
      "Ġishlash": 3388,
      "Ġishtiroki": 3389,
      "ĠBir": 3390,
      "Ġkva": 3391,
      "ĠPrezident": 3392,
      "spaniya": 3393,
      "olib": 3394,
      "Ġtarix": 3395,
      "sul": 3396,
      "fida": 3397,
      "ting": 3398,
      "ĠAmmo": 3399,
      "ĠA.": 3400,
      "Ġtug‘": 3401,
      "ti,": 3402,
      "yanvar": 3403,
      "Ġmustahkam": 3404,
      "ĠLo": 3405,
      "Ġkiradi.": 3406,
      "sh,": 3407,
      "Ġtashrif": 3408,
      "Ġommaviy": 3409,
      "Ġorgani": 3410,
      "puta": 3411,
      "gungi": 3412,
      "sional": 3413,
      ",2": 3414,
      "Ġbor.": 3415,
      "Ġmaʼlumot": 3416,
      "Ġrey": 3417,
      "Ġ“O‘zbekiston": 3418,
      "Ġmadaniy": 3419,
      "lyu": 3420,
      "lashgan": 3421,
      "g‘ona": 3422,
      "Ġakademi": 3423,
      "Ġbekor": 3424,
      "Ġg‘alaba": 3425,
      "ĠO`": 3426,
      "Ġta'min": 3427,
      "ĠKi": 3428,
      "Ġvaqtda": 3429,
      "yon": 3430,
      "ladi\n\n": 3431,
      "Ġsavo": 3432,
      "niyat": 3433,
      "oskva": 3434,
      "Ġnima": 3435,
      "Sa": 3436,
      "ma-": 3437,
      ").\n": 3438,
      "Ġqilishga": 3439,
      "Ġketgan": 3440,
      "-av": 3441,
      "g‘liqni": 3442,
      "Ġkiradi.\n\n": 3443,
      "Ġqila": 3444,
      "Ġbozo": 3445,
      "tet": 3446,
      "8-yil": 3447,
      "Ġproku": 3448,
      "Ġyanvar": 3449,
      "Ġnarx": 3450,
      "Ġtarixi": 3451,
      "Ġtakomillashtirish": 3452,
      "Re": 3453,
      "Ġularga": 3454,
      "ĠChe": 3455,
      "Ġbildi": 3456,
      "Ġqop": 3457,
      "Ġqoldi": 3458,
      "Ġtashkilo": 3459,
      "Ġgu": 3460,
      "rining": 3461,
      "Ġmuvaffaqi": 3462,
      "limpi": 3463,
      "ĠQonun": 3464,
      "Ġyagona": 3465,
      "2-yil": 3466,
      "Ġtexnik": 3467,
      ".,": 3468,
      "Ġkuchli": 3469,
      "Ġnamoyish": 3470,
      "-iyul": 3471,
      "Ġyetkazib": 3472,
      "ĠAy": 3473,
      "lar:": 3474,
      "Ġdoimiy": 3475,
      "Ġmustaqil": 3476,
      "Ġsamarali": 3477,
      "Ġbo‘lgan.": 3478,
      "Ġsohasida": 3479,
      "Ġochiq": 3480,
      "Ġum": 3481,
      "ĠTramp": 3482,
      "Ġemas,": 3483,
      "indiston": 3484,
      "10": 3485,
      "Ġyar": 3486,
      "Ġsah": 3487,
      "Ġtaqiq": 3488,
      "Ġdeydi": 3489,
      "laydi": 3490,
      "ĠFa": 3491,
      ",3": 3492,
      "Ġkol": 3493,
      "tari": 3494,
      ",6": 3495,
      "Ġkengashi": 3496,
      "Ġundan": 3497,
      "sto": 3498,
      "Ġsharoit": 3499,
      "Ġ2.": 3500,
      "Ġvositalari": 3501,
      "Ġostida": 3502,
      "ĠEron": 3503,
      "Ġhaydov": 3504,
      "ĠJanubiy": 3505,
      "Ġhamkor": 3506,
      "Ġsamol": 3507,
      "Ġsat": 3508,
      "Ġ000": 3509,
      "ayra": 3510,
      "Ġlekin": 3511,
      "lmaydi.": 3512,
      "Ġdepartamenti": 3513,
      "lab,": 3514,
      "Ġtizimini": 3515,
      "Ġbosqich": 3516,
      "van": 3517,
      "ĠDi": 3518,
      "ziga": 3519,
      "Ġko‘proq": 3520,
      ",4": 3521,
      "Ġbalki": 3522,
      "Ġo‘tamiz,": 3523,
      "Ġ196": 3524,
      "Ġona": 3525,
      "Ġviloyatida": 3526,
      "arbiy": 3527,
      "ge": 3528,
      "ĠShar": 3529,
      "talar": 3530,
      "anda": 3531,
      "Ġ40": 3532,
      "drat": 3533,
      "Ġvakillari": 3534,
      "Ġtabiiy": 3535,
      "Ġavi": 3536,
      "ĠAbdu": 3537,
      "Ġeka": 3538,
      "Ġtuz": 3539,
      "Ġpast": 3540,
      "ĠChi": 3541,
      "Ġkurash": 3542,
      "1-yil": 3543,
      "Ġfikr": 3544,
      "Ġuyush": 3545,
      "Ġdeyiladi": 3546,
      "In": 3547,
      "Ġfarzan": 3548,
      "ren": 3549,
      "Ġjumladan,": 3550,
      "sab": 3551,
      "kasi": 3552,
      ",7": 3553,
      "Ġdaromad": 3554,
      "boshi": 3555,
      "Ġmiqdor": 3556,
      "Ġbogʻ": 3557,
      "mi,": 3558,
      "Ġpaytda": 3559,
      "ff": 3560,
      "Ġmehmon": 3561,
      "Ġtil": 3562,
      "Ġreji": 3563,
      "ĠPa": 3564,
      "Ġhujjatlar": 3565,
      "Ġuyi": 3566,
      "tinchi": 3567,
      "Ġjarayon": 3568,
      "skiy": 3569,
      "FA": 3570,
      ",1": 3571,
      "Ġfor": 3572,
      "Ġfon": 3573,
      "Ġberuvchi": 3574,
      "Ġkvadrat": 3575,
      "Av": 3576,
      "Ġqo‘yi": 3577,
      "Ġasl": 3578,
      "7-yil": 3579,
      "-may": 3580,
      "Ġdarajada": 3581,
      "Ġyorda": 3582,
      "Ġtadbirkor": 3583,
      "Ġhisobida": 3584,
      "bati": 3585,
      "Ġjan": 3586,
      "-te": 3587,
      "ĠBuxoro": 3588,
      "Ġo‘zgartirish": 3589,
      "Ġrus": 3590,
      "Ġavval": 3591,
      "Ġvakili": 3592,
      "ci": 3593,
      "Ġov": 3594,
      "Ġqiymati": 3595,
      "zatsiya": 3596,
      "Ġqildi": 3597,
      "say": 3598,
      "Ġdavrida": 3599,
      "Ġberadi": 3600,
      "tov": 3601,
      "Ġqurol": 3602,
      "ĠAholi": 3603,
      "Ġliga": 3604,
      "Ġsin": 3605,
      "Ġ\nMaydoni": 3606,
      "shiq": 3607,
      "Ġqildi.\n": 3608,
      ",8": 3609,
      "mmat": 3610,
      "Ġshahridagi": 3611,
      "Ġijo": 3612,
      "Ġbo‘ladi.\n": 3613,
      "Ġdeputa": 3614,
      "24": 3615,
      "sel": 3616,
      "mak": 3617,
      "Ġkommunadir.": 3618,
      "Ġhuk": 3619,
      "Ġtergov": 3620,
      "Ġta'kid": 3621,
      "ers": 3622,
      "san,": 3623,
      "Ġport": 3624,
      "Ġustidan": 3625,
      "Ġmasalalari": 3626,
      "Ġkodek": 3627,
      "Ġberdi.": 3628,
      "Ġkasallik": 3629,
      "Ġboy": 3630,
      "ildi.": 3631,
      "Ġmuvaffaqiyat": 3632,
      "Ġayt": 3633,
      "klar": 3634,
      "aryo”": 3635,
      "Ġyaku": 3636,
      "Ġerkin": 3637,
      "Ġdirektori": 3638,
      "nada": 3639,
      "stra": 3640,
      "ling": 3641,
      "Ġhodisa": 3642,
      "ĠYo": 3643,
      "Ġjamg‘ar": 3644,
      "Ġfuqarolar": 3645,
      "Ġog‘ir": 3646,
      "-qi": 3647,
      "-sh": 3648,
      "eriya": 3649,
      "Ġboshqaruvi": 3650,
      "Ġtili": 3651,
      "Rossiya": 3652,
      "-j": 3653,
      ".\n“": 3654,
      "Ġhududiy": 3655,
      "-i": 3656,
      "Ġtavsiya": 3657,
      "Ġх": 3658,
      "Na": 3659,
      "Ġbanki": 3660,
      "tishga": 3661,
      "Ġqurish": 3662,
      "laridagi": 3663,
      "sar": 3664,
      "Ġshaxsiy": 3665,
      "hon": 3666,
      "Ġnarxi": 3667,
      "dofa": 3668,
      "Ġsalo": 3669,
      "Ġoʻrin": 3670,
      "Ġhola": 3671,
      "Ġtutilgan": 3672,
      "ĠJahon": 3673,
      "Ġkura": 3674,
      "kka": 3675,
      "Ġsiyosiy": 3676,
      "dofaa": 3677,
      "Ġsanoat": 3678,
      "Ġroʻyx": 3679,
      "Ġdo‘": 3680,
      "Ġkredit": 3681,
      "Ġborish": 3682,
      "Ġtopi": 3683,
      "o‘ljal": 3684,
      "Ġqimmat": 3685,
      "ori": 3686,
      "lahat": 3687,
      "Ġkiritilgan": 3688,
      "Ġsathi": 3689,
      "shanba": 3690,
      "II": 3691,
      "Ġtura": 3692,
      "-avgust": 3693,
      "Ġboshqarish": 3694,
      "uriya": 3695,
      "avoiy": 3696,
      "Ġpoytax": 3697,
      "qu": 3698,
      "Ġoʻrtacha": 3699,
      "zal": 3700,
      "hami": 3701,
      "ĠIIB": 3702,
      "Ġoʻtkaz": 3703,
      "ĠCo": 3704,
      "ĠPrezidentining": 3705,
      "Ġsiz": 3706,
      "?\n": 3707,
      "ck": 3708,
      "Ġyetish": 3709,
      "Ġxususiy": 3710,
      "Ġdastlabki": 3711,
      "ligida": 3712,
      "Ġkanali": 3713,
      "Ġmoliyaviy": 3714,
      "jorat": 3715,
      "Ġbosqichi": 3716,
      "Ġturgan": 3717,
      "-dekabr": 3718,
      "Ġkata": 3719,
      "Ġkiradi.\n\nAholisi": 3720,
      "Ġishla": 3721,
      "Ġaf": 3722,
      "Ġhayot": 3723,
      "Ġmintaqasida": 3724,
      "23": 3725,
      "hammad": 3726,
      "Ġtadbirkorlik": 3727,
      "Ġtemir": 3728,
      "Ġko‘rish": 3729,
      "Ġmart": 3730,
      "Ġissiq": 3731,
      "jikiston": 3732,
      "Ġaksiya": 3733,
      "lifi": 3734,
      "Ġasr": 3735,
      "ĠBiz": 3736,
      "dlar": 3737,
      "Va": 3738,
      "Ġtarbiya": 3739,
      "ratsiyasi": 3740,
      "Ġqilish,": 3741,
      "ĠAd": 3742,
      "ĠG‘": 3743,
      "atsiya": 3744,
      "laja": 3745,
      "Ġeshi": 3746,
      "Ġishonch": 3747,
      "Ġto`": 3748,
      "roz": 3749,
      "yekt": 3750,
      "ĠBar": 3751,
      "Ġqurilma": 3752,
      "Ġavva": 3753,
      "ĠQoraqalpog‘iston": 3754,
      "Ġsinov": 3755,
      "landi.\n": 3756,
      "Ġbalandlikda": 3757,
      "ĠYaponiya": 3758,
      "Ġbitta": 3759,
      "Ġbuyon": 3760,
      "Ġetadi.": 3761,
      "dina": 3762,
      "tirgan": 3763,
      "Ġqiz": 3764,
      "Ġjihat": 3765,
      "Ġiste’": 3766,
      "ĠTi": 3767,
      "ok": 3768,
      "Ġkechi": 3769,
      "ulosa": 3770,
      "Tur": 3771,
      "Ġzich": 3772,
      "Ġyub": 3773,
      "lek": 3774,
      "Ġyuldu": 3775,
      "ĠKar": 3776,
      "Ġomborida": 3777,
      "ĠMoskva": 3778,
      "Ġxo‘jalik": 3779,
      "mizda": 3780,
      "lan,": 3781,
      "Ġtasdiqlangan": 3782,
      "Ġaero": 3783,
      "Ġviloyatining": 3784,
      "Ġuchun,": 3785,
      "Ġ“Daryo”": 3786,
      "ĠBundan": 3787,
      "-no": 3788,
      "tadi": 3789,
      "Ġsal": 3790,
      "Ġbori": 3791,
      "mni": 3792,
      "Ġfoydalani": 3793,
      "-o‘": 3794,
      "Ġhaq": 3795,
      "-A": 3796,
      "Ġberishi": 3797,
      "Ġmlrd": 3798,
      "Ġyur": 3799,
      "Ġtuzil": 3800,
      "ĠRi": 3801,
      "Ġunda": 3802,
      "Ġucha": 3803,
      "qib": 3804,
      "Ġqatnash": 3805,
      "18": 3806,
      "Ġiz": 3807,
      "dabiyot": 3808,
      "Ġtoifa": 3809,
      "Ġo‘zaro": 3810,
      "Ġeʼ": 3811,
      "pul": 3812,
      "Ġahami": 3813,
      "kro": 3814,
      "lar)": 3815,
      "b-": 3816,
      "ĠTele": 3817,
      "Ġsathidan": 3818,
      "Ġbiroq": 3819,
      "ĠLiga": 3820,
      "Ġpan": 3821,
      "ransport": 3822,
      "ĠDengiz": 3823,
      "Ġboʻlgan.": 3824,
      "Ġmen": 3825,
      "Ġul": 3826,
      "ĠItaliya": 3827,
      "shon": 3828,
      "Ġ“K": 3829,
      "Ġqonunchilik": 3830,
      "Ġtexnika": 3831,
      "qtisodiy": 3832,
      "Ġamali": 3833,
      "Ġqir": 3834,
      "Ġjoylarda": 3835,
      "Ġxatboshi": 3836,
      "Ġmaslahat": 3837,
      "kara": 3838,
      "ĠPu": 3839,
      "ĠIspaniya": 3840,
      "Ġkoʻra,": 3841,
      "Ġziyo": 3842,
      "Ġkino": 3843,
      "Ġmajmu": 3844,
      "Ġ2022": 3845,
      "bul": 3846,
      "Ġnomzod": 3847,
      "Ġuniversiteti": 3848,
      "Ġbog‘": 3849,
      "yoq": 3850,
      "-yanvar": 3851,
      "ĠAgar": 3852,
      "AS": 3853,
      "Ġo‘rtasidagi": 3854,
      "ĠIC": 3855,
      "Ġyo`": 3856,
      "Ġdaryo": 3857,
      "hbat": 3858,
      "Ġmo‘ljal": 3859,
      "Ġtarkibi": 3860,
      "ĠShundan": 3861,
      "Ġoldini": 3862,
      "RI": 3863,
      "Ġqilindi.": 3864,
      "ĠJi": 3865,
      "rifi": 3866,
      "ziston": 3867,
      "sga": 3868,
      "kuna": 3869,
      "sin;\n": 3870,
      "m,": 3871,
      "ber": 3872,
      "Ġjiho": 3873,
      "ĠAQShning": 3874,
      "De": 3875,
      "Ġloyihasi": 3876,
      "Ġgeo": 3877,
      "Ġnashri": 3878,
      "Ġko‘rsatkich": 3879,
      "mangan": 3880,
      "Ġnuq": 3881,
      "maydi.": 3882,
      "mlari": 3883,
      "9-yil": 3884,
      "sofa": 3885,
      "Ġedi.\n": 3886,
      "Ġaytgan": 3887,
      "-joy": 3888,
      "Ġichiga": 3889,
      "ĠJo": 3890,
      "dning": 3891,
      "Ġkiriti": 3892,
      "Ġqarashli": 3893,
      "burg": 3894,
      "Ġmusi": 3895,
      "Ġpre": 3896,
      "Ġyoʻl": 3897,
      "Ġxarid": 3898,
      "ada": 3899,
      "Ġo‘n": 3900,
      "tibo": 3901,
      "Ġizo": 3902,
      "Ġyo‘li": 3903,
      "AQSh": 3904,
      "Ġxizmatlari": 3905,
      "Ġso‘nggi": 3906,
      "Ġlavozim": 3907,
      "Ġxavfsizlik": 3908,
      "Ġhujjatlari": 3909,
      "Ġush": 3910,
      "bili": 3911,
      "MT": 3912,
      "g‘ida": 3913,
      "chon": 3914,
      "dri": 3915,
      "ahra": 3916,
      "ng‘in": 3917,
      "razi": 3918,
      "Ġchiqari": 3919,
      "Ġoq": 3920,
      "Ġon": 3921,
      "ĠRas": 3922,
      "\",": 3923,
      "ĠHozir": 3924,
      "voh": 3925,
      "Ġboshlig‘i": 3926,
      "Ġprovin": 3927,
      "Ġjamiyat": 3928,
      "Ġso‘zlari": 3929,
      "Ġmoddiy": 3930,
      "Ġjarohat": 3931,
      "Ġko‘rini": 3932,
      "ĠFransiyaning": 3933,
      "Ġqisqa": 3934,
      "Ġturib": 3935,
      "ĠO`zbekiston": 3936,
      "Ġxos": 3937,
      "Ġyoshlar": 3938,
      ",9": 3939,
      "Ġoldi.": 3940,
      "Ġe'lon": 3941,
      "dorlik": 3942,
      "Ġbiznes": 3943,
      "Ġtarzda": 3944,
      "Ġdori": 3945,
      "Ġ.": 3946,
      "grafiya": 3947,
      "ovqat": 3948,
      "Ġtahri": 3949,
      "lovi": 3950,
      "12": 3951,
      "gan.\n\n": 3952,
      "qish": 3953,
      "Ġmasofa": 3954,
      "matik": 3955,
      "Ġkamida": 3956,
      "ĠOlimpi": 3957,
      "taraf": 3958,
      "Ġoziq": 3959,
      "Ġxulosa": 3960,
      "ĠAng": 3961,
      "ca": 3962,
      "ĠQozog‘iston": 3963,
      ",0": 3964,
      "ĠHindiston": 3965,
      "Ġfoizga": 3966,
      "Ġchiqib": 3967,
      "dio": 3968,
      ":00": 3969,
      "ttifoqi": 3970,
      "stoni": 3971,
      "shi,": 3972,
      "Ġo‘zining": 3973,
      "Ġmuddatda": 3974,
      "ishloq": 3975,
      "kkinchi": 3976,
      "g‘oniston": 3977,
      "Ġkitob": 3978,
      "eksiya": 3979,
      "ĠSho": 3980,
      "Ġtashkilotlar": 3981,
      "o‘r": 3982,
      "-ovqat": 3983,
      "Ġhosil": 3984,
      "tor": 3985,
      "ayd": 3986,
      "qaror": 3987,
      "Ġqulay": 3988,
      "-noyabr": 3989,
      "Ġko‘r": 3990,
      "Ġtin": 3991,
      "Ġaholisi": 3992,
      "nati": 3993,
      "\n|": 3994,
      "Ġyubor": 3995,
      "Ġprokuratura": 3996,
      "Ġko‘z": 3997,
      "1.": 3998,
      "Ġturni": 3999,
      "Ġberdi.\n\n": 4000,
      "Ġboshqaruv": 4001,
      "Ġmiqdori": 4002,
      "ĠAbdul": 4003,
      "ĠYu": 4004,
      "Oʻzbekiston": 4005,
      "minan": 4006,
      "Ġilova": 4007,
      "-sonli": 4008,
      "Ġmurabbiy": 4009,
      "Ġisloh": 4010,
      "AT": 4011,
      "Ġyuzaga": 4012,
      "Bi": 4013,
      "senziya": 4014,
      "Ġemas.": 4015,
      "ĠMuhammad": 4016,
      "stitut": 4017,
      "Ġyod": 4018,
      "ovchi": 4019,
      "Ġeksport": 4020,
      "Ġsifat": 4021,
      "g‘ul": 4022,
      "Ġmet": 4023,
      "Ġusta": 4024,
      "Ġeva": 4025,
      "Ġfun": 4026,
      "Ġso‘ra": 4027,
      "dra": 4028,
      "ĠKeyin": 4029,
      "Ġolma": 4030,
      "Ġzichligi": 4031,
      "xira": 4032,
      "Ġaʼ": 4033,
      "Ġaniqlash": 4034,
      "Ġtekshir": 4035,
      "lament": 4036,
      "tidagi": 4037,
      "qadaryo": 4038,
      "ĠNizom": 4039,
      "Ġqo‘mita": 4040,
      "Ġbahs": 4041,
      "mda": 4042,
      "Ġrad": 4043,
      "Ġmukofo": 4044,
      "Ġyillarda": 4045,
      "Ġur": 4046,
      "-da": 4047,
      "onlar": 4048,
      "zadi": 4049,
      "yotganini": 4050,
      "25": 4051,
      "Te": 4052,
      "Ġnashrida": 4053,
      "Ġkishi.\n\nGeografiyasi": 4054,
      "merikalik": 4055,
      "Ġkamay": 4056,
      "Ġ3.": 4057,
      "Ġtarmo": 4058,
      "Ġtara": 4059,
      "Ġberdi.\n": 4060,
      "”.\n\n": 4061,
      "Ġkunlari": 4062,
      "ksina": 4063,
      "Ġtasvir": 4064,
      "sin:\n": 4065,
      "Ġetgan.": 4066,
      "Ġbartaraf": 4067,
      "Ġmer": 4068,
      "ĠBirinchi": 4069,
      "yoh": 4070,
      "Ġah": 4071,
      "Ġoda": 4072,
      "Ġberadi.": 4073,
      "Ġ2016": 4074,
      "-oktabr": 4075,
      "Ġdoir": 4076,
      "ĠAndijon": 4077,
      "-ona": 4078,
      "Ġmajburiy": 4079,
      "Ġko‘rsatilgan": 4080,
      "ju": 4081,
      "gach,": 4082,
      "Ġkatalog": 4083,
      "Ġof": 4084,
      "Ġmual": 4085,
      "Ġuchast": 4086,
      "Ġqarz": 4087,
      "Ġodamlar": 4088,
      "likning": 4089,
      "jar": 4090,
      "Ġve": 4091,
      "ashqadaryo": 4092,
      "yatga": 4093,
      "ĠQir": 4094,
      "-mart": 4095,
      "Ġetilgan.": 4096,
      "voza": 4097,
      "ĠUni": 4098,
      "moqda,": 4099,
      "Ġijara": 4100,
      "Ġiyul": 4101,
      "Ġ194": 4102,
      "Ġmode": 4103,
      "dim.": 4104,
      "Ġkolle": 4105,
      "Ġoperatsiya": 4106,
      "Ġaʼzo": 4107,
      "zokara": 4108,
      "nikatsiya": 4109,
      "dir.\n\n": 4110,
      "likdan": 4111,
      "Ġnashr": 4112,
      "usta": 4113,
      "Ġ60": 4114,
      "Ġqo‘yish": 4115,
      "Ġosti": 4116,
      "2020": 4117,
      "Ġedi": 4118,
      "Ġvaqtin": 4119,
      "Ġjoylashgan.": 4120,
      "Ġolina": 4121,
      "ley": 4122,
      "uqur": 4123,
      "tel": 4124,
      "erge": 4125,
      "muna": 4126,
      "Ġqiyin": 4127,
      "Ġaks": 4128,
      "Ġmajburi": 4129,
      "ĠThe": 4130,
      "ĠMoliya": 4131,
      "Ġso`": 4132,
      "Ġma’lumotlar": 4133,
      "Ġhukm": 4134,
      "Ġqishlo": 4135,
      "Ġbo‘lin": 4136,
      "lanma": 4137,
      "Ġinsp": 4138,
      "ĠShimoliy": 4139,
      "Ġetishi": 4140,
      "Ġbundan": 4141,
      "Ġchora-tadbirlari": 4142,
      "-3": 4143,
      "stru": 4144,
      "sand": 4145,
      "Ġmunosabati": 4146,
      "Ġshug‘ul": 4147,
      "ket": 4148,
      "Ġtomonlama": 4149,
      "-ma": 4150,
      "Ġvazirligi,": 4151,
      "gani,": 4152,
      "Ġmasji": 4153,
      "Ġkotibi": 4154,
      "ĠXo": 4155,
      "urta": 4156,
      "Ġkilometrga": 4157,
      "ĠHar": 4158,
      ".\nMa": 4159,
      "Ġochko": 4160,
      "rate": 4161,
      "may,": 4162,
      "Ġqozon": 4163,
      "Ġjavobgar": 4164,
      "bn": 4165,
      "Ġbudjet": 4166,
      "met": 4167,
      "Ġyordamida": 4168,
      "Ġyo‘lga": 4169,
      "Ġjihoz": 4170,
      "Ġkasb": 4171,
      "deni": 4172,
      "Ġaniqlangan": 4173,
      "Ġdaqiqa": 4174,
      "Ġge": 4175,
      "ĠBel": 4176,
      "5-yilda": 4177,
      "ĠLu": 4178,
      "ĠNavoiy": 4179,
      "Ġkundu": 4180,
      "Ġ“O": 4181,
      "laydigan": 4182,
      "Ġholati": 4183,
      "Ġasar": 4184,
      "Ġsug‘": 4185,
      "ĠYe": 4186,
      "Ġkelishuv": 4187,
      "ĠBuyuk": 4188,
      "uqu": 4189,
      "Ġvalyu": 4190,
      "chib": 4191,
      "lishiga": 4192,
      "Ġtahlil": 4193,
      "Ġdekabr": 4194,
      "sentabr": 4195,
      "Ġguvoh": 4196,
      "Ġkundan": 4197,
      "Ġfarq": 4198,
      "Ġzaxira": 4199,
      "Ġmuz": 4200,
      "“,": 4201,
      "Ġaprel": 4202,
      "Ġyashovchi": 4203,
      "Ġo`t": 4204,
      "Ġnafari": 4205,
      "ĠM.": 4206,
      "Ġ35": 4207,
      "-as": 4208,
      "Ġham,": 4209,
      "mga": 4210,
      "Ġtashab": 4211,
      "Ġmarkaziy": 4212,
      "buzar": 4213,
      ").\n\n": 4214,
      "Ġsayti": 4215,
      "tiruvchi": 4216,
      "Ġresurs": 4217,
      "oto": 4218,
      "AV": 4219,
      "Ġbo‘limi": 4220,
      "tayotgan": 4221,
      "ĠTojikiston": 4222,
      "Ġchunki": 4223,
      "Ġmuni": 4224,
      "Ġo‘ziga": 4225,
      "Ġchiqarilgan": 4226,
      "atto": 4227,
      "lararo": 4228,
      "Ġoxir": 4229,
      "Ġmas’": 4230,
      "Ġoʻzining": 4231,
      "ĠQo‘": 4232,
      "psiya": 4233,
      "laktika": 4234,
      "Ġavgust": 4235,
      "Ġqo'": 4236,
      "maniston": 4237,
      "Ġband": 4238,
      "Ġishchi": 4239,
      "Ġchuqur": 4240,
      "Ġmajmua": 4241,
      "Ġstandar": 4242,
      "lanmagan": 4243,
      "lisi": 4244,
      "antin": 4245,
      "Ġchempion": 4246,
      "4-yilda": 4247,
      "Ġtest": 4248,
      "ĠBer": 4249,
      "Ġberil": 4250,
      "ĠXalqaro": 4251,
      "qulo": 4252,
      "Ġsohasidagi": 4253,
      "bal": 4254,
      "loqot": 4255,
      "Ġsuratga": 4256,
      "ĠAh": 4257,
      "yani": 4258,
      "Ġkur": 4259,
      "ĠEr": 4260,
      "Ġsuhbat": 4261,
      "Ġtugʻilganlar\n": 4262,
      "’dagi": 4263,
      "Ġhayoti": 4264,
      "ĠMaydoni": 4265,
      "dimi": 4266,
      "Ġso‘zlariga": 4267,
      "Ġ195": 4268,
      "Ġvaksina": 4269,
      "risa": 4270,
      "Xalq": 4271,
      "Ġtelefon": 4272,
      "Ġyog‘i": 4273,
      "Ġusul": 4274,
      "Ġstati": 4275,
      "2021": 4276,
      "Ġnizom": 4277,
      "Ġsamolyot": 4278,
      "Ġtoʻp": 4279,
      "tra": 4280,
      "-iyun": 4281,
      "shayotgan": 4282,
      "Ġmaydonga": 4283,
      "dini": 4284,
      "ngliz": 4285,
      "2019": 4286,
      "lar.\n": 4287,
      "Ġ2000": 4288,
      "-moddasi": 4289,
      "tisos": 4290,
      "Ġsarf": 4291,
      "Ġqora": 4292,
      "zini": 4293,
      "Ġtinch": 4294,
      "Ġulu": 4295,
      "Ġkubogi": 4296,
      "Ġrioya": 4297,
      "Ġtartibga": 4298,
      "Ġtamo": 4299,
      "-y": 4300,
      "uquqiy": 4301,
      "Ġton": 4302,
      "Ġqancha": 4303,
      "Ġharakati": 4304,
      "ĠFarg‘ona": 4305,
      "g‘u": 4306,
      "g‘on": 4307,
      "xonasi": 4308,
      "Ġsog‘": 4309,
      "Ġo‘quvchi": 4310,
      "Ġishlarini": 4311,
      "Ġmexa": 4312,
      "Ġmeros": 4313,
      "urxon": 4314,
      "-da,": 4315,
      "Ġprofessional": 4316,
      "Pa": 4317,
      "Ġoltin": 4318,
      "Ġto‘lash": 4319,
      "masini": 4320,
      "Ġsiyosa": 4321,
      "Ġpartiya": 4322,
      "Ġhali": 4323,
      "Ġyetkaz": 4324,
      "sin.": 4325,
      "”ga": 4326,
      "arorat": 4327,
      "hqon": 4328,
      "Ġvazirlik": 4329,
      "zam": 4330,
      "man,": 4331,
      "Ġo`z": 4332,
      "Ġtushgan": 4333,
      "Ġyon": 4334,
      "ta,": 4335,
      "Ġyopi": 4336,
      "zax": 4337,
      "Ġbuyurt": 4338,
      "Ġoziq-ovqat": 4339,
      "Ġzavo": 4340,
      "Ġnoyabr": 4341,
      "Ġmajbur": 4342,
      "Ġvalyuta": 4343,
      "Ġxal": 4344,
      "Ġnamuna": 4345,
      "Ġtanlov": 4346,
      "2.": 4347,
      "Ġyaqi": 4348,
      "Ġmavzu": 4349,
      "ĠSuriya": 4350,
      "ĠGa": 4351,
      "Ġetildi.": 4352,
      "Ġtanqi": 4353,
      ".\nU": 4354,
      "Ġsen": 4355,
      "diga": 4356,
      "3.": 4357,
      "uddi": 4358,
      "Ġberdi": 4359,
      "raziliya": 4360,
      "shyo": 4361,
      "leks": 4362,
      "Ġmukofot": 4363,
      "Ġulardan": 4364,
      "Ġmahsulotlari": 4365,
      "landi\n\n": 4366,
      "Ġjari": 4367,
      "ĠTelegram": 4368,
      "masligi": 4369,
      "ĠPe": 4370,
      "Ġqilishni": 4371,
      "Ġaktyor": 4372,
      "Ġbara": 4373,
      "rum": 4374,
      "Ġendi": 4375,
      "Ġbo‘lma": 4376,
      "/s": 4377,
      "Ġrol": 4378,
      "Ġo‘zini": 4379,
      "-p": 4380,
      "Ġtrans": 4381,
      "Ġshifokor": 4382,
      "Ġnus": 4383,
      "maslik": 4384,
      "Ġoʻtgan": 4385,
      "Ġqut": 4386,
      "199": 4387,
      "Ġxususiya": 4388,
      "Ġkadr": 4389,
      "Ġdip": 4390,
      "Ġneft": 4391,
      "Ġfoydalanuvchi": 4392,
      "Ġyulduz": 4393,
      "Ġmuzokara": 4394,
      "Ġbiti": 4395,
      "Ġma`": 4396,
      "Ġdarvoza": 4397,
      "Ġuchta": 4398,
      "adi.": 4399,
      "Ġerta": 4400,
      "Ġko‘plab": 4401,
      "Ġmol": 4402,
      "Ġturmush": 4403,
      "Ġtoza": 4404,
      "Ġota-ona": 4405,
      "’ga": 4406,
      "sor": 4407,
      "g‘iziston": 4408,
      "mativ": 4409,
      "dik.": 4410,
      "qulodda": 4411,
      "Ġoʻqi": 4412,
      "-aprel": 4413,
      "Ġchora-tadbirlar": 4414,
      "zida": 4415,
      "ĠDo": 4416,
      "Ġqaratilgan": 4417,
      "ĠAfg‘oniston": 4418,
      "Ha": 4419,
      "Ġyong‘in": 4420,
      "Ġsafar": 4421,
      "Ġsum": 4422,
      "ĠMen": 4423,
      "Ġko‘mak": 4424,
      "Ġuchastka": 4425,
      "Ġen": 4426,
      "ĠTu": 4427,
      "Ġtanish": 4428,
      "Lo": 4429,
      "Ġmavjud.": 4430,
      "Gol": 4431,
      "Ġbarqaror": 4432,
      "Ġimkoniyati": 4433,
      "Li": 4434,
      "Ġqildi.\n\n": 4435,
      "smi": 4436,
      "yishi": 4437,
      "Ġtonna": 4438,
      "Ġoʻyinda": 4439,
      "qobat": 4440,
      "Ġkuti": 4441,
      "Ġkes": 4442,
      "demiya": 4443,
      "Ġsotish": 4444,
      "Ġjiddiy": 4445,
      "Ġqoʻlga": 4446,
      "miya": 4447,
      "Ġyevro": 4448,
      "40": 4449,
      "Ġiqtisodiyot": 4450,
      "Ġmag‘": 4451,
      "3-yilda": 4452,
      "ten": 4453,
      "ĠNamangan": 4454,
      "qonuniy": 4455,
      "Ġqisqar": 4456,
      "Ġ()": 4457,
      "aho": 4458,
      "Ġmusiqa": 4459,
      "Sha": 4460,
      "gir": 4461,
      "Ġqilishicha,": 4462,
      "Ġyodgor": 4463,
      "dis": 4464,
      "Ġbo‘lgani": 4465,
      "g`i": 4466,
      "Ġnusxa": 4467,
      "Ġoshir": 4468,
      "lanayotgan": 4469,
      "ĠAra": 4470,
      "Ġaholini": 4471,
      "IM": 4472,
      "atga": 4473,
      "ĠLekin": 4474,
      "taba": 4475,
      "Ġimtiyo": 4476,
      "com": 4477,
      "Ġiliq": 4478,
      "izzax": 4479,
      "Qayd": 4480,
      "ktyabr": 4481,
      "Ġzim": 4482,
      "ddin": 4483,
      "bos": 4484,
      "60": 4485,
      "Ġo‘zbek": 4486,
      "7-yilda": 4487,
      "Ġo‘yna": 4488,
      "Ġborasida": 4489,
      "Ġkechasi": 4490,
      "Ġa'": 4491,
      "tga": 4492,
      "rator": 4493,
      "Fa": 4494,
      "und": 4495,
      "Ġbermoqda.\n\n": 4496,
      "Real": 4497,
      "Ġqaroriga": 4498,
      "Ġiyun": 4499,
      "entyabr": 4500,
      "Ġtark": 4501,
      "zarbay": 4502,
      "Ġo‘tish": 4503,
      "Ġhozirgi": 4504,
      "Ġkomissiyasi": 4505,
      "ork": 4506,
      "Ġyetakchi": 4507,
      "ĠToshkentda": 4508,
      "ser": 4509,
      "Ġvaqti": 4510,
      "Ġolti": 4511,
      "Ġtug‘ilgan": 4512,
      "Ġlitsenziya": 4513,
      "Ġpolitsiya": 4514,
      "Ġtaxminan": 4515,
      "Ġ(sh": 4516,
      "Ġehtiyo": 4517,
      "Ġavia": 4518,
      "Ġmablag‘lari": 4519,
      "sizlik": 4520,
      "Ġkech": 4521,
      "Ġjurnalist": 4522,
      "Ġmo‘ljallangan": 4523,
      "choq": 4524,
      "Ġolishi": 4525,
      "Ġtezkor": 4526,
      "Ġagar": 4527,
      "Ġhisobot": 4528,
      "Ġsur": 4529,
      "Ġqilingan.": 4530,
      "Ġmamlakatda": 4531,
      "mb": 4532,
      "zarbayjon": 4533,
      "ez": 4534,
      "Ġtashkiloti": 4535,
      "Ġbajarish": 4536,
      "midagi": 4537,
      "-sentabr": 4538,
      "Qo": 4539,
      "Ġfer": 4540,
      "Ġalmashtiril": 4541,
      "lashni": 4542,
      "ĠAJ": 4543,
      "lanishicha,": 4544,
      "tishicha,": 4545,
      "Ġsheri": 4546,
      "Hozir": 4547,
      "Ġro‘yxati": 4548,
      "Ġbirga,": 4549,
      "Ġiste’mol": 4550,
      "eva": 4551,
      "ĠFi": 4552,
      "moli": 4553,
      "Ġmuloqot": 4554,
      "len": 4555,
      "atiga": 4556,
      "ĠPar": 4557,
      "landi": 4558,
      "ĠPre": 4559,
      "Ġkiyi": 4560,
      "Ġto‘ldi": 4561,
      "Ġboʻldi.": 4562,
      "Ġdavri": 4563,
      "unar": 4564,
      "Ġkuchi": 4565,
      "Ġetilishicha,": 4566,
      "Ġchempionati": 4567,
      "ng,": 4568,
      "BA": 4569,
      "Ġinstituti": 4570,
      "mid": 4571,
      "Ġsahifa": 4572,
      "Ġdavr": 4573,
      "selona": 4574,
      "maʼ": 4575,
      "Ġta`": 4576,
      "Ġqatna": 4577,
      "Ġto‘rt": 4578,
      "8-yilda": 4579,
      "Ġtariqa": 4580,
      "arakat": 4581,
      "Ġyozadi": 4582,
      "sht": 4583,
      "Ġbur": 4584,
      "id": 4585,
      "Ġhuquqiy": 4586,
      "Ġixtisos": 4587,
      "garchilik": 4588,
      "Ġchor": 4589,
      "Ġshartnomasi": 4590,
      "Ġbo‘lim": 4591,
      ".\n«": 4592,
      "Ġyengil": 4593,
      "Ġjamiyati": 4594,
      "Ġmamlakati": 4595,
      "Ġkurashish": 4596,
      "Ġhisobidan": 4597,
      "Ġo‘sha": 4598,
      "80": 4599,
      "yapti.": 4600,
      "6-yilda": 4601,
      "-ki": 4602,
      "mlik": 4603,
      "Hu": 4604,
      "ĠO‘z": 4605,
      "Ġnechta": 4606,
      "Ġancha": 4607,
      "sno": 4608,
      "Ġhamma": 4609,
      "Ġquruq": 4610,
      "Ġfili": 4611,
      "Ġxalqi": 4612,
      "Ġkeskin": 4613,
      "Ġolgan.": 4614,
      "Ġyut": 4615,
      "Ġaynan": 4616,
      "toriya": 4617,
      "Ġraqobat": 4618,
      "co": 4619,
      "Ġa'zo": 4620,
      "Ġhollarda": 4621,
      "ordina": 4622,
      "Ġgaze": 4623,
      "Ga": 4624,
      "Ġdeyarli": 4625,
      "Ġsiyosat": 4626,
      "lashicha,": 4627,
      "Ġtijorat": 4628,
      "1-yilda": 4629,
      "Ġsaqlab": 4630,
      "Ġetishga": 4631,
      "Ġdengiz": 4632,
      "Ġoladi.": 4633,
      "ertifi": 4634,
      "sano": 4635,
      "Ġoʻrtasidagi": 4636,
      "Ġyetib": 4637,
      "Ġmuassasalari": 4638,
      "2-yilda": 4639,
      "Ġmaktabi": 4640,
      "Ke": 4641,
      "Ġver": 4642,
      "15": 4643,
      "Ġ90": 4644,
      "kala": 4645,
      "ĠPro": 4646,
      "ĠIslom": 4647,
      "ĠMan": 4648,
      "\n\nA": 4649,
      "Ġstrate": 4650,
      "Ġtashkilotlari": 4651,
      "Ġilgari": 4652,
      "layn": 4653,
      ":2": 4654,
      "salan,": 4655,
      "rika": 4656,
      "NI": 4657,
      "Ġ«B": 4658,
      "Ġyashash": 4659,
      "Ġislohot": 4660,
      "Ġ2019-yil": 4661,
      "Ġoʻtkazi": 4662,
      "Ġmuddati": 4663,
      "__": 4664,
      "Ġizoh": 4665,
      "lanadi.\n\n": 4666,
      "dori": 4667,
      "Ġbuyum": 4668,
      "shidan": 4669,
      "Ġro‘yxatdan": 4670,
      "Ġmoliyalashtirish": 4671,
      "Ġqo‘llab-quvvatlash": 4672,
      "Ġmadaniyat": 4673,
      "OV": 4674,
      "kul": 4675,
      "shun": 4676,
      "Ġamaliy": 4677,
      "ĠEl": 4678,
      "Ġqismida": 4679,
      ".\n\nManbalar\n\nHavolalar": 4680,
      "Ġnuqta": 4681,
      "Ġkeyinchalik": 4682,
      "Ġad": 4683,
      "Ġe’tibor": 4684,
      "Ġkengaytirish": 4685,
      "Ġkunduzi": 4686,
      "lishida": 4687,
      "ĠBunda": 4688,
      "Ġ70": 4689,
      "Ġkuchga": 4690,
      "Ġedi.\n\n": 4691,
      "Ġbajari": 4692,
      "Ġ33": 4693,
      "zay": 4694,
      "Ġbuz": 4695,
      "ĠPutin": 4696,
      "Ġekanligini": 4697,
      "ĠJinoyat": 4698,
      "str": 4699,
      "atr": 4700,
      "mining": 4701,
      "Ġrahbarlari": 4702,
      "Ġbo`yicha": 4703,
      "ssi": 4704,
      "tiladi.": 4705,
      "Ġjarima": 4706,
      "Ġinsho": 4707,
      "langani": 4708,
      "Ġjino": 4709,
      "Ġ\nA": 4710,
      "Ġnoqonuniy": 4711,
      "biri": 4712,
      "Ġtosh": 4713,
      "urxondaryo": 4714,
      "ska": 4715,
      "Ġovqat": 4716,
      "Ġuy-joy": 4717,
      "Ġkarantin": 4718,
      "Ġ4.": 4719,
      "Ġturar": 4720,
      "17": 4721,
      "Ġxaba": 4722,
      "Ġmavsu": 4723,
      "Ġbaholash": 4724,
      "midan": 4725,
      "Ġmeda": 4726,
      "4.": 4727,
      "ng‘i": 4728,
      "Ġsudi": 4729,
      "Ġhayvon": 4730,
      "Ġmajburiyat": 4731,
      "gʻiston": 4732,
      "ktura": 4733,
      "Ġatrof": 4734,
      "udiya": 4735,
      "gal": 4736,
      "Ġang": 4737,
      "Ġjihatdan": 4738,
      "Bundan": 4739,
      "orazm": 4740,
      "mosha": 4741,
      "ĠHam": 4742,
      "Ġsolish": 4743,
      "Ġnormativ": 4744,
      "ĠNor": 4745,
      "Ġibn": 4746,
      "dago": 4747,
      "Ġiq": 4748,
      "Ġpalatasi": 4749,
      "kti": 4750,
      "ĠFede": 4751,
      "Ġdollarga": 4752,
      "-5": 4753,
      "Ġoshira": 4754,
      "mizning": 4755,
      "Ġhokimligi": 4756,
      "Ġjarayoni": 4757,
      "Ġobyektlari": 4758,
      "zib": 4759,
      "Ġsara": 4760,
      "ĠTashqi": 4761,
      "alla": 4762,
      "kab": 4763,
      "Ġkoronavirusga": 4764,
      "Ġstatistika": 4765,
      "Ġboshla": 4766,
      "ĠRasmiy": 4767,
      "los": 4768,
      "arb": 4769,
      "dlari": 4770,
      "ĠViki": 4771,
      "lingan": 4772,
      "Ġ/": 4773,
      "Ġqo‘sh": 4774,
      "Ġbugungi": 4775,
      "Ġ500": 4776,
      "ĠVe": 4777,
      "Ġahvo": 4778,
      "ĠZa": 4779,
      "-huquqiy": 4780,
      "Ġhaydovchi": 4781,
      "Ġ193": 4782,
      "Ġkeladi.": 4783,
      "Ġta’mino": 4784,
      "Ġbayra": 4785,
      "chan": 4786,
      "Ġzona": 4787,
      "Ġchiqaruvchi": 4788,
      "Me": 4789,
      "ngiz,": 4790,
      ".\nS": 4791,
      "Ġpas": 4792,
      "Ġeri": 4793,
      "Ġxonadon": 4794,
      "ĠIchki": 4795,
      "Mar": 4796,
      "Ġoshiriladi.\n": 4797,
      "-2": 4798,
      "Ġaktrisa": 4799,
      "ono": 4800,
      "-s": 4801,
      "Ġhujjatlarni": 4802,
      "bora": 4803,
      "Ġtezlikda": 4804,
      "xsha": 4805,
      "Ġpaxta": 4806,
      "Ġ45": 4807,
      "Ġshifoxona": 4808,
      "chester": 4809,
      "Ġkiritgan": 4810,
      "Ġtana": 4811,
      ".\n\nA": 4812,
      "zin": 4813,
      "Ġqal": 4814,
      "Ġqonuniy": 4815,
      "Ġmingdan": 4816,
      "Ġjamoatchilik": 4817,
      "Ġo‘qituvchi": 4818,
      "qul": 4819,
      "Ġumum": 4820,
      "Ġinternet": 4821,
      "ĠHi": 4822,
      "Ġteleka": 4823,
      "masdan": 4824,
      "Ġ“Y": 4825,
      ":\n\n": 4826,
      "rip": 4827,
      "Ġ(2010": 4828,
      "Ġqildi,": 4829,
      "Ġharakatlari": 4830,
      "zma": 4831,
      "ssiya": 4832,
      ".\n\nT": 4833,
      "Ġzimmasiga": 4834,
      "Ġayni": 4835,
      "gich": 4836,
      "tazam": 4837,
      "Ġolishga": 4838,
      "tni": 4839,
      "Ġvazirligining": 4840,
      "ĠBan": 4841,
      "Ġturdagi": 4842,
      "ĠKor": 4843,
      "Ġ(A": 4844,
      "’ning": 4845,
      "Ġqo‘z": 4846,
      "shib": 4847,
      "Ġsertifi": 4848,
      "Ġfevral": 4849,
      "Ġuskuna": 4850,
      "maydigan": 4851,
      "ĠQonunchilik": 4852,
      "ĠKengashi": 4853,
      "ani": 4854,
      "larini,": 4855,
      "ĠUlarning": 4856,
      "9-yilda": 4857,
      "Ġbuyur": 4858,
      "\n\nManbalar\n\nHavolalar": 4859,
      "Ġ(2": 4860,
      "t,": 4861,
      "Ġoddiy": 4862,
      "qqat": 4863,
      "Ġtekshiruv": 4864,
      "enko": 4865,
      "Ġchempionatida": 4866,
      "umli": 4867,
      "pol": 4868,
      "Ġbilim": 4869,
      "Ġdavlatlar": 4870,
      "ĠS.": 4871,
      "-P": 4872,
      "ĠBMT": 4873,
      "Ġkelayotgan": 4874,
      "lanishini": 4875,
      "o‘g‘ri": 4876,
      "Ġdona": 4877,
      "Ġtarkibida": 4878,
      "roil": 4879,
      "ĠQashqadaryo": 4880,
      "Ġdehqon": 4881,
      "Ġnaza": 4882,
      "Ġqism": 4883,
      "diri": 4884,
      "Ġtaraqqi": 4885,
      "toq": 4886,
      "Prezident": 4887,
      "Ġjo‘": 4888,
      "Ġo‘tkazil": 4889,
      "Ġhisobiga": 4890,
      "shunos": 4891,
      "lajak": 4892,
      "Ġkerak.\n": 4893,
      "Ġqiladi.\n": 4894,
      "mul": 4895,
      "Ġgacha": 4896,
      "arselona": 4897,
      "chmas": 4898,
      "Ġbo‘ylab": 4899,
      "litet": 4900,
      "Ġyetarli": 4901,
      "Ġevaziga": 4902,
      "Ġkut": 4903,
      "ddan": 4904,
      "ĠO‘zbekistonning": 4905,
      "Ġal-": 4906,
      "Ġgʻalaba": 4907,
      "Ġmulki": 4908,
      "Ġxizmatlar": 4909,
      "Ġimkonini": 4910,
      "Ġboʻlishi": 4911,
      "rasi": 4912,
      "-tex": 4913,
      "straliya": 4914,
      "ĠAli": 4915,
      "Ġtarixiy": 4916,
      "joz": 4917,
      "vay": 4918,
      "viya": 4919,
      "Ġjamg‘armasi": 4920,
      "Ġjarayonida": 4921,
      "Ġshakllantirish": 4922,
      "Ġgo‘": 4923,
      "Ġdarajasi": 4924,
      "Ġ36": 4925,
      "eti": 4926,
      "ĠAngliya": 4927,
      "vet": 4928,
      "Ġpaytida": 4929,
      "Ġholda,": 4930,
      "Ġolib,": 4931,
      "Ġmexani": 4932,
      "Ġpalata": 4933,
      "bin": 4934,
      "’ni": 4935,
      "ĠAs": 4936,
      "ĠPi": 4937,
      "Ġ80": 4938,
      "ĠVladi": 4939,
      "Ġetiladi.": 4940,
      "ĠSar": 4941,
      "Ġnomidagi": 4942,
      "Ġnatijalari": 4943,
      "Ġnafaqat": 4944,
      "laydi.\n": 4945,
      "ĠIl": 4946,
      "Ġyo‘lovchi": 4947,
      "ĠQoʻ": 4948,
      "Ġpayt": 4949,
      "Ġqo‘llani": 4950,
      "Ġsamarador": 4951,
      "Ġurush": 4952,
      "Ġxodimi": 4953,
      "Ġarxi": 4954,
      "tot": 4955,
      "Ġta’sir": 4956,
      "16": 4957,
      "palitet": 4958,
      "Ġhujjatlariga": 4959,
      "Ġpor": 4960,
      "nish": 4961,
      "mizga": 4962,
      "\n\nO‘zbekiston": 4963,
      "Davlat": 4964,
      "lashuv": 4965,
      "Ġ“Q": 4966,
      "gon": 4967,
      "Ġhatto": 4968,
      "Ġtopshiri": 4969,
      "Ġrozi": 4970,
      "Ġprovinsiyasi": 4971,
      "chiq": 4972,
      "Ġo‘l": 4973,
      "lashish": 4974,
      "Ġsug‘urta": 4975,
      "Biz": 4976,
      "Ġbo‘ladi": 4977,
      "Ġhissa": 4978,
      "Ġ(3": 4979,
      "Ġetish,": 4980,
      "kal": 4981,
      "2022": 4982,
      "Ġaytishicha,": 4983,
      "g‘li": 4984,
      "ĠAnd": 4985,
      "lega": 4986,
      "sanoat": 4987,
      "ĠIsh": 4988,
      "Ġraqami": 4989,
      "Ba": 4990,
      "Ġmobay": 4991,
      "Ġxavfsizligi": 4992,
      "Ġbo`lgan": 4993,
      "-fevral": 4994,
      "Yangi": 4995,
      "Ġoylik": 4996,
      "ĠO‘zbekistonga": 4997,
      "Ġsavol": 4998,
      "Ġmiqdorida": 4999,
      "2018": 5000,
      "\n\n\n\n": 5001,
      "Ġ37": 5002,
      "Ġuzun": 5003,
      "Ma’": 5004,
      "ĠPol": 5005,
      "da.": 5006,
      ".0": 5007,
      "ĠYer": 5008,
      "soz": 5009,
      "Ġavvalgi": 5010,
      "Ġfermer": 5011,
      "qara": 5012,
      "Ġto'": 5013,
      "lansin.\n": 5014,
      "Ġkg": 5015,
      "evra": 5016,
      "Ġfede": 5017,
      "Ġko‘ri": 5018,
      "Ja": 5019,
      "Ġholatiga": 5020,
      "Ġoxirgi": 5021,
      "ĠKari": 5022,
      "Ġ«A": 5023,
      "ĠOl": 5024,
      "o‘p": 5025,
      "mish": 5026,
      "Ġboril": 5027,
      "ĠGo": 5028,
      "Ġshtatida": 5029,
      "Ġ2020-yil": 5030,
      "-u": 5031,
      "90": 5032,
      "Ġkimyo": 5033,
      "Ġtomosha": 5034,
      "Ġbo‘ldi": 5035,
      "ty": 5036,
      "smon": 5037,
      "Ġyomon": 5038,
      "Ġqo‘yilgan": 5039,
      "Ġdars": 5040,
      "nay": 5041,
      "Ġedi,": 5042,
      "ĠOAV": 5043,
      "Ġyangilik": 5044,
      "Ġbirlash": 5045,
      "Ġishtirokida": 5046,
      "Ġega.": 5047,
      "lari”": 5048,
      "tina": 5049,
      "chak": 5050,
      "larni,": 5051,
      "Ġdiplo": 5052,
      "ordinatalar": 5053,
      "Ġgra": 5054,
      "Ġqavat": 5055,
      "Ġtasdiqlash": 5056,
      "Ġbogʻliq": 5057,
      "Ġuniversitet": 5058,
      "tadigan": 5059,
      "ertiza": 5060,
      "Ġetib,": 5061,
      "lasi": 5062,
      "Ġrang": 5063,
      "Ġturadi,": 5064,
      "Ġmudofaa": 5065,
      "Ġchiqishi": 5066,
      "Ġmuntazam": 5067,
      ");\n": 5068,
      "Ġbuyurtma": 5069,
      "shadi.": 5070,
      "Ġviloyatlar": 5071,
      "ngʻ": 5072,
      "rey": 5073,
      "Ġoʻzgar": 5074,
      "zbekistonlik": 5075,
      "Ġ34": 5076,
      "Ġeko": 5077,
      "davlat": 5078,
      "Ġso‘zlar": 5079,
      "Ġo‘rganish": 5080,
      "ganida": 5081,
      "ĠJizzax": 5082,
      "tildi.": 5083,
      "Ġmahrum": 5084,
      "buna": 5085,
      "Ġyo‘qo": 5086,
      "uzil": 5087,
      "yer": 5088,
      "ĠAdliya": 5089,
      "Ġkuzat": 5090,
      "Ġzo": 5091,
      "Ġqachon": 5092,
      "m.": 5093,
      "hu": 5094,
      "ĠUnda": 5095,
      "uncha": 5096,
      "Ġhuquqlari": 5097,
      "Bo": 5098,
      "maʼlumot": 5099,
      "jjat": 5100,
      "ĠCa": 5101,
      "Ġmobaynida": 5102,
      "Ġtopshiriq": 5103,
      "Ġtuzilgan": 5104,
      "di.\n“": 5105,
      "Ġrivojlanish": 5106,
      "-asr": 5107,
      "tning": 5108,
      "ĠChempi": 5109,
      "Ġjinoiy": 5110,
      "Ġvaz": 5111,
      "Ġo‘tdi.": 5112,
      "kompaniya": 5113,
      "Ġtekshirish": 5114,
      "Ġ(O‘zbekiston": 5115,
      "Yashayotgan": 5116,
      "To": 5117,
      "Ġzarba": 5118,
      "Ġehtiyoj": 5119,
      "ligidan": 5120,
      "Ġmasalalar": 5121,
      "ĠVikimaʼlumot": 5122,
      "boyev": 5123,
      "Ġqilinadi.": 5124,
      "Ġo‘zgarish": 5125,
      "Ġinshoot": 5126,
      "ĠQirg‘iziston": 5127,
      "Ġmiqdorda": 5128,
      "Ġbiroz": 5129,
      "Ġamerikalik": 5130,
      "ilov": 5131,
      "Ġmansab": 5132,
      "Ġdam": 5133,
      "langan,": 5134,
      "Koordinatalar": 5135,
      "ĠVikimaʼlumotlarda": 5136,
      "'zi": 5137,
      "Ġqaramay,": 5138,
      "di;\n": 5139,
      "udj": 5140,
      "Ġhaqiqiy": 5141,
      "Ġtelevi": 5142,
      "Ġmunitsi": 5143,
      "oma": 5144,
      "din": 5145,
      "-4": 5146,
      "Ġw": 5147,
      "fiy": 5148,
      "Ġrekor": 5149,
      "yida": 5150,
      "TI": 5151,
      "ES": 5152,
      "rupsiya": 5153,
      "Ġthe": 5154,
      "ondon": 5155,
      "Ġyashi": 5156,
      "Ġnavbatdagi": 5157,
      "ratuzil": 5158,
      "Ġbajar": 5159,
      "one": 5160,
      ".com": 5161,
      "Ġinstitut": 5162,
      "Ġkapi": 5163,
      "Ġehti": 5164,
      "’zi": 5165,
      "Ġaytib": 5166,
      "tishni": 5167,
      "Ġten": 5168,
      "Ġingliz": 5169,
      "vosita": 5170,
      "Ġishlarni": 5171,
      "roli": 5172,
      "ktab": 5173,
      "ĠGʻ": 5174,
      "Ġby": 5175,
      "Ġchiqarib": 5176,
      "Ġbuni": 5177,
      "vka": 5178,
      "Ġtayyorgarlik": 5179,
      "Ġyilga": 5180,
      "anubi": 5181,
      "Ġishlagan": 5182,
      "les": 5183,
      "Ġchiqib,": 5184,
      "ususan,": 5185,
      "Ġhisob-ki": 5186,
      "Ġekanini": 5187,
      "tali": 5188,
      "Ġqurilishi": 5189,
      "Ġoxirida": 5190,
      "Ġholatda": 5191,
      "Ġmarosi": 5192,
      "Ġqildi\n\n": 5193,
      "Ġetiladi.\n": 5194,
      "ted": 5195,
      "ĠAk": 5196,
      "Ġvazirining": 5197,
      "’iy": 5198,
      "Ġbiror": 5199,
      "rtinchi": 5200,
      "layotgani": 5201,
      "ĠMat": 5202,
      "ĠRossiyaning": 5203,
      "viga": 5204,
      "Ġimti": 5205,
      "Ġsoʻng,": 5206,
      "ulton": 5207,
      "Ġyubori": 5208,
      "ĠBunday": 5209,
      "Ġhozirda": 5210,
      "Ġkirib": 5211,
      "ed": 5212,
      "ĠMeh": 5213,
      "irdaryo": 5214,
      "Ġqilindi.\n": 5215,
      "ĠMis": 5216,
      "Ġhajmi": 5217,
      "Ġishlati": 5218,
      "Ġo‘si": 5219,
      "Ġ46": 5220,
      "Ġyo‘q.": 5221,
      "-ilova": 5222,
      "bel": 5223,
      "Ġetuvchi": 5224,
      "lashda": 5225,
      "g‘ish": 5226,
      "Ġxoʻ": 5227,
      "Ġsog‘liqni": 5228,
      "yu-": 5229,
      "Ġkodeksining": 5230,
      "vest": 5231,
      "monlar": 5232,
      "mi?": 5233,
      "Ġmuvaffaqiyatli": 5234,
      "Ġshaxslarning": 5235,
      "Ġlozim.": 5236,
      "ligining": 5237,
      "Ġfinal": 5238,
      "Ġboshladi.": 5239,
      "vey": 5240,
      "Ġeʼlon": 5241,
      "Ġtarmog‘i": 5242,
      "Ġmavsumda": 5243,
      "Mazkur": 5244,
      "LAR": 5245,
      "Ġimtiyoz": 5246,
      "Ġkeldi.": 5247,
      "Ġko‘zda": 5248,
      "raga": 5249,
      "Ġqilinishicha,": 5250,
      "Ġqaysi": 5251,
      "Ġinfratuzil": 5252,
      "Ġhamkorlikni": 5253,
      "Ġ2021-yil": 5254,
      "Ġ(ke": 5255,
      "Ġkutil": 5256,
      "Ġkoʻra": 5257,
      "all": 5258,
      "ĠJam": 5259,
      "un.uz": 5260,
      "Ġaholining": 5261,
      "Ġada": 5262,
      "ĠRah": 5263,
      "gh": 5264,
      "ker": 5265,
      "Ġ5.": 5266,
      "Ġ“I": 5267,
      "Ġavlo": 5268,
      "Ġqahra": 5269,
      "Ġyadro": 5270,
      "Ġ38": 5271,
      "chilarning": 5272,
      "IC": 5273,
      "Ġqo‘shimchalar": 5274,
      "qnash": 5275,
      "Ġ32": 5276,
      "Ġoʻgʻ": 5277,
      "Ġkla": 5278,
      "orozi": 5279,
      "leksand": 5280,
      "Ġturizm": 5281,
      "stitutsiya": 5282,
      "Ġayniq": 5283,
      "Ġdelega": 5284,
      "’at": 5285,
      "Ġmuddatli": 5286,
      "Ġ“N": 5287,
      "mit": 5288,
      "variya": 5289,
      "Ġsohi": 5290,
      "atar": 5291,
      "uf": 5292,
      "Ġot": 5293,
      "ano": 5294,
      "Ġuchrashuvi": 5295,
      "-iqtisodiy": 5296,
      "Ġijobiy": 5297,
      "Ġyilgi": 5298,
      "Ġyashay": 5299,
      "Ġimkon": 5300,
      "Ġmedal": 5301,
      "Ġaudi": 5302,
      "ergetika": 5303,
      "Ġxoʻja": 5304,
      "Ġurushi": 5305,
      "ildi": 5306,
      "ĠQar": 5307,
      "Ġyo‘nal": 5308,
      "Ġlozim.\n": 5309,
      "11": 5310,
      "ĠArabi": 5311,
      "LI": 5312,
      "Ġparlament": 5313,
      ".\nAv": 5314,
      "Ġsazo": 5315,
      "Ġ,": 5316,
      "ĠAholisi": 5317,
      "Ġelchi": 5318,
      "ĠXorazm": 5319,
      "ĠSurxondaryo": 5320,
      "Ġbarpo": 5321,
      "tse": 5322,
      "nib,": 5323,
      "Ġtaraf": 5324,
      "iyo": 5325,
      "mizni": 5326,
      "Ġmusul": 5327,
      "giron": 5328,
      "Ġtuza": 5329,
      "Ġinno": 5330,
      "Ġqamoq": 5331,
      "Ġrake": 5332,
      "ĠGu": 5333,
      "Ġstadi": 5334,
      "rang": 5335,
      "tall": 5336,
      "mokra": 5337,
      "Ġo‘yi": 5338,
      "Yana": 5339,
      "Ġ(199": 5340,
      "Ġsazovor": 5341,
      "Ġqoʻsh": 5342,
      "Ġrejalashtiri": 5343,
      "ĠKoʻ": 5344,
      "Ġkafo": 5345,
      "bit": 5346,
      "Ġjad": 5347,
      "ei": 5348,
      "Ġqismini": 5349,
      "Ġsut": 5350,
      "Ġhisoblanadi.\n": 5351,
      "qich": 5352,
      "mirlash": 5353,
      "Ġklu": 5354,
      "Ka": 5355,
      "ON": 5356,
      "arov": 5357,
      "let": 5358,
      "Ġmumkin,": 5359,
      "Ġ(S": 5360,
      "mlakat": 5361,
      "Ġsherik": 5362,
      "Ġyol": 5363,
      "Avvalroq": 5364,
      "eni": 5365,
      "ziz": 5366,
      "Ġhokimiyat": 5367,
      "Ġem": 5368,
      "Ġko‘ta": 5369,
      "gno": 5370,
      "onald": 5371,
      "nggi": 5372,
      "Ġnomli": 5373,
      "ĠJon": 5374,
      "tiladi": 5375,
      "Ġonlayn": 5376,
      "Ġekspertiza": 5377,
      "berg": 5378,
      "Ġamaldagi": 5379,
      "Ġjabr": 5380,
      "kaza": 5381,
      "ĠSov": 5382,
      "tiladigan": 5383,
      "moqda.\n\n": 5384,
      "Ġvakolatli": 5385,
      "han": 5386,
      "Ġtahrirda": 5387,
      "70": 5388,
      "Ġasbo": 5389,
      "Ġo‘y": 5390,
      "Ġamaliyot": 5391,
      "Ġnorozi": 5392,
      "-12": 5393,
      "larus": 5394,
      "zitsiya": 5395,
      "Ġyuq": 5396,
      "mand": 5397,
      "ĠVladimir": 5398,
      "Ġyakka": 5399,
      "Ġavtobus": 5400,
      "lar”": 5401,
      "cti": 5402,
      "sda": 5403,
      "ĠIkkinchi": 5404,
      "ĠSuper": 5405,
      "Ġ2015": 5406,
      "Ġsafida": 5407,
      "Ġsovuq": 5408,
      "ĠCha": 5409,
      "dat": 5410,
      "tiyasi": 5411,
      "ydi.": 5412,
      "Ġfav": 5413,
      "Ġfutbolchilari\n": 5414,
      "lanishiga": 5415,
      "Ġogoh": 5416,
      "masida": 5417,
      "Ġqiladigan": 5418,
      "Ġyog‘in": 5419,
      "struksiya": 5420,
      "ĠInter": 5421,
      "ov,": 5422,
      "Ġtakliflar": 5423,
      "Ġmijoz": 5424,
      "Ġmahsulotlar": 5425,
      "ĠTurkiyaning": 5426,
      "Ġo‘zida": 5427,
      "ganda": 5428,
      "Ġbir-": 5429,
      "AN": 5430,
      "Ġbozori": 5431,
      "Ġvirus": 5432,
      "Ġjoylashgan.\n\nManbalar": 5433,
      "sning": 5434,
      "ell": 5435,
      "Tu": 5436,
      "Ġgum": 5437,
      "Ġxay": 5438,
      "Ġinsonlar\n": 5439,
      "nita": 5440,
      "nda": 5441,
      "OVID": 5442,
      "Ġmuhan": 5443,
      "uvor": 5444,
      "Ġsanʼ": 5445,
      ").\n\nGeografiyasi": 5446,
      "ĠIttifoqi": 5447,
      "Ġqishloq.": 5448,
      "kash": 5449,
      "Ġmuta": 5450,
      "Ġo‘yinda": 5451,
      "Ġseri": 5452,
      "muri": 5453,
      "Ġ2018-yil": 5454,
      "Ġnishon": 5455,
      "14": 5456,
      "izmat": 5457,
      "Ġpara": 5458,
      "Ġtilida": 5459,
      "ologik": 5460,
      "Ġbunga": 5461,
      "Ġo‘zgarib": 5462,
      "Ġmoni": 5463,
      "figa": 5464,
      "ĠTurk": 5465,
      "di:": 5466,
      "Ġchiqdi.": 5467,
      "di.\nA": 5468,
      "vatsion": 5469,
      "Ġtoʻrt": 5470,
      "Ġyarat": 5471,
      "dir.\n": 5472,
      "o‘ra": 5473,
      "Ġtayani": 5474,
      "Ġistiq": 5475,
      "Man": 5476,
      "Ġko‘pay": 5477,
      "Ġsakki": 5478,
      "Ġatrofida": 5479,
      "Ġmas’ul": 5480,
      "Ġser": 5481,
      "lasha": 5482,
      "Ġtaqdirda": 5483,
      "Ġyog‘ingarchilik": 5484,
      "Ġshamol": 5485,
      "Ġ:": 5486,
      "mning": 5487,
      "Ġnaq": 5488,
      "Ġpedago": 5489,
      "Gollar:": 5490,
      "kommu": 5491,
      "gro": 5492,
      "Ġo'z": 5493,
      "izil": 5494,
      "Ġko‘chi": 5495,
      "Ġmeva": 5496,
      "’da": 5497,
      "Ġboks": 5498,
      "Ġqattiq": 5499,
      "ĠHuku": 5500,
      "tani": 5501,
      "Ġrek": 5502,
      "Ġshahardir.": 5503,
      "ĠBay": 5504,
      "Ġtartibini": 5505,
      "Ġfuqarolarning": 5506,
      "Ġqarab": 5507,
      "d.": 5508,
      "umi": 5509,
      "mur": 5510,
      "Ġchop": 5511,
      "Ġboshlagan": 5512,
      "Ġeski": 5513,
      "ktar": 5514,
      "yni": 5515,
      "jtimoiy": 5516,
      "Ġqurilgan": 5517,
      "ĠKim": 5518,
      "Ġhokimiyati": 5519,
      "ĠOzarbayjon": 5520,
      "Ġoshirishga": 5521,
      "Ġustuvor": 5522,
      "Ġhamkorlikda": 5523,
      "di.\n«": 5524,
      "Ġfutbolchilar": 5525,
      "ĠShta": 5526,
      "ĠMas": 5527,
      "unyod": 5528,
      "Ġkoʻplab": 5529,
      "Ġsifatli": 5530,
      "yoki": 5531,
      "Ġchempioni": 5532,
      "dilar.": 5533,
      "Ġtumaniga": 5534,
      "-o‘rin": 5535,
      "Ġsun": 5536,
      "ĠAxborot": 5537,
      "cebo": 5538,
      "Ġtalablariga": 5539,
      "Ġhisob-kitob": 5540,
      "Ġobuna": 5541,
      "urmat": 5542,
      "Ġyillar": 5543,
      "Ġkompleks": 5544,
      "g‘oz": 5545,
      "Ġe’tibo": 5546,
      "ova": 5547,
      "Ġshiko": 5548,
      "ĠTelegram’dagi": 5549,
      "Ġolmay": 5550,
      "Ġ2017-yil": 5551,
      "Ġfoydalanishga": 5552,
      "Ġjamoasiga": 5553,
      "...": 5554,
      "Ġfikri": 5555,
      "Ġepi": 5556,
      "Ġyechi": 5557,
      "OVID-19": 5558,
      "moqda\n\n": 5559,
      "Ġbo‘ldi\n\n": 5560,
      "vara": 5561,
      "zeta": 5562,
      "yuter": 5563,
      "yatsiya": 5564,
      "g‘ulot": 5565,
      "sak": 5566,
      "Ġpsi": 5567,
      "Ġsalohi": 5568,
      "Ġqilayotgan": 5569,
      "lanadi,": 5570,
      "Ġkecha": 5571,
      "Ġ„A": 5572,
      "Ġboshida": 5573,
      "ĠTer": 5574,
      "chrash": 5575,
      "Ġkurs": 5576,
      "Ġfuqarolik": 5577,
      "13": 5578,
      "nitariya": 5579,
      "simlik": 5580,
      "Ġdiniy": 5581,
      "ĠDast": 5582,
      "Ġchaqir": 5583,
      "tosh": 5584,
      "ev,": 5585,
      "Ġjoylashgan.\n\n": 5586,
      "Ġmagʻ": 5587,
      "lashtirish,": 5588,
      "cho": 5589,
      "gn": 5590,
      "Ġo‘rinlarda": 5591,
      "Ġ300": 5592,
      "Ġma’muriy": 5593,
      "Ġyuritish": 5594,
      "Ġketishi": 5595,
      "Ġsovrin": 5596,
      "Ġmuxlis": 5597,
      "tes": 5598,
      "Ġchiqilgan": 5599,
      "ĠBuning": 5600,
      "Ġro‘yxatga": 5601,
      "diruv": 5602,
      "eksiyasi": 5603,
      "striya": 5604,
      "bini": 5605,
      "Ġ“R": 5606,
      "Ġe'tibor": 5607,
      "ngton": 5608,
      "Ġtaklifi": 5609,
      "Ġaksari": 5610,
      "Ġustun": 5611,
      "ĠUsmon": 5612,
      "IFA": 5613,
      "Ġshaxslarga": 5614,
      "Ġbuning": 5615,
      "Ġbag‘ish": 5616,
      "Ġqayt": 5617,
      "ĠNew": 5618,
      "Ġmansabdor": 5619,
      "Ġ‘": 5620,
      "Ġholatlari": 5621,
      "Ġoshirilishi": 5622,
      "ĠSog‘liqni": 5623,
      "Ġo‘rtacha": 5624,
      "Ġchog‘ida": 5625,
      "-mul": 5626,
      "Ġjoylashtirish": 5627,
      "Ġg‘olib": 5628,
      "Ġqarang": 5629,
      "Ġtelekanali": 5630,
      "qdan": 5631,
      "lol": 5632,
      "SSR": 5633,
      "fil": 5634,
      "ĠLondon": 5635,
      "Ġqoldir": 5636,
      "Ġ@": 5637,
      ".ru": 5638,
      "Ġyoʻq": 5639,
      "dia": 5640,
      "d,": 5641,
      "Ġasoslangan": 5642,
      "Ġtushib": 5643,
      "Ġborada": 5644,
      "ĠArabistoni": 5645,
      "gʻo": 5646,
      "foda": 5647,
      "Ġ+": 5648,
      "ĠAleksand": 5649,
      "Ġnazorati": 5650,
      "-mu": 5651,
      "Ġturlari": 5652,
      "Ġbevosita": 5653,
      "Ġ2010": 5654,
      "\nA": 5655,
      "Ġtarji": 5656,
      "Ġbo‘lgan,": 5657,
      "mografiyasi": 5658,
      "Ġotasi": 5659,
      "xshash": 5660,
      "ris": 5661,
      "Ġprofi": 5662,
      "Ġ“Daryo”ning": 5663,
      "-x": 5664,
      "Ġoshirilgan": 5665,
      "eya": 5666,
      "zining": 5667,
      "Ġo‘zbekistonlik": 5668,
      "Ġboshchiligi": 5669,
      ".A": 5670,
      "Ġsmart": 5671,
      "Ġoluvchi": 5672,
      "Ġ(keyingi": 5673,
      "ew": 5674,
      "Ġta’limi": 5675,
      "chrashuv": 5676,
      "Ġmukofoti": 5677,
      "”ning": 5678,
      "Turkiya": 5679,
      "biyi": 5680,
      "dabiyotlar": 5681,
      "Ġsentabr": 5682,
      "ĠEn": 5683,
      "ĠSaudiya": 5684,
      "era": 5685,
      "-daqiqa": 5686,
      "kl": 5687,
      "Ġmamlakatning": 5688,
      "Ġpasa": 5689,
      "dining": 5690,
      "Ġtashrifi": 5691,
      "ĠXu": 5692,
      "Ġketish": 5693,
      "Ġstandart": 5694,
      "ĠMajlisi": 5695,
      "vyu": 5696,
      "ChJ": 5697,
      "yosh": 5698,
      "cebook": 5699,
      "Ġxoh": 5700,
      "Ġhayo": 5701,
      "zoda": 5702,
      "Ġ(“": 5703,
      "ĠBraziliya": 5704,
      "Ġ2014": 5705,
      "Ġifoda": 5706,
      "Ġdarajasini": 5707,
      "Ġgektar": 5708,
      "Ġmodel": 5709,
      "lisher": 5710,
      "Ġuyushmasi": 5711,
      "Ġmonitori": 5712,
      "Ġmurabbiyi": 5713,
      "Ġxavfli": 5714,
      "ĠMin": 5715,
      "ĠNyu-": 5716,
      "Ġbirik": 5717,
      "G‘": 5718,
      "Ġtaraqqiyot": 5719,
      "Ġqoʻshiq": 5720,
      "Ġmobil": 5721,
      "yn": 5722,
      "hor": 5723,
      "Ġdoira": 5724,
      "orlar": 5725,
      "Ġkoʻrsat": 5726,
      "Ġelektro": 5727,
      "Ġcheklov": 5728,
      "diiy": 5729,
      "Ġidoralar": 5730,
      "Xalqaro": 5731,
      "ill": 5732,
      "Ġkelgan.": 5733,
      "Ġsezi": 5734,
      "ʼzi": 5735,
      "Ġkesi": 5736,
      "ĠFor": 5737,
      "ĠMChJ": 5738,
      "ĠIsroil": 5739,
      "Ġjanubi": 5740,
      "Ġtarkib": 5741,
      "sub": 5742,
      "Ġparvoz": 5743,
      "nidan": 5744,
      "»ga": 5745,
      "-harakat": 5746,
      "aroq": 5747,
      "Ġyoshgacha": 5748,
      "Ġ(4": 5749,
      "lar\n\n": 5750,
      "Ġ“E": 5751,
      "Ġyo‘qot": 5752,
      "”ni": 5753,
      "Ġimtihon": 5754,
      "Ġmikro": 5755,
      "kum": 5756,
      "Ġchoralar": 5757,
      "Ġqam": 5758,
      "Ġoldida": 5759,
      "ĠOr": 5760,
      "Ġjin": 5761,
      "Ġmaqola": 5762,
      "Ġoshirish,": 5763,
      "Ġsayyoh": 5764,
      "oyib": 5765,
      "Ġfran": 5766,
      "pro": 5767,
      "Ġhis": 5768,
      "pen": 5769,
      "ĠSirdaryo": 5770,
      "sangiz,": 5771,
      "ĠQishloq": 5772,
      "198": 5773,
      "jara": 5774,
      "jay": 5775,
      "Ġshakli": 5776,
      "Ġta'minlash": 5777,
      "Ġboʻladi.": 5778,
      "Ġqog‘oz": 5779,
      "'lum": 5780,
      "Ġjon": 5781,
      "Ġyoshida": 5782,
      "Ġqurbon": 5783,
      "Ġfinali": 5784,
      "lokat": 5785,
      "Ġvaqtincha": 5786,
      "tiladi.\n": 5787,
      "Ġxato": 5788,
      "urilish": 5789,
      "Ġdavolash": 5790,
      "stagram": 5791,
      "-k": 5792,
      "spor": 5793,
      "Ġ“O‘z": 5794,
      "xeo": 5795,
      "ĠSer": 5796,
      "chka": 5797,
      "Ġsayo": 5798,
      "Ġsharoi": 5799,
      "Ġbepul": 5800,
      "Ġfina": 5801,
      "Ġpartiyasi": 5802,
      "ĠPer": 5803,
      "Ġchorak": 5804,
      "Ġchiqara": 5805,
      "Jo": 5806,
      "Ġsot": 5807,
      "Ġomil": 5808,
      "Ġloyihasini": 5809,
      "magan.": 5810,
      "ĠGermaniyaning": 5811,
      "Ġ\nS": 5812,
      "Ġmuddatga": 5813,
      "ĠQi": 5814,
      "Ġoktabr": 5815,
      "Ġtanqid": 5816,
      "Ġiste'": 5817,
      "Ġdelegatsiya": 5818,
      "Ġola": 5819,
      "lmasligi": 5820,
      "larida,": 5821,
      "Ġturku": 5822,
      "ĠGi": 5823,
      "Ġino": 5824,
      "kas": 5825,
      "Ġ6.": 5826,
      "ĠSt": 5827,
      "IV": 5828,
      "Ġ«S": 5829,
      "Ġtumani,": 5830,
      "Ġmuxbiri": 5831,
      "Ġma’lumotlarni": 5832,
      "ĠSS": 5833,
      "Ġ39": 5834,
      "Ġraqam": 5835,
      "Ġkafolat": 5836,
      "Ġqolish": 5837,
      "Ġfavqulodda": 5838,
      "ologiya": 5839,
      "kidlanishicha,": 5840,
      "Ġmol-mul": 5841,
      "lantiri": 5842,
      "bra": 5843,
      "-e": 5844,
      "Ġhujjatlarida": 5845,
      "Ġustida": 5846,
      "Ġsalbiy": 5847,
      "QS": 5848,
      "Ġuzay": 5849,
      "Ġziyod": 5850,
      "ĠFo": 5851,
      "batga": 5852,
      "ASA": 5853,
      "Ġterror": 5854,
      "ĠMay": 5855,
      "Ġbaliq": 5856,
      "nidagi": 5857,
      "Ġkishini": 5858,
      "ngizni": 5859,
      "-tur": 5860,
      "Ġrea": 5861,
      "Ġbois": 5862,
      "umladan,": 5863,
      "lining": 5864,
      "Ġsir": 5865,
      "Ġishtirokchi": 5866,
      "O‘z": 5867,
      "Ġkuchlari": 5868,
      "incha": 5869,
      "ASS": 5870,
      "Ġrahbariyati": 5871,
      "Ġmablag‘lar": 5872,
      "ĠAvstraliya": 5873,
      "atini": 5874,
      "-ha": 5875,
      "Ġ65": 5876,
      "yaga": 5877,
      "likdagi": 5878,
      "Ġbugun": 5879,
      "up": 5880,
      "lina": 5881,
      "Ġmuammolar": 5882,
      "78": 5883,
      "Ġyoʻna": 5884,
      "Ġ„S": 5885,
      "Ġbaro": 5886,
      "-band": 5887,
      "Mi": 5888,
      "Ġxon": 5889,
      "bosh": 5890,
      "tin-qi": 5891,
      "Ġyuborish": 5892,
      "Ġnogiron": 5893,
      "Ġsanksiya": 5894,
      "larda,": 5895,
      "Bosh": 5896,
      "lobal": 5897,
      "Ġavtoma": 5898,
      "hati": 5899,
      "gida": 5900,
      "yili": 5901,
      "Ġholatlar": 5902,
      "enti": 5903,
      "Ġimport": 5904,
      "Ġeki": 5905,
      "ĠEng": 5906,
      "ĠOlimpiada": 5907,
      "”.": 5908,
      "kommunikatsiya": 5909,
      "Ġ48": 5910,
      "des": 5911,
      "Ġyori": 5912,
      "niqli": 5913,
      "ĠCOVID-19": 5914,
      "g‘bat": 5915,
      "Ġuza": 5916,
      "Ġpiyo": 5917,
      "ry": 5918,
      "ĠRespublikasida": 5919,
      "Ġopera": 5920,
      "-S": 5921,
      "Ġbergan.": 5922,
      "Ġmansub": 5923,
      "Ġbinoan": 5924,
      "Ġyom": 5925,
      "ĠPQ": 5926,
      "Ġfoydali": 5927,
      "Ġraqamli": 5928,
      "Ġstansiya": 5929,
      "ĠChunki": 5930,
      "Ġtizimida": 5931,
      "Ġ(18": 5932,
      "7.": 5933,
      "matov": 5934,
      "Ġmarkazida": 5935,
      "Ġ75": 5936,
      "Ġishonchli": 5937,
      "Ġinobatga": 5938,
      "Ġmetro": 5939,
      "26": 5940,
      "Ġkelib,": 5941,
      "Ġofi": 5942,
      "sol": 5943,
      "proq": 5944,
      "Ġmaqsadi": 5945,
      "lolat": 5946,
      "ĠAfrika": 5947,
      "Ġberilishi": 5948,
      "rigacha": 5949,
      "Ġtaʼlim": 5950,
      "riyb": 5951,
      "Ġmuallif": 5952,
      "sotsi": 5953,
      "Ġqor": 5954,
      "smir": 5955,
      "Gazeta": 5956,
      "kk": 5957,
      "ĠFer": 5958,
      "Ġaeropor": 5959,
      "gaz": 5960,
      "Ġtoʻgʻrisida": 5961,
      "Ġfunksiya": 5962,
      "Ġmahsulotlarini": 5963,
      "Ġrag‘bat": 5964,
      "Ġqiladi.\n\n": 5965,
      "Ġarzon": 5966,
      "Ġnoma": 5967,
      "Ġmuhandis": 5968,
      "kir": 5969,
      "ĠBiroq,": 5970,
      "Ġanju": 5971,
      "taf": 5972,
      "Ġyaratilgan": 5973,
      "Ġetdi": 5974,
      ".\nAvvalroq": 5975,
      "tur": 5976,
      "2017": 5977,
      "boy": 5978,
      "Ġgene": 5979,
      "Ġa’zolari": 5980,
      "Ġfax": 5981,
      "Ġistiqbol": 5982,
      "Ġbo‘ldi.\n": 5983,
      "Ġyigi": 5984,
      "Ġyo'": 5985,
      "zbeki": 5986,
      ";\n\n": 5987,
      "Ġhuquqbuzar": 5988,
      "Ġmashg‘ulot": 5989,
      "Ġkunlik": 5990,
      "Ġcho‘": 5991,
      "Ġrejalashtirilgan": 5992,
      "Ġ||.": 5993,
      "ruq": 5994,
      "Ġmuvofiq,": 5995,
      "Ġsurish": 5996,
      "ĠDonald": 5997,
      "Ġgoli": 5998,
      "ganiga": 5999,
      "Ġtashish": 6000,
      "qtisodi": 6001,
      "slar": 6002,
      "Ġturish": 6003,
      "Ġxuddi": 6004,
      "Ġshimoli": 6005,
      "Ġhib": 6006,
      "poli": 6007,
      "rakkab": 6008,
      "Ġolingan.": 6009,
      "yol": 6010,
      "shiy": 6011,
      "fikatsiya": 6012,
      "dirish": 6013,
      "Ġmazm": 6014,
      "urat": 6015,
      "Ġcheklangan": 6016,
      "tex": 6017,
      "ĠOq": 6018,
      "Ġtahdi": 6019,
      "Ġba’zi": 6020,
      "Ġ55": 6021,
      "Ġ“U": 6022,
      "Ġyot": 6023,
      "ĠQur": 6024,
      "Ġalbat": 6025,
      "Ġgul": 6026,
      "ĠMasalan,": 6027,
      "Ġo‘rnatilgan": 6028,
      "shington": 6029,
      "Ġquyidagilar": 6030,
      "Ġfoydalangan": 6031,
      ".\nO": 6032,
      "-20": 6033,
      "Ġshundan": 6034,
      "\nS": 6035,
      "Ġtarqalgan": 6036,
      "Ġetdi.\n": 6037,
      "Ġkelgu": 6038,
      "Ġo‘rniga": 6039,
      "Ġsoʻz": 6040,
      "anaviy": 6041,
      "tingi": 6042,
      "ĠAt": 6043,
      "-oʻ": 6044,
      "Ġ44": 6045,
      "Ġetadi.\n": 6046,
      "Ġsertifikat": 6047,
      "maydi": 6048,
      "rori": 6049,
      "Ġqilishda": 6050,
      "Ġtopilgan": 6051,
      "Ġpoytaxti": 6052,
      "si.": 6053,
      "Far": 6054,
      "ovar": 6055,
      "Ġbo'lgan": 6056,
      "Ġchoʻ": 6057,
      "Ġson": 6058,
      "tiradi.": 6059,
      "Ġdizay": 6060,
      "ĠB.": 6061,
      "mokratik": 6062,
      "Ġberishni": 6063,
      "dil": 6064,
      "sov": 6065,
      "Ġusu": 6066,
      "Ġturnir": 6067,
      "Ġoqibat": 6068,
      "uga": 6069,
      "tirdi.": 6070,
      "Ġmehmonxona": 6071,
      "Ġekanligi": 6072,
      "sun": 6073,
      "Ġmusulmon": 6074,
      "Ġtashabbus": 6075,
      "dek,": 6076,
      "Ġjuft": 6077,
      "lishda": 6078,
      "Ġqavatli": 6079,
      "Ġand": 6080,
      "Ġaktiv": 6081,
      "ĠChempionlar": 6082,
      "28": 6083,
      "Ġkorrupsiya": 6084,
      "Ġhisoblash": 6085,
      "Ġgazeta": 6086,
      "ĠQa": 6087,
      "Ġvazn": 6088,
      "tirishga": 6089,
      "Ġkito": 6090,
      "qov": 6091,
      "nis": 6092,
      "Ġhududlarda": 6093,
      "Ġpla": 6094,
      "Ġqobili": 6095,
      "Ġmutaxassislar": 6096,
      "mdan": 6097,
      "eter": 6098,
      "chining": 6099,
      "Ġmanzil": 6100,
      "Ġ\nU": 6101,
      "Ġkamchilik": 6102,
      "Ġtexnologiyalari": 6103,
      "yab": 6104,
      "Ġchalingan": 6105,
      "Ġoʻl": 6106,
      "Ġmanzi": 6107,
      "Ġboshlangan": 6108,
      "rian": 6109,
      "ress": 6110,
      "ĠHarorat": 6111,
      "lariga,": 6112,
      "ĠKeyinchalik": 6113,
      "Ġhuquqiga": 6114,
      "Ġshahrining": 6115,
      "Ġnafaqa": 6116,
      "chi,": 6117,
      "Ġkash": 6118,
      "ĠSSSR": 6119,
      "Ġintervyu": 6120,
      "ĠJamo": 6121,
      "Inter": 6122,
      "Ġtogʻ": 6123,
      "Ġkeltirib": 6124,
      "ĠGar": 6125,
      "ĠNatija": 6126,
      "Ġinti": 6127,
      "tadi.\n": 6128,
      "Ġhisobo": 6129,
      "Ġtaxmin": 6130,
      "ĠMes": 6131,
      "Ġqo‘shma": 6132,
      "ĠVal": 6133,
      "pur": 6134,
      "Vazir": 6135,
      "ubxona": 6136,
      "”.\n": 6137,
      "muro": 6138,
      "Ġrais": 6139,
      "Ġgapi": 6140,
      "Ġ7.": 6141,
      "ĠIIV": 6142,
      "Ġtopil": 6143,
      "Ġoʻrtasida": 6144,
      "Ġkompyuter": 6145,
      "vand": 6146,
      "Ġqariyb": 6147,
      "da.\n": 6148,
      "est": 6149,
      "Ġkiritil": 6150,
      "ĠAir": 6151,
      "zavo": 6152,
      "Ġmintaqaviy": 6153,
      "ĠFan": 6154,
      "maga": 6155,
      "ĠSay": 6156,
      "Ġkal": 6157,
      "Ġfarzand": 6158,
      "ger": 6159,
      "g‘ini": 6160,
      "parat": 6161,
      "Ġqilindi\n\n": 6162,
      "York": 6163,
      "Ġ43": 6164,
      "Ġdalolat": 6165,
      "Ġkame": 6166,
      "Ġombori": 6167,
      "sariya": 6168,
      "stlar": 6169,
      "Ġvazifasini": 6170,
      "Ġbron": 6171,
      "Ġ(5": 6172,
      "Ġajratilgan": 6173,
      "ĠGe": 6174,
      "Ġraqib": 6175,
      "Ġpensiya": 6176,
      "rant": 6177,
      "Ġborib": 6178,
      "Ġ(M": 6179,
      "Bugun": 6180,
      "Vi": 6181,
      "Ġsaytida": 6182,
      "vid": 6183,
      "larli": 6184,
      "ĠBur": 6185,
      "Ġkengash": 6186,
      "Ġshikoyat": 6187,
      "-son,": 6188,
      "Ġqozo": 6189,
      "Ġoson": 6190,
      "Ġmuvaffaq": 6191,
      "mita": 6192,
      "Ġxavfi": 6193,
      "Ġhiko": 6194,
      "'ni": 6195,
      "Ġordeni": 6196,
      "Ġxotira": 6197,
      "gle": 6198,
      "Ġdavrda": 6199,
      "Ġoshiriladi.": 6200,
      "ka,": 6201,
      "Ġmaqolalar": 6202,
      "Ġoʻyi": 6203,
      "Ġyilgacha": 6204,
      "Yo": 6205,
      "Ġo‘chi": 6206,
      "Ġyal": 6207,
      "Ġavtot": 6208,
      "=\"": 6209,
      "Ġradio": 6210,
      "sus": 6211,
      "tepa": 6212,
      "Ġme’": 6213,
      "jir": 6214,
      "lovchilar": 6215,
      "g‘o": 6216,
      "bert": 6217,
      "Ġtub": 6218,
      "tirilishi": 6219,
      "Ġberadi.\n": 6220,
      "Ġmurakkab": 6221,
      "Ġajoyib": 6222,
      "Ġba'zi": 6223,
      "Ġ(i": 6224,
      "Ġquvvat": 6225,
      "Ġekin": 6226,
      "Ġball": 6227,
      "mos": 6228,
      "ĠKom": 6229,
      "Ġap": 6230,
      "yun": 6231,
      "ĠAbu": 6232,
      "ĠO‘zbekistondagi": 6233,
      "Ġchiqindi": 6234,
      "Ġkasalxona": 6235,
      "dolat": 6236,
      "Ġyo‘nalishi": 6237,
      "Ġmazmun": 6238,
      "ubha": 6239,
      "tafsil": 6240,
      "-shar": 6241,
      "Ġmamlakatlar": 6242,
      "Ġdollari": 6243,
      "tish,": 6244,
      "ĠMajlis": 6245,
      "Ġmuzokaralar": 6246,
      "ĠOta": 6247,
      "ʻl": 6248,
      "tirib,": 6249,
      "fidagi": 6250,
      "ferensiya": 6251,
      "Ġraketa": 6252,
      "Ġbo‘ling": 6253,
      "shinchi": 6254,
      "ttifoq": 6255,
      "ĠNASA": 6256,
      "ĠUlu": 6257,
      "Ġjavobgarlik": 6258,
      "ĠEndi": 6259,
      "ĠOlimpiya": 6260,
      "Paxta": 6261,
      "Ġjadva": 6262,
      "ote": 6263,
      "yuro": 6264,
      "kiliy": 6265,
      "xud": 6266,
      "Ġyozuv": 6267,
      "Ġdoim": 6268,
      "Ġlavozimiga": 6269,
      "ng.": 6270,
      "Ġbo‘ladi,": 6271,
      "-6": 6272,
      "ĠGol": 6273,
      "Ġreytingi": 6274,
      "Ġsubyekt": 6275,
      "tgan.": 6276,
      "Demografiyasi": 6277,
      "ue": 6278,
      "Ġana": 6279,
      "Ġhuquqini": 6280,
      "gʻir": 6281,
      "Ġkiritdi.": 6282,
      "Ġvoz": 6283,
      "yar": 6284,
      "Ġplat": 6285,
      "Ġkeltirilgan": 6286,
      "Ġyum": 6287,
      "Ġsalomat": 6288,
      "Ġjamoasida": 6289,
      "Ġkorxonalar": 6290,
      "Ġborayotgan": 6291,
      "zer": 6292,
      "Ġbyudj": 6293,
      "Ġmadani": 6294,
      "prelda": 6295,
      "Ġrejiss": 6296,
      "Ġbelgilab": 6297,
      "xe": 6298,
      "ĠGre": 6299,
      "Ġoladi": 6300,
      "uro": 6301,
      "Ġto‘la": 6302,
      "Ġxabardor": 6303,
      "ĠFIFA": 6304,
      "Ġmaqsadli": 6305,
      "suz": 6306,
      "-havo": 6307,
      "Ġkeladigan": 6308,
      "ĠSin": 6309,
      "Ġorganlarining": 6310,
      "madi": 6311,
      "Ġviloyatidagi": 6312,
      "naviy": 6313,
      "Ġqilinadigan": 6314,
      "Ġveb-": 6315,
      "Ra": 6316,
      "Ġbilan,": 6317,
      "Ġ7-12": 6318,
      "arij": 6319,
      "Ġyutuq": 6320,
      "Ġtadbirlar": 6321,
      "-hunar": 6322,
      "siz,": 6323,
      "Ġboshqalar": 6324,
      "Ġtugʻilgan)": 6325,
      "Ġkumush": 6326,
      "-to": 6327,
      "Is": 6328,
      "Ġfuqarolari": 6329,
      "6.": 6330,
      "ĠKanada": 6331,
      "Ġhisoblanadi": 6332,
      "gur": 6333,
      "Ġakademiyasi": 6334,
      "Ġshe": 6335,
      "Ġo‘zgartish": 6336,
      "Ġoʻn": 6337,
      "avf": 6338,
      "Ġir": 6339,
      "langan.\n\n": 6340,
      "Ni": 6341,
      "Ġ%": 6342,
      "Buxoro": 6343,
      "tirof": 6344,
      "Ġ(1999": 6345,
      "ĠShah": 6346,
      "Ġta’minla": 6347,
      "ĠZo": 6348,
      "Ġdunyoning": 6349,
      "ĠAlisher": 6350,
      "Ġmanfaatdor": 6351,
      "Ġqilinadi.\n": 6352,
      "ĠXa": 6353,
      "Ġsentyabr": 6354,
      "ĠRossiyada": 6355,
      "Ġberishicha,": 6356,
      "Ġinvest": 6357,
      "ĠBelarus": 6358,
      "ĠUnga": 6359,
      "O`": 6360,
      "Ġning": 6361,
      "75": 6362,
      "Ġoktyabr": 6363,
      "Ġso‘ng,": 6364,
      "Ġhisobvara": 6365,
      "Ġijaraga": 6366,
      "qadda": 6367,
      "Men": 6368,
      "Ġnormativ-huquqiy": 6369,
      "ĠI.": 6370,
      "maning": 6371,
      "l-": 6372,
      "roh": 6373,
      "Ġbo‘la": 6374,
      "Xitoy": 6375,
      "Ġyoxud": 6376,
      "Ġlabora": 6377,
      "Ġetiladigan": 6378,
      "gratsiya": 6379,
      "gist": 6380,
      "Ġdunyodagi": 6381,
      "qtisodiyot": 6382,
      "Ġroʻyxatga": 6383,
      "Ġstavka": 6384,
      "Ġkama": 6385,
      "Ġekspert": 6386,
      "kis": 6387,
      "ose": 6388,
      "Ġ2000-yil": 6389,
      "Ġorol": 6390,
      "Ġinfeksiya": 6391,
      "taj": 6392,
      "Ġberadigan": 6393,
      "Ġolimpi": 6394,
      "Ġbirida": 6395,
      "Ġkuchaytirish": 6396,
      "Ġgumon": 6397,
      "Ġsayohat": 6398,
      "g'i": 6399,
      "y,": 6400,
      "rom": 6401,
      "Ġbo‘lmay": 6402,
      "Ġfakul": 6403,
      "Ġbirja": 6404,
      "landi,": 6405,
      "yiq": 6406,
      "xan": 6407,
      "Ġ(198": 6408,
      "ĠMon": 6409,
      "yob": 6410,
      "Ġkerak,": 6411,
      "Tadbir": 6412,
      "ĠHay": 6413,
      "Ġtra": 6414,
      "Le": 6415,
      "Ġyetti": 6416,
      "Ġdarajadagi": 6417,
      "rit": 6418,
      "ĠQozogʻiston": 6419,
      "kali": 6420,
      "Ġtaqsim": 6421,
      "Ġ1:0": 6422,
      "Bir": 6423,
      "Ġbermoqda.\n": 6424,
      "ĠAvstriya": 6425,
      "Ġyaqinida": 6426,
      "TM": 6427,
      "Ġ(shahar": 6428,
      "DR": 6429,
      "ususiy": 6430,
      "va,": 6431,
      "missiya": 6432,
      "ĠMer": 6433,
      "ĠHavo": 6434,
      "ĠShuning": 6435,
      "Ġekan,": 6436,
      "pon": 6437,
      "atsiyasi": 6438,
      "tilayotgan": 6439,
      "Ġavtomashina": 6440,
      "Ġshuncha": 6441,
      "zov": 6442,
      "Ki": 6443,
      "Ġfut": 6444,
      "Ġo‘ldi": 6445,
      "vosti": 6446,
      "Ġbizning": 6447,
      "27": 6448,
      "Di": 6449,
      "Ġxodimlar": 6450,
      "Ġ“P": 6451,
      "ĠN.": 6452,
      "Ġsezilarli": 6453,
      "Ġmini": 6454,
      "madi.": 6455,
      "tol": 6456,
      "ĠXi": 6457,
      "Ġhududda": 6458,
      "Ġrolini": 6459,
      "Ġso‘mdan": 6460,
      "konstruksiya": 6461,
      "muriyati": 6462,
      "Ġmunitsipalitet": 6463,
      "t.": 6464,
      "Ġaloqalar": 6465,
      "Ġfaoliyatiga": 6466,
      "g‘iga": 6467,
      "gni": 6468,
      "ĠPolsha": 6469,
      "Ġsakkiz": 6470,
      "Ġdavlati": 6471,
      "Ġonasi": 6472,
      "Ġharo": 6473,
      "Ġgalaktika": 6474,
      "Ġtarmoqlarda": 6475,
      "Ġrossiya": 6476,
      "Havolalar": 6477,
      "langan.\n": 6478,
      "ĠRonal": 6479,
      "Ġbarava": 6480,
      "Ġkm2.\n\nManbalar": 6481,
      "Ġqo‘llash": 6482,
      "ĠTo‘": 6483,
      "Ġboʻlish": 6484,
      "tiruv": 6485,
      "Ġoldingi": 6486,
      "Ġm/s": 6487,
      "Ġmumkin.\n\n": 6488,
      "Ġichimlik": 6489,
      "Ġc": 6490,
      "Ġetadi": 6491,
      "Ġturk": 6492,
      "ĠJu": 6493,
      "45": 6494,
      "Ġboʻlsa": 6495,
      "lya": 6496,
      "ĠMak": 6497,
      "Ġqiymat": 6498,
      "Ġkuchay": 6499,
      "Ġta'sir": 6500,
      "stin": 6501,
      "kada": 6502,
      "Ġtopshirish": 6503,
      "Ġetmoqda.": 6504,
      "Ġmustahkamlash": 6505,
      "Ġtoʻliq": 6506,
      "Ġko‘tari": 6507,
      "Ġqoʻshimcha": 6508,
      "Ġ[": 6509,
      "Ġqo‘shi": 6510,
      "Ġdebyut": 6511,
      "-yili": 6512,
      "Ġberishga": 6513,
      "-8": 6514,
      "arixi": 6515,
      "Ġchiqarishni": 6516,
      "Ġreklama": 6517,
      "Ġbay": 6518,
      "Ġijod": 6519,
      "Ġoshiril": 6520,
      "Ġyurt": 6521,
      "mada": 6522,
      "Ġrasman": 6523,
      "Ġ8.": 6524,
      "Ġ2013": 6525,
      "Ġurini": 6526,
      "Ġkelin": 6527,
      "m-": 6528,
      "Ġhakam": 6529,
      "Ġahamiyatga": 6530,
      "ĠMudofaa": 6531,
      "29": 6532,
      "bank": 6533,
      "Ġenergiyasi": 6534,
      "Ġloyihalar": 6535,
      "Ġkommunikatsiya": 6536,
      "’a": 6537,
      "Ġqoldi.": 6538,
      "Ġaralash": 6539,
      "ĠOb": 6540,
      "Ġbel": 6541,
      "Ġyozilgan": 6542,
      "ĠShamol": 6543,
      "medov": 6544,
      "Ġtip": 6545,
      "ĠVo": 6546,
      "ĠSovet": 6547,
      "tash": 6548,
      "Ġtera": 6549,
      "’lim": 6550,
      "Ġunvo": 6551,
      "qima": 6552,
      "Ġishdan": 6553,
      "res": 6554,
      "Ġyerida": 6555,
      "Ġhududlarida": 6556,
      "Ġtranspor": 6557,
      "FY": 6558,
      "ĠRu": 6559,
      "Ġaeroport": 6560,
      "Ġkadrlar": 6561,
      "ĠAleksandr": 6562,
      "Ġhimoyachi": 6563,
      "Ġklini": 6564,
      "Ġmajlis": 6565,
      "Ġbosib": 6566,
      "Ġsek": 6567,
      "ĠTan": 6568,
      "Ġkirgan": 6569,
      "Ġboʻlmagan": 6570,
      "Ġekani": 6571,
      "”;\n": 6572,
      "ps": 6573,
      "di.\n\nManbalar": 6574,
      "laydi,": 6575,
      "ĠMada": 6576,
      "muni": 6577,
      "ĠTurkmaniston": 6578,
      "Ġfizi": 6579,
      "Ġto‘qnash": 6580,
      "Ġtab": 6581,
      "ĠShahar": 6582,
      "Ġbarchasi": 6583,
      "saddi": 6584,
      "Ġbajarilishini": 6585,
      "mik": 6586,
      "Ġqizil": 6587,
      "Ġmalakali": 6588,
      "Ġtaʼsir": 6589,
      "ĠSharqiy": 6590,
      "ktiv": 6591,
      "Ġ49": 6592,
      "Ġprofessor": 6593,
      "gini": 6594,
      "Ġfutbolchisi": 6595,
      "\n“": 6596,
      "Ġso‘mlik": 6597,
      "Ġsanoati": 6598,
      "Ġodatda": 6599,
      "dimgi": 6600,
      "Ġtopish": 6601,
      "Ġberiladi.": 6602,
      "Ġtashabbu": 6603,
      "mato": 6604,
      "rgazma": 6605,
      "Ġtaniqli": 6606,
      "Ġsamaradorligini": 6607,
      "5.": 6608,
      "e,": 6609,
      "maydi.\n": 6610,
      "Ġulkan": 6611,
      "Ġakademiya": 6612,
      "ved": 6613,
      "si”": 6614,
      "Ġso‘mga": 6615,
      "Ġnavbatida": 6616,
      "wit": 6617,
      "Ġ(B": 6618,
      "Ġo‘lim": 6619,
      "Ġ(a": 6620,
      "Ġo‘tkazilishi": 6621,
      "ĠKarimov": 6622,
      "Ġkasb-hunar": 6623,
      "Ġ150": 6624,
      "Ġyotqi": 6625,
      "Ġyildagi": 6626,
      "Ġalmashtirilsin;\n": 6627,
      "layev": 6628,
      "toj": 6629,
      "Ġbayonot": 6630,
      "donida": 6631,
      "sosiy": 6632,
      "-modda)": 6633,
      "gʻul": 6634,
      "Ġduch": 6635,
      "Hujjat": 6636,
      "Ġetgan.\n\n": 6637,
      "Ġbir-bi": 6638,
      "ĠDu": 6639,
      "Ġso‘rov": 6640,
      "Ġyozma": 6641,
      "ĠYosh": 6642,
      "Ġrekonstruksiya": 6643,
      "ww": 6644,
      "Ġaylandi.": 6645,
      "Ġquyi": 6646,
      "Ġqilgani": 6647,
      "Fran": 6648,
      "tom": 6649,
      "liklarni": 6650,
      "Ġtashkiliy": 6651,
      "Ġhibsga": 6652,
      "ĠAhmad": 6653,
      "zbekistan": 6654,
      "Ġtuzish": 6655,
      "Ġxodimlarining": 6656,
      "Ġavvalroq": 6657,
      "Ġoilaviy": 6658,
      "Ġmuallifi": 6659,
      "Ġmumkinligini": 6660,
      "Ġqiladi,": 6661,
      "Ġ(6": 6662,
      "-y.,": 6663,
      "Ġ2012": 6664,
      "ĠPokiston": 6665,
      "2000": 6666,
      "Ġbelgilash": 6667,
      "Ġyurak": 6668,
      "?\n\n": 6669,
      "Ġes": 6670,
      "Ġqiladi:\n": 6671,
      "Ġ47": 6672,
      "ligʻi": 6673,
      "Ġberildi.": 6674,
      "Ġ\n\n\n": 6675,
      "Ġtaqdi": 6676,
      "Ġseriya": 6677,
      "Ġmag‘lubi": 6678,
      "Ġkollej": 6679,
      "Ġsaqlanib": 6680,
      "ĠUz": 6681,
      "Ġtaom": 6682,
      "Ġumuman": 6683,
      "Ġoʻrna": 6684,
      "Ġberiladi.\n": 6685,
      "Ġta’minoti": 6686,
      "nim": 6687,
      "Ġqoʻshi": 6688,
      "di\n": 6689,
      "ms": 6690,
      "chilarga": 6691,
      "Ġittifoqi": 6692,
      "Ġmarotaba": 6693,
      "shan": 6694,
      "si\n": 6695,
      "Ġrivojlantirish,": 6696,
      "Ġbo‘ling!": 6697,
      "Ġdiqqat": 6698,
      "otor": 6699,
      "Ġesadi.": 6700,
      "lidan": 6701,
      "lashib": 6702,
      "Ġstrategiya": 6703,
      "utun": 6704,
      "dash": 6705,
      "Ġ(ma": 6706,
      "chil": 6707,
      "ayyan": 6708,
      "IDA": 6709,
      "Ġvaqtinchalik": 6710,
      "Ġqato": 6711,
      "Ġsaralash": 6712,
      ".\nEslatib": 6713,
      "Ġvositalarini": 6714,
      "Ġijrosini": 6715,
      "ĠAmir": 6716,
      "Ġbadiiy": 6717,
      "Ġdra": 6718,
      "xabar": 6719,
      "Ġfikricha,": 6720,
      "Ġrasmiylashtiri": 6721,
      "Ġnemis": 6722,
      "-mar": 6723,
      "ĠKol": 6724,
      "Ġqiziq": 6725,
      "Ġ2009": 6726,
      "Ġbronza": 6727,
      "tion": 6728,
      "Ġarab": 6729,
      "Ġkengay": 6730,
      "Ġto‘g‘ridan": 6731,
      "Tash": 6732,
      "tsion": 6733,
      "zila": 6734,
      "bituriy": 6735,
      "Ġboshchiligidagi": 6736,
      "Ġmaʼlum": 6737,
      "Ġoʻrgani": 6738,
      "Ġmiqyo": 6739,
      "Ġtov": 6740,
      "Ġdaraxt": 6741,
      "estiva": 6742,
      "Ġyakuniy": 6743,
      "ĠYun": 6744,
      "Ġshubha": 6745,
      "Ġjo‘na": 6746,
      "Ġshaklda": 6747,
      "lav": 6748,
      "Ġrejalashtir": 6749,
      "bituriyent": 6750,
      "nga": 6751,
      "jonov": 6752,
      "Ġsifatini": 6753,
      "eksi": 6754,
      "ĠMarkaz": 6755,
      "tiy": 6756,
      "Ġpochta": 6757,
      "hiy": 6758,
      "Ġmuvofiqlashtirish": 6759,
      "Ġo‘tib": 6760,
      "ity": 6761,
      "Ġto‘rtinchi": 6762,
      "Ġashyo": 6763,
      "ĠMa’": 6764,
      "Ġchoralarini": 6765,
      "kim": 6766,
      "qasi": 6767,
      "ly": 6768,
      "iloyat": 6769,
      "Ġaviakompaniya": 6770,
      "Ġtasi": 6771,
      "Ġpandemiya": 6772,
      "Ġloyihalarini": 6773,
      "Ġketdi.": 6774,
      "mila": 6775,
      "di”,": 6776,
      "Ġtekshirilgan": 6777,
      "Ġko`rsa": 6778,
      "ladi:\n": 6779,
      "”da": 6780,
      "Ġkommunalari": 6781,
      "Ġesa,": 6782,
      "Ġa)": 6783,
      "Ġmajli": 6784,
      "nomani": 6785,
      "Ġkishiga": 6786,
      "ĠAQShda": 6787,
      "Ġjoyida": 6788,
      "ĠPort": 6789,
      "Ġtusha": 6790,
      "Ġbo‘lishni": 6791,
      "XX": 6792,
      "ududi": 6793,
      "liklarning": 6794,
      "Ġshaharcha": 6795,
      "Ġ(K": 6796,
      "Ġmasjid": 6797,
      "Ġhujjatlarini": 6798,
      "Ġinnovatsion": 6799,
      "lami": 6800,
      "Ġmedali": 6801,
      "AA": 6802,
      "Ġbo‘ldi,": 6803,
      "lashtira": 6804,
      "yxat": 6805,
      "Ġgo": 6806,
      "Ġkema": 6807,
      "mashyo": 6808,
      "Ġb)": 6809,
      "Ġetilsin:\n": 6810,
      "Ġhisoblangan": 6811,
      "Ġ2011": 6812,
      "yuq": 6813,
      "Ġyurish": 6814,
      "ĠSud": 6815,
      "IS": 6816,
      "Ġkechik": 6817,
      "Ġ400": 6818,
      "Ġtinchlik": 6819,
      "Ġtalabalar": 6820,
      "zarb": 6821,
      "8.": 6822,
      "Ġavtomo": 6823,
      "ĠNiko": 6824,
      "Ġnazora": 6825,
      "ĠIroq": 6826,
      "Ġfoto": 6827,
      "Ġoʻsha": 6828,
      "Ġbren": 6829,
      "Paxtakor": 6830,
      "Ġqo‘riq": 6831,
      "Ġkarta": 6832,
      "Ġmeʼ": 6833,
      "Ġhurmat": 6834,
      "Ġbo‘sh": 6835,
      "Ġso'": 6836,
      "Ġehtiyot": 6837,
      "Ġtat": 6838,
      "oliq": 6839,
      "-0": 6840,
      "Ġbo`l": 6841,
      "Ġdunyoda": 6842,
      "Ġehtimo": 6843,
      "Ġobe": 6844,
      "Ġfilmida": 6845,
      "Ġdoʻ": 6846,
      "sozlik": 6847,
      "Ġplatfor": 6848,
      "o‘z": 6849,
      "ĠRonaldu": 6850,
      "ĠShunday": 6851,
      "Ġchiqil": 6852,
      "Qu": 6853,
      "Ġaholiga": 6854,
      "sak,": 6855,
      "Ġoladigan": 6856,
      "Ġ“TASS": 6857,
      "es,": 6858,
      "Ġmuhtoj": 6859,
      "Ġxabariga": 6860,
      "evralda": 6861,
      "Ġegallagan": 6862,
      "Ġsovg‘a": 6863,
      "Ġmag‘lub": 6864,
      "Ġkafe": 6865,
      "Ġapp": 6866,
      "Ġmagʻlub": 6867,
      "Ġmoddalar": 6868,
      "-10": 6869,
      "Ġberib": 6870,
      "Ġbeshinchi": 6871,
      "stlik": 6872,
      "baho": 6873,
      "Ġetildi.\n": 6874,
      "ĠNyu-York": 6875,
      "'iy": 6876,
      "Ġqahramon": 6877,
      "Ġqarorning": 6878,
      "Ġda’": 6879,
      "Ġoʻzga": 6880,
      "Ġinte": 6881,
      "ĠUniversi": 6882,
      "rot": 6883,
      "gentina": 6884,
      "Ġishni": 6885,
      "vetsiya": 6886,
      "Ġshuning": 6887,
      "ĠSam": 6888,
      "Ġavlod": 6889,
      "ma-ket": 6890,
      "—19": 6891,
      "Ġxususan,": 6892,
      "Ġjamoasining": 6893,
      "Ġbosi": 6894,
      "Ġ53": 6895,
      "Ġqishlogʻi": 6896,
      "Ġfondi": 6897,
      "lari.": 6898,
      "Ġ(yoki": 6899,
      "Ġyasa": 6900,
      "Ġboshlagan.": 6901,
      "ĠXususan,": 6902,
      "Ġsmartfon": 6903,
      "je": 6904,
      "lari\n\n": 6905,
      "Ġfaxriy": 6906,
      "ĠMusta": 6907,
      "Ġloyihalarni": 6908,
      "ĠHozirda": 6909,
      "Ġmuzey": 6910,
      "Ġbajarilishi": 6911,
      "hol": 6912,
      "Ġkons": 6913,
      "Ġumid": 6914,
      "Ġ2016-yil": 6915,
      "xsh": 6916,
      "ĠOlma": 6917,
      "del": 6918,
      "Ġsiste": 6919,
      "ishiy": 6920,
      "Ġsinf": 6921,
      "EFA": 6922,
      "Ġko‘rsatgan": 6923,
      "limiga": 6924,
      "”gi": 6925,
      "Ġorada": 6926,
      "ĠOʻz": 6927,
      "nining": 6928,
      "Ġxavfsizligini": 6929,
      "Ġtatbiq": 6930,
      "Ġbarobar": 6931,
      "Ġajratish": 6932,
      "Ġyurti": 6933,
      "lanmoqda.": 6934,
      "Ġrekord": 6935,
      "Ġnuf": 6936,
      "Ġhozircha": 6937,
      "Ġo‘tishi": 6938,
      "ĠAyni": 6939,
      "Ġqo‘shni": 6940,
      "Ġviza": 6941,
      "teti": 6942,
      "Ġtizimiga": 6943,
      "Ġbul": 6944,
      "shanda": 6945,
      "Ġdollarlik": 6946,
      "Ġolmagan": 6947,
      "Ġpu": 6948,
      "masining": 6949,
      "Ġkorxonasi": 6950,
      "Ġdo‘kon": 6951,
      "Ġdeputat": 6952,
      "Ġviloyatlarida": 6953,
      "Ġqilmoqda.": 6954,
      "Ġpiyoda": 6955,
      "Ġmasalasi": 6956,
      "ctic": 6957,
      "Ġmas'": 6958,
      "Ġkorxonalari": 6959,
      "-tadqiqot": 6960,
      "Ġoshirilayotgan": 6961,
      "Ġqazib": 6962,
      "Ġqarin": 6963,
      "Ġmexanizm": 6964,
      "Ġrag‘batlantirish": 6965,
      "Ġishini": 6966,
      "Ġaksiyadorlik": 6967,
      "ĠSenat": 6968,
      "Ġpol": 6969,
      "Ġdirektor": 6970,
      "landi.\n\n": 6971,
      "Ġyaxshilash": 6972,
      "Ġxayriya": 6973,
      "maydi,": 6974,
      "Ġdollarni": 6975,
      "Ġyig‘": 6976,
      "Ġpenal": 6977,
      "Ġ(P": 6978,
      "tt": 6979,
      "Ġfot": 6980,
      "Ġ9.": 6981,
      "Ġbosqichida": 6982,
      "Ġqirol": 6983,
      "ATO": 6984,
      "Ġhikoya": 6985,
      "ĠV.": 6986,
      "Ġixtisoslashtirilgan": 6987,
      "Ġchar": 6988,
      "ngizga": 6989,
      "em": 6990,
      "Ġdolzarb": 6991,
      "Ġ64": 6992,
      "Ġsan’at": 6993,
      "Ġbor,": 6994,
      "kiy": 6995,
      "ĠAgent": 6996,
      "ĠTim": 6997,
      "end": 6998,
      "Ġdia": 6999,
      "Ġmetall": 7000,
      "Ġqo‘shin": 7001,
      "illi": 7002,
      "ĠPF": 7003,
      "witter": 7004,
      "Ġtahdid": 7005,
      "larga,": 7006,
      "Ġsportchi": 7007,
      "Ġjoylashgan.\n\nDemografiyasi": 7008,
      "ĠKan": 7009,
      "ĠToshkent,": 7010,
      "Ġjadal": 7011,
      "Ġyoq": 7012,
      "ShID": 7013,
      "Ġmaktabgacha": 7014,
      "ĠKatta": 7015,
      "lement": 7016,
      "stanbul": 7017,
      "shlar": 7018,
      "Qozo": 7019,
      "Tele": 7020,
      "-R": 7021,
      "Ġtadqiqotlar": 7022,
      "»gi": 7023,
      "Ġbo`lib": 7024,
      "Ġpoyez": 7025,
      "labki": 7026,
      "ĠR.": 7027,
      "xiya": 7028,
      "Ġoz": 7029,
      "Ġo‘tkaza": 7030,
      "!\n": 7031,
      "ĠQuyidagi": 7032,
      "Ġqas": 7033,
      "Ġegallab": 7034,
      "Ġhududiga": 7035,
      "Ġturkumidagi": 7036,
      "Ġgapir": 7037,
      "nayted": 7038,
      "bro": 7039,
      "Ġanti": 7040,
      "Ġdeputatlari": 7041,
      "Ġqoʻllab-quvvat": 7042,
      "Ġ(0": 7043,
      "-T": 7044,
      "Ġboʻylab": 7045,
      "Ġikkala": 7046,
      "ĠKun.uz": 7047,
      "ĠKubogi": 7048,
      "Ġassotsi": 7049,
      "mun": 7050,
      "Ġtaqdirda,": 7051,
      "Ġmalakasini": 7052,
      "Ġmuze": 7053,
      "mmi": 7054,
      "Ġjil": 7055,
      "Ġetishni": 7056,
      "miz.\n": 7057,
      "Ġenergetika": 7058,
      "ĠBal": 7059,
      "Ġuchrashuvda": 7060,
      "Ġprogno": 7061,
      "Ġnur": 7062,
      "ĠSo‘": 7063,
      "Ġ(1999).": 7064,
      "tirishi": 7065,
      "Ġbutunlay": 7066,
      "Ġnaqd": 7067,
      ":3": 7068,
      "Ġlaboratoriya": 7069,
      "Ġaytish": 7070,
      "Ġsaro": 7071,
      "derni": 7072,
      "ĠSIM": 7073,
      "Ġborgan": 7074,
      "eyn": 7075,
      "Ġxotin-qi": 7076,
      "Ġyozuvchi": 7077,
      "Ġyerga": 7078,
      "Ġo‘rinbosar": 7079,
      "Ġko`p": 7080,
      "Ġqadam": 7081,
      "Ġolim": 7082,
      "jaro": 7083,
      "Eng": 7084,
      "Ġqo‘r": 7085,
      "Ġ59": 7086,
      "Ġmunosabatlari": 7087,
      "Ġkelajak": 7088,
      "Ġlavozimida": 7089,
      "Ġklubiga": 7090,
      "Ġqat’iy": 7091,
      "olibon": 7092,
      "\n\nHududi": 7093,
      "di\n\nO‘zbekiston": 7094,
      "Ġmunosib": 7095,
      "Ġreyting": 7096,
      "Ġismli": 7097,
      "Ġbaʼzi": 7098,
      "Ġkonsul": 7099,
      "Ġkeltir": 7100,
      "zak": 7101,
      "Ġro‘y": 7102,
      "Ġakademik": 7103,
      "Ġborasidagi": 7104,
      "Ġyuborilgan": 7105,
      "bosqich": 7106,
      "Hozirda": 7107,
      "Ġtarg‘i": 7108,
      "Ġerishish": 7109,
      "Ġkat": 7110,
      "Ġquruqlik,": 7111,
      "kto": 7112,
      "Ġteatr": 7113,
      "aroit": 7114,
      "ĠParij": 7115,
      ").\n\nGeografiyasi\n\nHududi": 7116,
      "Ġhukmron": 7117,
      "Ġaʼzosi": 7118,
      "ĠUy": 7119,
      "Ġharorat": 7120,
      "Ġ(8": 7121,
      "Ġviloyati,": 7122,
      "Ġqisqartirish": 7123,
      "ĠNur": 7124,
      "dy": 7125,
      "Ġdevor": 7126,
      "Ġketma-ket": 7127,
      "Ġasosan,": 7128,
      "Ġ56": 7129,
      "girma": 7130,
      "Ġortiqcha": 7131,
      "Ġtiklash": 7132,
      "Ġveb-say": 7133,
      "ila": 7134,
      "Ġsuvi": 7135,
      "Ġkonser": 7136,
      "Ġ190": 7137,
      "No": 7138,
      "ĠPen": 7139,
      "Ġsanʼat": 7140,
      "Ġportlash": 7141,
      "Ġmutasaddi": 7142,
      "ĠSiz": 7143,
      "Ġtamomla": 7144,
      "Ġko`ra,": 7145,
      "Ġtaf": 7146,
      "hir": 7147,
      "Ġ2015-yil": 7148,
      "ĠShvey": 7149,
      "-B": 7150,
      "span": 7151,
      "Ġislom": 7152,
      "Ġyoni": 7153,
      "Ġ(I": 7154,
      "Ġ\nB": 7155,
      "Ġyiliga": 7156,
      "Ġkutubxona": 7157,
      "Ġma’qul": 7158,
      "Ġappara": 7159,
      "Ġbag‘ishlangan": 7160,
      "Ġo‘zgartirishlar": 7161,
      "Ġvaziyatni": 7162,
      "qibat": 7163,
      "Ġaybdor": 7164,
      "Ġqarorlari": 7165,
      "Ġbitim": 7166,
      "Ġteat": 7167,
      "Ġorganlari,": 7168,
      "XDR": 7169,
      "Ġ2022-yil": 7170,
      "boli": 7171,
      "rina": 7172,
      "Ġolishni": 7173,
      "roy": 7174,
      "Ġrivojlanishi": 7175,
      "ĠExt": 7176,
      "Ġpat": 7177,
      "Ġ63": 7178,
      "smik": 7179,
      "tabase": 7180,
      "LA": 7181,
      "Ġmuassasalarida": 7182,
      "Ġtizimli": 7183,
      "yohvand": 7184,
      "natsiya": 7185,
      "Ġkvar": 7186,
      "Ġchala": 7187,
      "Ġ(shahar)": 7188,
      "Ġmuoma": 7189,
      "drid": 7190,
      "Ġishlashi": 7191,
      "ruziya": 7192,
      "-modda;": 7193,
      "Ġixtiyo": 7194,
      "Ġpozitsiya": 7195,
      "pple": 7196,
      "Ġma`lum": 7197,
      "mitasi": 7198,
      "parvar": 7199,
      "Ġtakror": 7200,
      "Ġtexnologik": 7201,
      "Ġoldindan": 7202,
      "g‘or": 7203,
      "Ġnut": 7204,
      "Ġshaklida": 7205,
      "ef": 7206,
      "Ġjoyda": 7207,
      "Ġo't": 7208,
      "ĠGul": 7209,
      "Ġ10.": 7210,
      "ĠDar": 7211,
      "Ġekologik": 7212,
      "Ġchoralari": 7213,
      "Ġsababi": 7214,
      "Ġ“V": 7215,
      "Ġbiriga": 7216,
      "Ġkis": 7217,
      "Ġborishi": 7218,
      "Ġoʻzbek": 7219,
      "Ġro‘yxatidan": 7220,
      "Ġolish,": 7221,
      "lqin": 7222,
      "nomalar": 7223,
      "Ġo‘qishga": 7224,
      "ĠMehnat": 7225,
      "Ġgeografiya": 7226,
      "Ġrossiyalik": 7227,
      "Ġpasport": 7228,
      "Ġtarif": 7229,
      "tli": 7230,
      "Ġhisoblanadi.\n\n": 7231,
      "Ġyomg‘ir": 7232,
      "Ġ1,5": 7233,
      "Manchester": 7234,
      "ĠDatabase": 7235,
      "ĠIkki": 7236,
      "Ġma’lumotlariga": 7237,
      "Ġmustasno": 7238,
      "gol": 7239,
      "-L": 7240,
      "Ġ\n\nKoordinatalar": 7241,
      "Ġsanitariya": 7242,
      "tro": 7243,
      "loniya": 7244,
      "ĠInstagram": 7245,
      "Ġhuquqni": 7246,
      "nar": 7247,
      "Ġshart-sh": 7248,
      "Ġsil": 7249,
      ".\nK": 7250,
      "gʻa": 7251,
      "grafik": 7252,
      "Ġbyuro": 7253,
      "Ġtepa": 7254,
      "ĠBen": 7255,
      "tildi.\n": 7256,
      "uber": 7257,
      "tle": 7258,
      "zbon": 7259,
      "71": 7260,
      "Ġcher": 7261,
      "Ġprofilaktika": 7262,
      "Ġmut": 7263,
      "Ġ73": 7264,
      "vokat": 7265,
      "Ġtut": 7266,
      "Ġetish;\n": 7267,
      "verpul": 7268,
      "Ġkolleji": 7269,
      "Ġkompaniyasining": 7270,
      "vro": 7271,
      "Ġtoʻgʻrisidagi": 7272,
      "Ġob-havo": 7273,
      "Ġniko": 7274,
      "Ġradi": 7275,
      "Ġshart-sharoit": 7276,
      "mom": 7277,
      "rinni": 7278,
      "rali": 7279,
      "Ġko‘rik": 7280,
      "k.": 7281,
      "Ġyakuniga": 7282,
      "vis": 7283,
      "Ġdviga": 7284,
      "Ġshunda": 7285,
      "ilon": 7286,
      "na,": 7287,
      "ĠSta": 7288,
      "Dast": 7289,
      "hrat": 7290,
      "Ġshuni": 7291,
      "Ġyoshga": 7292,
      "Ġ2014-yil": 7293,
      "bo‘": 7294,
      "ĠTex": 7295,
      "th": 7296,
      "Ġbuyruq": 7297,
      "g`ri": 7298,
      "Ġmuayyan": 7299,
      "Ġkuchini": 7300,
      "Ġhomiy": 7301,
      "BAD": 7302,
      "ugaliya": 7303,
      "ĠRossiyaga": 7304,
      "Ġrahbarlik": 7305,
      "eral": 7306,
      "Ġo`r": 7307,
      "Ġrasso": 7308,
      "gre": 7309,
      "ĠTar": 7310,
      "Ġe’tiboran": 7311,
      "Ġ54": 7312,
      "zish": 7313,
      "Ġda’vo": 7314,
      "Ġ(o": 7315,
      "Ġturadi.": 7316,
      "alliy": 7317,
      "Ġtipli": 7318,
      "Ġvoyaga": 7319,
      "ĠVizi": 7320,
      "Ġshaxsning": 7321,
      "Ġbeshta": 7322,
      "Ġoilasi": 7323,
      "Ġshtat": 7324,
      "Ġfaoliyatining": 7325,
      "Ġko‘pchilik": 7326,
      "ĠSiti": 7327,
      "Ġxarajatlar": 7328,
      "KA": 7329,
      "Ġarmiya": 7330,
      "bara": 7331,
      "So": 7332,
      "Ġtayyorlangan": 7333,
      "Ġkamaytirish": 7334,
      "ĠT.": 7335,
      "lactic": 7336,
      "video": 7337,
      "ĠTay": 7338,
      "Chel": 7339,
      "las": 7340,
      "ragalactic": 7341,
      "Ġdavlatlari": 7342,
      "ĠExtragalactic": 7343,
      "Ġnodavlat": 7344,
      "Ġpsixo": 7345,
      "zidan": 7346,
      "xeologiya": 7347,
      "Ġqaytarish": 7348,
      "ford": 7349,
      "BC": 7350,
      "ĠSIMBAD": 7351,
      "Ġraz": 7352,
      "Ġbo‘lar": 7353,
      "/IC": 7354,
      "Ġmaydonida": 7355,
      "Ġqo‘zg‘": 7356,
      "ĠVizier": 7357,
      "ĠNGC/IC": 7358,
      "Ġmumkinligi": 7359,
      "Ġiborat.": 7360,
      "76": 7361,
      "Eron": 7362,
      "Ġo‘rnini": 7363,
      "zit": 7364,
      "Ġegasi": 7365,
      "Ġvazifalari": 7366,
      "Ġkeldi": 7367,
      "Ġhaqiqat": 7368,
      "deniye": 7369,
      "Ġadabiyot": 7370,
      "eno": 7371,
      "Ġo‘rgan": 7372,
      "chiga": 7373,
      "ĠD.": 7374,
      "ngʻi": 7375,
      "kredi": 7376,
      "Ġyozgan": 7377,
      "Ġbo‘lsa-da,": 7378,
      ".\nShuningdek,": 7379,
      "Ġ“H": 7380,
      "Ġtopgan": 7381,
      "har": 7382,
      "mova": 7383,
      "Ġmarkazlari": 7384,
      "Ġtahli": 7385,
      "ĠQizil": 7386,
      "Ġvatan": 7387,
      "noq": 7388,
      "kast": 7389,
      "tses": 7390,
      "Ġetdi.\n\n": 7391,
      "Ġhuquqlarini": 7392,
      "Ġyop": 7393,
      "Ġmln.": 7394,
      "ĠQonuni": 7395,
      "shidagi": 7396,
      "ĠKonstitutsiya": 7397,
      "chin": 7398,
      "Ġchorva": 7399,
      "2016": 7400,
      "siri": 7401,
      "Ġolinishi": 7402,
      "Ġshahriga": 7403,
      "Ġuzat": 7404,
      "Ġstrategik": 7405,
      "Ġdebyu": 7406,
      "ĠBol": 7407,
      "Qora": 7408,
      "Ġmadaniyati": 7409,
      "az": 7410,
      "Ġdengi": 7411,
      "itoyda": 7412,
      "Yu": 7413,
      "ĠFacebook": 7414,
      "Ġilmiy-tadqiqot": 7415,
      "Ġmis": 7416,
      "Ġqamrab": 7417,
      "Ġma'lumotlar": 7418,
      "Ġvazifasi": 7419,
      "Ġ\n\nA": 7420,
      "Ġshaf": 7421,
      "ĠOʻrta": 7422,
      "Ġjangari": 7423,
      "shar": 7424,
      "Ġetganlar\n": 7425,
      "Ġushlab": 7426,
      "Ġtalablari": 7427,
      "liklarini": 7428,
      "Ġ58": 7429,
      "QSH": 7430,
      "marqan": 7431,
      "ĠBoshqa": 7432,
      "Ġarxite": 7433,
      "Ġteri": 7434,
      "ĠGro": 7435,
      "Ġberilgandi.": 7436,
      "Ġkunga": 7437,
      "Ġrivojlantirishga": 7438,
      "ĠMFY": 7439,
      "Ġinqi": 7440,
      "Ġo‘tkaziladigan": 7441,
      "tishini": 7442,
      "uch": 7443,
      "Ġfilmi": 7444,
      "Ġtushishi": 7445,
      "Ġtaʼmin": 7446,
      "Ġsahna": 7447,
      "Ġ(G": 7448,
      "Ġqo‘zg‘a": 7449,
      "Ġsudga": 7450,
      "Ġboshlanishi": 7451,
      "Ġyo‘qotgan": 7452,
      "Ġkutib": 7453,
      "ld": 7454,
      "Yosh": 7455,
      "Ġmunosabatlar": 7456,
      "Futbol": 7457,
      "Uning": 7458,
      "Ġtarkibiy": 7459,
      "ĠUmu": 7460,
      "liyev": 7461,
      "ras": 7462,
      "Ġharakatlar": 7463,
      "qilo": 7464,
      "Ġyetakchisi": 7465,
      "ĠVikimaʼlumotlarda\n": 7466,
      "Fi": 7467,
      "Ġdon": 7468,
      "Ġaskar": 7469,
      "Ġtasdiqlovchi": 7470,
      "Ġ)": 7471,
      "Ġsog‘lom": 7472,
      "Ġishlagan.": 7473,
      "Ġoʻrinni": 7474,
      "ĠVer": 7475,
      "73": 7476,
      "Ġtahsil": 7477,
      "Ġabituriyent": 7478,
      "ĠSh.": 7479,
      "ан": 7480,
      "quvchi": 7481,
      "kkey": 7482,
      "Ġulushi": 7483,
      "Ġqo‘ygan": 7484,
      "ст": 7485,
      "Ġyoqil": 7486,
      "rand": 7487,
      "ergey": 7488,
      "uqori": 7489,
      "Ġbitiruvchi": 7490,
      "ĠFuqaro": 7491,
      "Ġsharqdan": 7492,
      "Ġimkoniyatini": 7493,
      "Ġbilish": 7494,
      "lamchi": 7495,
      "illiy": 7496,
      "Ġbo‘lmaydi.": 7497,
      "Ġtushuni": 7498,
      "gʻon": 7499,
      "Ġfransuz": 7500,
      "nishini": 7501,
      "urizm": 7502,
      "Ġfaqatgina": 7503,
      "Ġ„T": 7504,
      "Ġolindi.": 7505,
      "Ġxomashyo": 7506,
      "Ġjarohati": 7507,
      "qituvchi": 7508,
      "Ġoyoq": 7509,
      "Ġyigʻi": 7510,
      "Ġkutilmaydi.": 7511,
      "ME": 7512,
      "Ġkamera": 7513,
      "Ġboʻlgan.\n\n": 7514,
      "Ġvarian": 7515,
      "sad": 7516,
      "Ġyurituvchi": 7517,
      "Ġtarmoqlari": 7518,
      "Ġ66": 7519,
      "Ġtovarlar": 7520,
      "o‘g‘": 7521,
      "Ġisi": 7522,
      "ĠDil": 7523,
      "Ġangla": 7524,
      "Ġdiplomatik": 7525,
      "ven": 7526,
      "arix": 7527,
      "eterburg": 7528,
      "Ġmonitoring": 7529,
      "Ġmuassasasi": 7530,
      "ure": 7531,
      "ĠK.": 7532,
      "udrat": 7533,
      "drasa": 7534,
      "miyat": 7535,
      "Ġerkaklar": 7536,
      "trakt": 7537,
      "Ġmoderni": 7538,
      "Ġtanlovi": 7539,
      "Ġoshirishda": 7540,
      "Ġefi": 7541,
      "Ġminnat": 7542,
      "Ġ2006": 7543,
      "oqea": 7544,
      "Ġmana": 7545,
      "ĠAbdura": 7546,
      "ĠFarmoni": 7547,
      "sav": 7548,
      "Ġraq": 7549,
      "arri": 7550,
      "Ġmuammolarni": 7551,
      "ĠYoz": 7552,
      "9.": 7553,
      "ray": 7554,
      "Ġjoiz": 7555,
      "Ġtashabbusi": 7556,
      "tadi,": 7557,
      "0-yillarda": 7558,
      "Ġshara": 7559,
      "Ġfarmoni": 7560,
      "nam": 7561,
      "Ġko'p": 7562,
      "Ma’lumot": 7563,
      "Ġkuniga": 7564,
      "Ġloyihalari": 7565,
      "Ġniqo": 7566,
      "Ġko‘rgan": 7567,
      "yul": 7568,
      "Ġglobal": 7569,
      "77": 7570,
      "Ġberilgan.": 7571,
      "ql": 7572,
      "Ġvosi": 7573,
      "Ġbayram": 7574,
      "Ġkmdir.": 7575,
      "qol": 7576,
      "jayev": 7577,
      "Ġnizo": 7578,
      "Ġ(„": 7579,
      "Ġyetishtirish": 7580,
      "Ġyetmagan": 7581,
      "ĠYunayted": 7582,
      "ĠSharq": 7583,
      "nator": 7584,
      ".\nT": 7585,
      "8)": 7586,
      "M.": 7587,
      "-C": 7588,
      "-texnik": 7589,
      "ĠSulton": 7590,
      "stri": 7591,
      "Ġbunda": 7592,
      "testatsiya": 7593,
      "Ġmenga": 7594,
      "Joriy": 7595,
      "Ġ85": 7596,
      "ĠMisr": 7597,
      "Ġvositasi": 7598,
      "Ġfuqarosi": 7599,
      "Ġpos": 7600,
      "ĠSal": 7601,
      "Ġprokuraturasi": 7602,
      "Xabar": 7603,
      "Ġram": 7604,
      "ĠO‘zA": 7605,
      "erlar": 7606,
      "Ġkunlarda": 7607,
      "Ġrafi": 7608,
      "ladi;\n": 7609,
      "Ġvaziyatlar": 7610,
      "Ġstadioni": 7611,
      "Ġbuyru": 7612,
      "HT": 7613,
      "novi": 7614,
      "Ġchip": 7615,
      "Ġ“Real": 7616,
      "Ġqayer": 7617,
      "Ġe`": 7618,
      "»ni": 7619,
      "Ġfanlari": 7620,
      "Ġqaytarib": 7621,
      "dorlari": 7622,
      "Ġavtotransport": 7623,
      "atida": 7624,
      "vatsiya": 7625,
      "o‘rg‘on": 7626,
      "ĠSp": 7627,
      "Daryo": 7628,
      "jan": 7629,
      "Ġreye": 7630,
      "ĠItaliyaning": 7631,
      "Ġsiyosati": 7632,
      "Ġqabi": 7633,
      "Ġpost": 7634,
      "komo": 7635,
      ".\nI": 7636,
      "Ġsp": 7637,
      "Ġkada": 7638,
      "wa": 7639,
      "Ġmillat": 7640,
      "ĠMajli": 7641,
      "uksion": 7642,
      "ksa": 7643,
      "Ġta’mirlash": 7644,
      "Ġop": 7645,
      "demiyasi": 7646,
      "Ġuyida": 7647,
      "Ġqaytib": 7648,
      "Ġoyda": 7649,
      "ĠAbdulla": 7650,
      "Qar": 7651,
      "Shar": 7652,
      "Ġbatafsil": 7653,
      "Ġnomzo": 7654,
      "Ġshtati": 7655,
      "Ġurib": 7656,
      "pik": 7657,
      "ine": 7658,
      "Ġxokkey": 7659,
      "FC": 7660,
      "\n\nK": 7661,
      "chilik,": 7662,
      "Ġijodiy": 7663,
      "Ġchap": 7664,
      "ĠPan": 7665,
      "Ġmarkaziga": 7666,
      "Ġkashf": 7667,
      "-daqiqada": 7668,
      "Ġmezbon": 7669,
      "Ġxabarlar": 7670,
      "Ġo`tkaz": 7671,
      "Ġmuomala": 7672,
      "ĠKengash": 7673,
      "masligini": 7674,
      "’lum": 7675,
      "Ġqilinayotgan": 7676,
      "ĠObyekt": 7677,
      "uso": 7678,
      "Ġrasmiylashtirish": 7679,
      "Ġxatti": 7680,
      "Ġg‘oya": 7681,
      "ĠUch": 7682,
      "yollar": 7683,
      "hone": 7684,
      "Ġyo‘nalishlari": 7685,
      "Ġ78": 7686,
      "Ġtariqasida": 7687,
      "Ġjangi": 7688,
      "Ġ\nK": 7689,
      "Ġ1:1": 7690,
      "yo‘l": 7691,
      "Ġo‘tkazib": 7692,
      "____": 7693,
      "Ġo‘qish": 7694,
      "Ġbuzilishi": 7695,
      "Ġya’ni": 7696,
      "ĠKo‘": 7697,
      "Ġboshqarma": 7698,
      "Ġittifoq": 7699,
      "Ġsonini": 7700,
      "langanlar": 7701,
      "Ġliniya": 7702,
      "Ġmanzili": 7703,
      "ons": 7704,
      "Ġtugʻilganlar": 7705,
      "dova": 7706,
      "orda": 7707,
      "Ġozodlikdan": 7708,
      "chini": 7709,
      "Ġbuyu": 7710,
      "Ġmamlakatlari": 7711,
      "xti": 7712,
      "lmagan.": 7713,
      "ĠFil": 7714,
      "Ġjoylashtiri": 7715,
      "Ġkoʻchib": 7716,
      "Ġko‘rsatib": 7717,
      "-iyulda": 7718,
      "Ġboshidan": 7719,
      "Ġmahsulo": 7720,
      "Ġ(196": 7721,
      "Ġsektor": 7722,
      "-muhi": 7723,
      "Ġdollardan": 7724,
      "ĠFanlar": 7725,
      "zara": 7726,
      "ĠFili": 7727,
      "korlar": 7728,
      "Ġberiladigan": 7729,
      "Ġ2008": 7730,
      "Ġvazifalar": 7731,
      "Ġborilmoqda.": 7732,
      "Ġqarzdor": 7733,
      "Ġshunga": 7734,
      "tigi": 7735,
      "Ġjoyiga": 7736,
      "Ġhimoyachisi": 7737,
      "Ġxabarida": 7738,
      "Ġbormoqda.": 7739,
      "lari)": 7740,
      "ĠUEFA": 7741,
      "orva": 7742,
      "ĠNovosti": 7743,
      "OR": 7744,
      "Ġqo‘mitasining": 7745,
      "Ġkarto": 7746,
      "Ġvodiy": 7747,
      "Ġkimyoviy": 7748,
      "o‘yxat": 7749,
      "Ġnomini": 7750,
      "Ta'": 7751,
      "Ġketayotgan": 7752,
      "Ġdunyoga": 7753,
      "yet": 7754,
      "'lumot": 7755,
      "Ġchempionat": 7756,
      "uvent": 7757,
      "Ġnomidan": 7758,
      "tilmagan": 7759,
      "ĠVashington": 7760,
      "lansin.": 7761,
      "Ġfir": 7762,
      "Ġbudjeti": 7763,
      "Ġbo‘lishini": 7764,
      "ĠMahkamasiga": 7765,
      "Faoli": 7766,
      "Liverpul": 7767,
      "Ġmaʼlumotlariga": 7768,
      "ĠYaqin": 7769,
      "Ġ„B": 7770,
      "Ġfiliali": 7771,
      "ĠIr": 7772,
      "Ġhaqli": 7773,
      "Ġqolgan.": 7774,
      "-modda,": 7775,
      "TH": 7776,
      "yeva": 7777,
      "Ġmateriallar": 7778,
      "toni": 7779,
      "-tar": 7780,
      "luk": 7781,
      "sev": 7782,
      "Ġshaxsga": 7783,
      "left": 7784,
      "Ġshikast": 7785,
      "uventus": 7786,
      "Er": 7787,
      "Ġbizga": 7788,
      "tilishicha,": 7789,
      ".\nBundan": 7790,
      "Ġjavobgarlikka": 7791,
      "Ġobekt": 7792,
      "Ġkasalliklar": 7793,
      "Ġtushuncha": 7794,
      "ĠLit": 7795,
      "Ġkoʻproq": 7796,
      "Ġulgur": 7797,
      "Ġo‘lcha": 7798,
      "Ġuniversitetida": 7799,
      "Ġqoidalariga": 7800,
      "shid": 7801,
      "Ġtavsi": 7802,
      "Ġvazirligiga": 7803,
      "Ġavtomobillar": 7804,
      "Ġurin": 7805,
      "Ġ76": 7806,
      "Ġyig‘ilish": 7807,
      "ĠBunga": 7808,
      "ĠZe": 7809,
      "\n\nAlifbo": 7810,
      "zavot": 7811,
      "Ġziyorat": 7812,
      "Ġbosim": 7813,
      "ring": 7814,
      "Ġmojaro": 7815,
      "Yevro": 7816,
      "ĠJan": 7817,
      "Ġoʻgʻli": 7818,
      "Ġetayotgan": 7819,
      "Ġ“O‘zbek": 7820,
      "ĠNatijada": 7821,
      "siz.": 7822,
      ".\nM": 7823,
      "Ġamalda": 7824,
      "Ġtanilgan": 7825,
      "Ġsolin": 7826,
      "N.": 7827,
      "Ġjamoalari": 7828,
      "erina": 7829,
      "Ġmutla": 7830,
      "Ġo‘g‘": 7831,
      "Ne": 7832,
      "ĠMamlakat": 7833,
      "-oktabrda": 7834,
      "di.\n\nA": 7835,
      "dli": 7836,
      "Ġvazifalarni": 7837,
      "Ġmuqadda": 7838,
      "Ġoke": 7839,
      "Ġhov": 7840,
      "n,": 7841,
      "ĠXitoyning": 7842,
      "Ġtadbirkorlar": 7843,
      "Ġ«T": 7844,
      "Ġligasi": 7845,
      "komotiv": 7846,
      "Ġnafarga": 7847,
      "Ġjoylashgan.\n\nDemografiyasi\n\nManbalar\n\nHavolalar": 7848,
      "Ġorganizm": 7849,
      "Ġtarkibidagi": 7850,
      "Ġmarosimi": 7851,
      "Ġtabiat": 7852,
      "Ġtayinlangan": 7853,
      "ĠCity": 7854,
      "ĠShay": 7855,
      "Ġtubdan": 7856,
      "gunga": 7857,
      "Ġkassa": 7858,
      "Ġyashirin": 7859,
      "Ġdurang": 7860,
      "ĠTadbir": 7861,
      "-dekabrda": 7862,
      "-so": 7863,
      "Ġo`rta": 7864,
      "ĠSher": 7865,
      "satsiya": 7866,
      "shicha,": 7867,
      "Ġqismiga": 7868,
      "tomobil": 7869,
      "Ġanjumani": 7870,
      "Ġ42": 7871,
      "Ġyuvi": 7872,
      "Ġkerakligini": 7873,
      "Ġoylarida": 7874,
      "masdan,": 7875,
      "Ġrusumli": 7876,
      "Ġjanubiy": 7877,
      "Samarqand": 7878,
      "Ġtarjima": 7879,
      "Ġetilishini": 7880,
      "Ġajralib": 7881,
      "sin,": 7882,
      "Ġiltimo": 7883,
      "Qo‘": 7884,
      "lagani": 7885,
      "him": 7886,
      "dorlar": 7887,
      "Ġ“X": 7888,
      "ĠSergey": 7889,
      "Ġvide": 7890,
      "Ġqidiruv": 7891,
      "laver": 7892,
      "Ġpoytaxt": 7893,
      "Ġprovinsiya": 7894,
      "onat": 7895,
      "-9": 7896,
      "Ġharorati": 7897,
      "Ġ68": 7898,
      "Ġnamoyon": 7899,
      "marqandda": 7900,
      "Ġalbo": 7901,
      "ĠKXDR": 7902,
      "Ġfoizini": 7903,
      "Ġbazasini": 7904,
      "Ġhisobda": 7905,
      "Ġmas’uli": 7906,
      "lova": 7907,
      "Ġko‘maklashish": 7908,
      "Gazeta.uz": 7909,
      "Ġaloqador": 7910,
      "iyev": 7911,
      "Ġissiqlik": 7912,
      "tifikatsiya": 7913,
      "Ġhujayra": 7914,
      "piya": 7915,
      "Ġo‘g‘li": 7916,
      "g‘iz": 7917,
      "Ġta’minlash,": 7918,
      "Ġo‘g‘ir": 7919,
      "uzli": 7920,
      "xsiy": 7921,
      "uvga": 7922,
      "Ġshtatidagi": 7923,
      "Ġtabrik": 7924,
      "Ġgiyohvand": 7925,
      "Ġurgan": 7926,
      "lashtirishga": 7927,
      "Ġholatini": 7928,
      "Ġturibdi.": 7929,
      "Ġbudje": 7930,
      "79": 7931,
      "Ġsoch": 7932,
      "g‘bek": 7933,
      "avdo": 7934,
      "Ġinsonlar": 7935,
      "tilmoqda.": 7936,
      "Ġolinadigan": 7937,
      "Ġetdi,": 7938,
      "Ġqoidalari": 7939,
      "-yanvarda": 7940,
      "rildi.": 7941,
      "Ġkishidan": 7942,
      "arru": 7943,
      "Ġqiyo": 7944,
      "Ġrahbarining": 7945,
      "uquq": 7946,
      "ĠFutbol": 7947,
      "Ġovqatlanish": 7948,
      "Ġqimmatli": 7949,
      "Ġ11.": 7950,
      "illa": 7951,
      "Ukraina": 7952,
      "Ġborligi": 7953,
      "ов": 7954,
      "Ġharaka": 7955,
      "Ġmaz": 7956,
      "rans": 7957,
      "ĠQodi": 7958,
      "Ġketgan.": 7959,
      "Ġinvestitsiyalar": 7960,
      "Ġelchisi": 7961,
      "Ġkoʻrini": 7962,
      "ĠSSR": 7963,
      "Ġfarmon": 7964,
      "Kning": 7965,
      "ĠIstanbul": 7966,
      "Ġmanfaatlarini": 7967,
      "Ġxususiyat": 7968,
      "miz”,": 7969,
      "ukus": 7970,
      "Ġyoshdan": 7971,
      "ĠLigasi": 7972,
      "fini": 7973,
      "Ġgeografiyasiga": 7974,
      ".A.": 7975,
      "ĠKuch": 7976,
      "»ning": 7977,
      "Ġmagist": 7978,
      "ĠHukumat": 7979,
      "Ġshaxmat": 7980,
      "Ġ74": 7981,
      "ilya": 7982,
      "Ġting": 7983,
      "Ġayniqsa": 7984,
      "Ġkonferensiya": 7985,
      "Ġkapital": 7986,
      "ĠRim": 7987,
      "Ġboshlandi.": 7988,
      "Ġfilial": 7989,
      "yatli": 7990,
      "ĠShvetsiya": 7991,
      "7),": 7992,
      "Ġta'kidlashicha,": 7993,
      "Ġxizmatining": 7994,
      "Ġqarindosh": 7995,
      "Ġ(video": 7996,
      "Ġboxabar": 7997,
      "//": 7998,
      "ulla": 7999,
      "Ġblok": 8000,
      "Ġ2011-yil": 8001,
      "ĠO'": 8002,
      "Ġqilgandi.": 8003,
      "Ġ202": 8004,
      "Ġijrosi": 8005,
      "ndone": 8006,
      "ĠDon": 8007,
      "ĠYou": 8008,
      "Ġatigi": 8009,
      "Ġmuzeyi": 8010,
      "Ġtort": 8011,
      "Ġtanishi": 8012,
      "Ġmablag‘larini": 8013,
      "Ġdaf": 8014,
      "Ġ2012-yil": 8015,
      "jahon": 8016,
      ".\n\nS": 8017,
      "Ġkursi": 8018,
      "Ġya'ni": 8019,
      "Ġ2013-yil": 8020,
      "MA": 8021,
      "Ġavtomat": 8022,
      "Ġsoʻnggi": 8023,
      "ubl": 8024,
      "ĠKam": 8025,
      "Ġ1-ilova": 8026,
      "Ġqurolli": 8027,
      "Yaponiya": 8028,
      "ĠMajlisining": 8029,
      "Ġmono": 8030,
      "Ġpunkt": 8031,
      "ekt": 8032,
      "ota": 8033,
      "Ġoʻziga": 8034,
      "Ġmazmundagi": 8035,
      "qaruv": 8036,
      "2),": 8037,
      "mbi": 8038,
      "Ġxitoy": 8039,
      "ĠJamg‘ar": 8040,
      "Ġimtiyozli": 8041,
      "Ġmaishiy": 8042,
      "malarini": 8043,
      "Ġo‘rnatish": 8044,
      "Ġ(2010).\n\nGeografiyasi\n\nHududi": 8045,
      "Ġxoʻjaligi": 8046,
      "ney": 8047,
      "Ġuyda": 8048,
      "Ġqiziqish": 8049,
      "Ġtuproq": 8050,
      "Ġmodernizatsiya": 8051,
      "yilgan": 8052,
      "Ġvay": 8053,
      "Ġquvva": 8054,
      "ĠYo‘l": 8055,
      "lyatsiya": 8056,
      "Ġfoizdan": 8057,
      "ĠAl-": 8058,
      "ĠVen": 8059,
      "Ġmahsulotlarni": 8060,
      "pak": 8061,
      "yatiga": 8062,
      "foto": 8063,
      "smirlar": 8064,
      "ĠToshkentdagi": 8065,
      "Ġyetkazilgan": 8066,
      "Ġkiruvchi": 8067,
      "ĠBelgi": 8068,
      "Ġetdi\n\n": 8069,
      "to‘g‘ri": 8070,
      "lo,": 8071,
      "Ġtasarru": 8072,
      "Ġroli": 8073,
      "ĠMirzo": 8074,
      "Ġelement": 8075,
      "lifor": 8076,
      "Ġniho": 8077,
      "-bandi": 8078,
      "Ġtushirish": 8079,
      "Ġsurishtiruv": 8080,
      "gʻu": 8081,
      "Ġ2010-yil": 8082,
      "Ġsifati": 8083,
      "unyodkor": 8084,
      "Ġtaqdimo": 8085,
      "/sek": 8086,
      "bodon": 8087,
      "Ġayniqsa,": 8088,
      "Ġadabi": 8089,
      "74": 8090,
      "ĠEk": 8091,
      "Ġijtimoiy-iqtisodiy": 8092,
      "neft": 8093,
      "Ġyozib": 8094,
      "Ġularda": 8095,
      "Ġbozorida": 8096,
      "Ġnatijalariga": 8097,
      "Ġisbot": 8098,
      "Ġbaravar": 8099,
      "ĠSk": 8100,
      "Ġistasangiz,": 8101,
      "Ġbo‘lgan.\n": 8102,
      "-avgustda": 8103,
      "savv": 8104,
      "Ġyigit": 8105,
      "fasida": 8106,
      ":30": 8107,
      "Ġ“J": 8108,
      "Ġ(T": 8109,
      "manitar": 8110,
      "ĠTIV": 8111,
      "Ġetilayotgan": 8112,
      "DH": 8113,
      "Ġo‘rmon": 8114,
      "ĠCoun": 8115,
      "liklarga": 8116,
      "ĠLoyiha": 8117,
      "rilgan.": 8118,
      "Ġtexnologiyalar": 8119,
      "ma,": 8120,
      "Ġmingga": 8121,
      "Ġboshladi": 8122,
      "mali": 8123,
      "Ġishtirokchilari": 8124,
      "monov": 8125,
      "langanidan": 8126,
      "Ġdoza": 8127,
      "Ġnomlangan": 8128,
      "stre": 8129,
      "LARI": 8130,
      "://": 8131,
      "g‘al": 8132,
      "otsi": 8133,
      "Ġkamba": 8134,
      "Ġdasturlari": 8135,
      "Ġqisman": 8136,
      "Ġoʻzaro": 8137,
      "Ġo‘tadi.": 8138,
      "Ġsodda": 8139,
      "Ġtaʼkid": 8140,
      "ksimal": 8141,
      "Che": 8142,
      "ng‘ich": 8143,
      "lgach,": 8144,
      "Ġogohlan": 8145,
      "Ġ12.": 8146,
      "Ġkeltiri": 8147,
      "Birinchi": 8148,
      "zilgan": 8149,
      "Ġma`lumot": 8150,
      "dilar": 8151,
      "Ġsharoitida": 8152,
      "ĠOy": 8153,
      "Ġmuhojir": 8154,
      "Ġnikoh": 8155,
      "Ġto‘siq": 8156,
      "Ġanʼ": 8157,
      "kni": 8158,
      "Ġ«M": 8159,
      "sung": 8160,
      "ens": 8161,
      "ĠQatar": 8162,
      "Ġyuksak": 8163,
      "ĠSuperliga": 8164,
      "Ġtomondan": 8165,
      "Ġtushuntirish": 8166,
      "ndoneziya": 8167,
      "Ġshugʻul": 8168,
      "Ġ69": 8169,
      "simliklar": 8170,
      "lashuvi": 8171,
      "Ġmayda": 8172,
      "Bugungi": 8173,
      "Ġettirish": 8174,
      "Ġsudya": 8175,
      "Ġadolat": 8176,
      "Ġ2006-yil": 8177,
      "Ġqo‘ya": 8178,
      "Ġzil": 8179,
      "Ġqimmatbaho": 8180,
      "Ġkuzatuv": 8181,
      "Ġ\n201": 8182,
      "vizi": 8183,
      "Ġkerakli": 8184,
      "Ġhududidan": 8185,
      "Ġboʻldi.\n\n": 8186,
      "ĠAQSH": 8187,
      "Ġbalan": 8188,
      "Ġiste'mol": 8189,
      "avqulodda": 8190,
      "simon": 8191,
      "rio": 8192,
      "gandi.": 8193,
      "2,": 8194,
      "mili": 8195,
      "Ġbuyuk": 8196,
      "Ġg`": 8197,
      "erial": 8198,
      "Uchrashuv": 8199,
      "ĠJor": 8200,
      "Ġasoschisi": 8201,
      "eng": 8202,
      "Ġjangovar": 8203,
      "998": 8204,
      "Ġboradi.": 8205,
      "Ġhujumchisi": 8206,
      "eys": 8207,
      "Ġoldidan": 8208,
      "Ġinspeksiyasi": 8209,
      "Ġpasay": 8210,
      "uvchan": 8211,
      "Ġpunkti": 8212,
      "xay": 8213,
      "ĠSport": 8214,
      "Ġo‘tadigan": 8215,
      "Ġmon": 8216,
      "pora": 8217,
      "ros": 8218,
      "senal": 8219,
      "ĠIShID": 8220,
      "tana": 8221,
      "Ġtugʻilgan.": 8222,
      "ziy": 8223,
      "miyasi": 8224,
      "ripov": 8225,
      "ph": 8226,
      "Ġ41": 8227,
      "ganida,": 8228,
      "Ġuniversitetining": 8229,
      "Ġfinalda": 8230,
      "yle": 8231,
      "Ġtuzatish": 8232,
      "ĠToʻ": 8233,
      "Yanada": 8234,
      "-aprelda": 8235,
      "Ġbayono": 8236,
      "ĠJumladan,": 8237,
      "yora": 8238,
      "blari": 8239,
      "Ġvara": 8240,
      "Ġoyining": 8241,
      "etti": 8242,
      "ĠTemur": 8243,
      "er,": 8244,
      "dim,": 8245,
      "kalav": 8246,
      "ĠJ.": 8247,
      "ges": 8248,
      "chilarni": 8249,
      "Ġ2:0": 8250,
      "if": 8251,
      "Ġetishda": 8252,
      "qo‘rg‘on": 8253,
      "Ġtozalash": 8254,
      "Ġkommunal": 8255,
      "Ġ\nQ": 8256,
      "Ġo‘qitish": 8257,
      "gʻona": 8258,
      "Ġyozishicha,": 8259,
      "Ġtelevideniye": 8260,
      "ĠAka": 8261,
      "Ġbo'yicha": 8262,
      "Ġuyushma": 8263,
      "ĠNizomning": 8264,
      "ĠFederatsiyasi": 8265,
      "Ġtarqalishi": 8266,
      "Ġdasturini": 8267,
      "-moddasiga": 8268,
      "ĠMeksi": 8269,
      "-sentyabr": 8270,
      "Ġyetkazish": 8271,
      "Ġ\nO": 8272,
      "Ġchiqqa": 8273,
      "Ġuchuvchi": 8274,
      "Ġmavjudligi": 8275,
      "poliya": 8276,
      "Ġkuy": 8277,
      "Ġpunktlari\n": 8278,
      "-turi": 8279,
      "Ġyangiliklaridan": 8280,
      "Ġidi": 8281,
      "-oktyabr": 8282,
      "Phone": 8283,
      "Ġketa": 8284,
      "Ġborilgan": 8285,
      "Ġ“F": 8286,
      "Ġaytdi.": 8287,
      "Ġmarosim": 8288,
      "35": 8289,
      "Ġversiya": 8290,
      "Ġsohada": 8291,
      "doshi": 8292,
      "Ġqilinadi": 8293,
      "Ġbulut": 8294,
      "Ġxonanda": 8295,
      "Ġnufuzli": 8296,
      "ĠXitoyda": 8297,
      "Ġostidagi": 8298,
      "ĠYusu": 8299,
      "ua": 8300,
      "Ġnomiga": 8301,
      "Ġta'mino": 8302,
      "tellekt": 8303,
      "m”": 8304,
      "Ġuslub": 8305,
      "Ġiqlim": 8306,
      "Ġoʻquv": 8307,
      "Ġchiqishga": 8308,
      "Ġ191": 8309,
      "inch": 8310,
      "Ġquyosh": 8311,
      "uskuna": 8312,
      "Ġspe": 8313,
      "ĠJe": 8314,
      "rli": 8315,
      "Ġshoir": 8316,
      "Ġ«O": 8317,
      "ĠQoʻshma": 8318,
      "Ġboʻlsa,": 8319,
      "gohi": 8320,
      "Ġtashkilotlarning": 8321,
      ".\nShu": 8322,
      "Ġegalari": 8323,
      "kning": 8324,
      "shoq": 8325,
      "ĠBarcha": 8326,
      "Ġmaslahatchisi": 8327,
      "Ġqadr": 8328,
      "ngda": 8329,
      "Ġkompaniyalari": 8330,
      "Respublika": 8331,
      "Ġimzoladi.": 8332,
      "Ġqaraganda": 8333,
      "Ġtanlash": 8334,
      "Ġqilgan.\n\n": 8335,
      "ĠGer": 8336,
      "kilot": 8337,
      "Ġ(foto": 8338,
      "Ġo‘rni": 8339,
      "matika": 8340,
      "Ġfoydalanishni": 8341,
      "Ġjarayonini": 8342,
      "ĠArmaniston": 8343,
      "Ġta’kidlashicha,": 8344,
      "Ġmaosh": 8345,
      "-q": 8346,
      "yov": 8347,
      "ngo": 8348,
      "ogle": 8349,
      "Ġatrof-muhi": 8350,
      "hum": 8351,
      "malarni": 8352,
      "ĠXX": 8353,
      "bekov": 8354,
      "ningiz": 8355,
      "Ġqoidalarini": 8356,
      "xgal": 8357,
      "Ġmavsumida": 8358,
      "Ġnega": 8359,
      "Ġuzunligi": 8360,
      "Ġqo‘zg‘ati": 8361,
      "Ġkasallanish": 8362,
      "arselona”": 8363,
      "Ġsolig‘i": 8364,
      "Ġkelishib": 8365,
      "Ġqadimgi": 8366,
      "Ġ0:1": 8367,
      "latsiya": 8368,
      "Ġo`tkazi": 8369,
      "Ġqoʻshin": 8370,
      "Ġaytilgan": 8371,
      "Ġ.\n\n": 8372,
      "Ġasbob-": 8373,
      "shunoslik": 8374,
      "III": 8375,
      "Ġtoʻxta": 8376,
      "ĠAzi": 8377,
      "Ġtashxi": 8378,
      "Ġegalladi.": 8379,
      "Ġnoto‘g‘ri": 8380,
      "Ġkanal": 8381,
      "ĠKri": 8382,
      "Ġ=": 8383,
      "lashdi.": 8384,
      "Ġ„O": 8385,
      "Ġishtirokidagi": 8386,
      "liqni": 8387,
      "Ġ86": 8388,
      "Ġbo‘lishiga": 8389,
      "Ġhududidagi": 8390,
      "ans": 8391,
      "pov": 8392,
      "Ġstar": 8393,
      "Ġ“Ma": 8394,
      "Ġbildirdi.": 8395,
      "Ġfaoliyatida": 8396,
      "Ġto‘ldiril": 8397,
      "Ġboʻlimi": 8398,
      "Ġnafardan": 8399,
      "radi": 8400,
      "kuror": 8401,
      "Ġxavo": 8402,
      "Ġchempionatining": 8403,
      "t”": 8404,
      "mazon": 8405,
      "mondon": 8406,
      "Ġislohotlar": 8407,
      "Ġqilish;\n": 8408,
      "Ġorganlar": 8409,
      "yur": 8410,
      "Ġqiyinchilik": 8411,
      "-tez": 8412,
      "Ġkamroq": 8413,
      "Ġparcha": 8414,
      "Ġguvohnoma": 8415,
      "Ġprin": 8416,
      "Ġtayanib": 8417,
      "Ġma'lumotlariga": 8418,
      "Ġaksariyati": 8419,
      "Ġshaх": 8420,
      "Ġfotos": 8421,
      "olibi": 8422,
      "Ġarbo": 8423,
      "Ġdafn": 8424,
      "ĠRus": 8425,
      "Ġpod": 8426,
      "Ġochilgan": 8427,
      ".com/": 8428,
      "EK": 8429,
      "Ġegalik": 8430,
      "Ġqishloq.\n\nManbalar": 8431,
      "Ġdeklar": 8432,
      "rigi": 8433,
      "Ġtomoshabin": 8434,
      "Har": 8435,
      "Ġbemorlar": 8436,
      "ĠBre": 8437,
      "Ġattestatsiya": 8438,
      "ĠNATO": 8439,
      "udud": 8440,
      "mdagi": 8441,
      "ino": 8442,
      "Ġ&": 8443,
      "Ġniqob": 8444,
      "Ġkonse": 8445,
      "Ġoxirigacha": 8446,
      "Ġmingta": 8447,
      "Ġbaxt": 8448,
      "Ġqilgan,": 8449,
      "ng‘iroq": 8450,
      "Ġgidro": 8451,
      "ĠAsh": 8452,
      "Ġa’zosi": 8453,
      "Ġhammasi": 8454,
      "Yi": 8455,
      "ĠUzbekistan": 8456,
      "Ro": 8457,
      "Ġ\nT": 8458,
      "-texnika": 8459,
      "Ġax": 8460,
      "Ġnusxasi": 8461,
      "/sekund": 8462,
      "Ġbosqichda": 8463,
      "Ġ2007": 8464,
      "Ġnafas": 8465,
      "Ġqanot": 8466,
      "qay": 8467,
      "ĠIqtisodiyot": 8468,
      "Ġayblov": 8469,
      "Ġmasalalarni": 8470,
      "ĠShveysariya": 8471,
      "Ġbajara": 8472,
      "shir": 8473,
      "lektron": 8474,
      "Buyuk": 8475,
      "Ġso‘mni": 8476,
      "Ġkilogram": 8477,
      "ĠF.": 8478,
      "Ġbila": 8479,
      "Ġdarhol": 8480,
      "lumotiga": 8481,
      "bop": 8482,
      "Ġorzu": 8483,
      "ruza": 8484,
      "qarli": 8485,
      "Ġ2009-yil": 8486,
      "Ġ120": 8487,
      "Ġsanoq": 8488,
      "Ġnorozilik": 8489,
      "Ġqilishini": 8490,
      "Ġmasalan,": 8491,
      "Ġko‘chmas": 8492,
      "Ġoʻrniga": 8493,
      "Ġilg‘or": 8494,
      "Ġolimlar": 8495,
      "2)": 8496,
      "Ġqilgan.\n": 8497,
      "1),": 8498,
      "Ġgʻolib": 8499,
      "ĠButun": 8500,
      "ĠGruziya": 8501,
      "Ġtizimining": 8502,
      "Ġxoli": 8503,
      "Ġ84": 8504,
      "ĠQarshi": 8505,
      "porti": 8506,
      "nora": 8507,
      "Ġto‘pla": 8508,
      "-V": 8509,
      "»da": 8510,
      "Ġtilidagi": 8511,
      "Ġgalaktikadir.\n\n": 8512,
      "Ġfarzandi": 8513,
      "Ġ“G": 8514,
      "’i": 8515,
      "Ġshaxsan": 8516,
      "Ġyashagan": 8517,
      "—201": 8518,
      "Ġfestiva": 8519,
      "ismoniy": 8520,
      "Ġidoralari": 8521,
      "Ġyopiq": 8522,
      "bosari": 8523,
      "-noyabrda": 8524,
      "Ġkelishilgan": 8525,
      "Kar": 8526,
      "Ġmetr/sekund": 8527,
      "Ġshartnomalar": 8528,
      "'da": 8529,
      "Ġ\nMa": 8530,
      "ĠG.": 8531,
      "essiya": 8532,
      "Ġxur": 8533,
      "yotini": 8534,
      "Ġilo": 8535,
      "Ġmiya": 8536,
      "Ġbuzgan": 8537,
      "Ġombor": 8538,
      "S.": 8539,
      "dimiy": 8540,
      "Ġxizmatlarini": 8541,
      "Ġ1000": 8542,
      "Ġyoru": 8543,
      "Ta’": 8544,
      "Ġ2-ilova": 8545,
      "Ġchiziq": 8546,
      "Ġyutqa": 8547,
      "ĠQurol": 8548,
      "Ġtizimlari": 8549,
      "Ġto`g`ri": 8550,
      "tilishini": 8551,
      "Ġshimoliy": 8552,
      "Ġovo": 8553,
      "Ġoshib": 8554,
      "ĠUlug‘bek": 8555,
      "Ġprognoz": 8556,
      "Ġqonunga": 8557,
      "Ġberdi\n\n": 8558,
      "krak": 8559,
      "ĠSte": 8560,
      "Ġyoʻnalish": 8561,
      "hn": 8562,
      "Ġkul": 8563,
      "Ġbo‘ladigan": 8564,
      "Ġshaxslarni": 8565,
      "Ġ192": 8566,
      "ĠNar": 8567,
      "kt-P": 8568,
      "Ġbinosi": 8569,
      "Ġmutaxassislari": 8570,
      "Ġparametr": 8571,
      "Ġ188": 8572,
      "Ġtashlash": 8573,
      "sey": 8574,
      "ĠQay": 8575,
      "ĠIIBB": 8576,
      "zinchi": 8577,
      "Be": 8578,
      "Ġmadrasa": 8579,
      "Ġ\n19": 8580,
      "yoz": 8581,
      "ĠHe": 8582,
      "Ġyalpi": 8583,
      "ĠUm": 8584,
      "Ġ(u": 8585,
      "Ġkirishi": 8586,
      "dir,": 8587,
      "tilgani": 8588,
      "Ġyondash": 8589,
      "Ġnafarni": 8590,
      "Ġmeni": 8591,
      "Ġturmu": 8592,
      "qqiz": 8593,
      "Ġtopa": 8594,
      "Ġmashq": 8595,
      "Ġmehnatga": 8596,
      "ĠMor": 8597,
      "Ġsababli,": 8598,
      "gʻish": 8599,
      ").\n\nManbalar": 8600,
      "bcha": 8601,
      "uto": 8602,
      "Ġataladi": 8603,
      "Ġasbob-uskuna": 8604,
      "Ġto‘xtatib": 8605,
      "Ġtopshir": 8606,
      "Ġqoch": 8607,
      "ĠYi": 8608,
      "O‘zbekistonda": 8609,
      "TB": 8610,
      "Ġqilmoqda": 8611,
      "Ġrazved": 8612,
      "Ġasa": 8613,
      "Ġrahba": 8614,
      "Ġoyna": 8615,
      "Ġyo`l": 8616,
      "Ġgvar": 8617,
      "Lokomotiv": 8618,
      "Ġ600": 8619,
      "Ġo‘rinda": 8620,
      "wi": 8621,
      "Ġvu": 8622,
      "kammal": 8623,
      "ome": 8624,
      "Ġ(195": 8625,
      "Ġqarorga": 8626,
      "Ġtayanib,": 8627,
      "ĠAna": 8628,
      "Ġomon": 8629,
      "ĠApple": 8630,
      "Ġsab": 8631,
      "Ġhav": 8632,
      "ĠCho": 8633,
      "Ġkvartira": 8634,
      "sia": 8635,
      "ual": 8636,
      "Ġimzolangan": 8637,
      "hudiy": 8638,
      "Ġtarqat": 8639,
      "DI": 8640,
      "Ġsuper": 8641,
      "Ġbildirish": 8642,
      "ĠMessi": 8643,
      "ĠMadaniyat": 8644,
      "Ġ“a": 8645,
      "Ġdaryosi": 8646,
      "-xo": 8647,
      "ĠKos": 8648,
      "ĠCar": 8649,
      "Ġilm": 8650,
      "Ġsohasi": 8651,
      "Ma’lum": 8652,
      "-ku": 8653,
      "ĠTosh": 8654,
      "sob": 8655,
      "kt-Peterburg": 8656,
      "jum": 8657,
      "Ġ“Da": 8658,
      "lion": 8659,
      "xum": 8660,
      "Ġtayan": 8661,
      "Ġochish": 8662,
      "ск": 8663,
      "rid": 8664,
      "Ġberildi.\n": 8665,
      "ʼni": 8666,
      "Ġmuqo": 8667,
      "Ġqarat": 8668,
      "yir": 8669,
      "Ġyorqin": 8670,
      "Ġpoyga": 8671,
      "Ġahvoli": 8672,
      "Ġismi": 8673,
      "Ġmuassasalarining": 8674,
      "Ġxatti-harakat": 8675,
      "Ġ(b": 8676,
      "ĠInvestitsiya": 8677,
      "lor": 8678,
      "Shahar": 8679,
      "ĠCher": 8680,
      "Ġko‘rsatuvchi": 8681,
      "Ġsol": 8682,
      "ĠFe": 8683,
      "Ġekan.": 8684,
      "RIA": 8685,
      "nab": 8686,
      "Ġsarmoya": 8687,
      "ĠMav": 8688,
      "Ġinvestor": 8689,
      "Ġhamkas": 8690,
      "Ġo‘tkazgan": 8691,
      "rovka": 8692,
      "Ġ\n\nN": 8693,
      "Ġqonuni": 8694,
      "Ġoyidan": 8695,
      "ĠBirlashgan": 8696,
      "Ġobodon": 8697,
      "Ġoʻqituvchi": 8698,
      "teriya": 8699,
      "Ġo‘rto": 8700,
      "Ġorganlariga": 8701,
      "Ġalbatta": 8702,
      "Ikkinchi": 8703,
      "gʻar": 8704,
      "Ġiliq,": 8705,
      "Ġ2:1": 8706,
      "Ġo‘rinni": 8707,
      "Ġ83": 8708,
      "Ġo‘xshash": 8709,
      "ds": 8710,
      "luksiz": 8711,
      "DA": 8712,
      "TS": 8713,
      "-15": 8714,
      "Ġqilishning": 8715,
      "Ġalla": 8716,
      "Ġmajlisida": 8717,
      "Ġsahifasida": 8718,
      "ĠIS": 8719,
      "ĠKomissiya": 8720,
      "kr": 8721,
      "texnika": 8722,
      "uvlar": 8723,
      "Ġfirib": 8724,
      "kologiya": 8725,
      "Ġyaqinidagi": 8726,
      "Ġmaʼmuriy": 8727,
      "Ġfoizni": 8728,
      "Ġo‘s": 8729,
      "Ġhududlar": 8730,
      "boz": 8731,
      "ĠBugungi": 8732,
      "batta,": 8733,
      "Ġkengashining": 8734,
      "ĠYana": 8735,
      "Ġoshkor": 8736,
      "Ġekran": 8737,
      "-M": 8738,
      "Ġishlaydigan": 8739,
      "kio": 8740,
      "Ġsharh": 8741,
      "Ġmero": 8742,
      ".\nUning": 8743,
      "jab": 8744,
      "nge": 8745,
      "Ġsog‘lig‘i": 8746,
      "ĠSuv": 8747,
      "ĠKompaniya": 8748,
      "Ġtransfer": 8749,
      "arovon": 8750,
      "ĠPor": 8751,
      "Ġbo‘linmalari": 8752,
      "Ġreal": 8753,
      "ĠSil": 8754,
      "ĠNav": 8755,
      "Ġyukla": 8756,
      "-iyunda": 8757,
      "Ġyo‘llari": 8758,
      "Ġarxitektura": 8759,
      "-fevralda": 8760,
      "Ġpenalti": 8761,
      "hom": 8762,
      "Ġxavotir": 8763,
      "Ġdush": 8764,
      "Ġxarajatlari": 8765,
      "Ġinqilo": 8766,
      "dga": 8767,
      "lanishga": 8768,
      "orvatiya": 8769,
      "Ġortidan": 8770,
      "-kommunikatsiya": 8771,
      "OS": 8772,
      "Ġqolishi": 8773,
      "-bandning": 8774,
      "Ġmaʼno": 8775,
      "kori": 8776,
      "Ġafzal": 8777,
      "Ġsummasi": 8778,
      "Ġbo‘y": 8779,
      "Ġaniqlik": 8780,
      "Ġoperator": 8781,
      "Ġsinovdan": 8782,
      "Ġgolini": 8783,
      "qachon": 8784,
      "Ġisteʼ": 8785,
      "lamli": 8786,
      "chilikni": 8787,
      "Fil": 8788,
      "bilar": 8789,
      "Ġdarajasida": 8790,
      "Ġyakshanba": 8791,
      "Ġtashvi": 8792,
      "ĠCounty": 8793,
      "yak": 8794,
      "NG": 8795,
      "ĠXon": 8796,
      "xo‘": 8797,
      "Ġquyidagicha": 8798,
      "Ġyashil": 8799,
      "liforniya": 8800,
      "Ġsheriklik": 8801,
      "Ġbakalav": 8802,
      "Ġadliya": 8803,
      "Ġbanklari": 8804,
      "rsenal": 8805,
      "Ġkoʻcha": 8806,
      "Ġo‘yinlari": 8807,
      "Ġmashinasi": 8808,
      "Ġfilmlari\n": 8809,
      "Ġkuzatib": 8810,
      "IL": 8811,
      "chinchi": 8812,
      "Ġjamoalar": 8813,
      "Ġmajmuasi": 8814,
      "ĠSamarqandda": 8815,
      "Ġ(r": 8816,
      "Ġqilinib,": 8817,
      "manda": 8818,
      "Ġyonida": 8819,
      "ope": 8820,
      "Ġdo‘st": 8821,
      "Ġquvur": 8822,
      "uniga": 8823,
      "ĠKas": 8824,
      "Ġo‘zlari": 8825,
      "ets": 8826,
      "way": 8827,
      "Ġmig": 8828,
      "Ġtekis": 8829,
      "ĠFin": 8830,
      "Ġplastik": 8831,
      "judga": 8832,
      "vaq": 8833,
      "ngga": 8834,
      "align": 8835,
      "kana": 8836,
      "Ġsheʼ": 8837,
      "Ġodat": 8838,
      "Ġnon": 8839,
      "kalar": 8840,
      "di.\nS": 8841,
      "Ġerishi": 8842,
      "Ġyahudiy": 8843,
      "ĠiPhone": 8844,
      "ĠBaho": 8845,
      "dlik": 8846,
      "ĠPara": 8847,
      "Ġgeneral": 8848,
      "ĠP.": 8849,
      "jini": 8850,
      "-transport": 8851,
      "soy": 8852,
      "Ġdasturiy": 8853,
      "Ġterrori": 8854,
      "SJ": 8855,
      "Ġyoʻli": 8856,
      "ĠBayden": 8857,
      "qismi": 8858,
      "Ġmineral": 8859,
      "Fransiya": 8860,
      "Ġqo‘ng‘iroq": 8861,
      "ĠYTH": 8862,
      "Ġqanchalik": 8863,
      "derlandiya": 8864,
      "yektlari": 8865,
      "-liga": 8866,
      "Ġdarajasiga": 8867,
      "Ġtartibdagi": 8868,
      "Ġhokimlik": 8869,
      "ĠQuyidagilar": 8870,
      "Ġmuhokamasi": 8871,
      "layziya": 8872,
      "-mayda": 8873,
      "Ġogʻir": 8874,
      "Ġhomila": 8875,
      "Ġgoʻ": 8876,
      "Ġfuqarolarga": 8877,
      "Ġvitse": 8878,
      "Ġkompaniyalar": 8879,
      "larimizni": 8880,
      "udu": 8881,
      "Ġvaqtning": 8882,
      "Ġboshqalar)": 8883,
      "Ġshaharlar": 8884,
      "Ġoʻtkazilgan": 8885,
      "ор": 8886,
      "Ġhokimining": 8887,
      "Ġrangli": 8888,
      "lang": 8889,
      "Ġo‘zim": 8890,
      "Ġdemokratik": 8891,
      "etro": 8892,
      "Ġevaku": 8893,
      "ар": 8894,
      "Ġpedagog": 8895,
      "tirildi.": 8896,
      "ĠNazar": 8897,
      "Ġkampaniya": 8898,
      "Ġadvokat": 8899,
      "kaning": 8900,
      "Ġ(O": 8901,
      "ĠFlo": 8902,
      "Ġtayinlandi.": 8903,
      "Ġvujudga": 8904,
      "laning": 8905,
      "latlar": 8906,
      "Xo": 8907,
      "Ġarafasida": 8908,
      "z,": 8909,
      "Ġqo‘shiq": 8910,
      "Ġpuli": 8911,
      "ĠRusta": 8912,
      "Ġo‘zgarishlar": 8913,
      "Ġsuyuq": 8914,
      "ĠMotor": 8915,
      "Ġborligini": 8916,
      "Ġarti": 8917,
      "Ġiqtisodiyoti": 8918,
      "ma-bosqich": 8919,
      "Ġprezidentlik": 8920,
      "gʻoniston": 8921,
      "ĠHukumati": 8922,
      "Ġlavozimidan": 8923,
      "Ġustav": 8924,
      "Ġqishloqlar": 8925,
      "Ġkuchayishi": 8926,
      "laydi;\n": 8927,
      "'at": 8928,
      "ĠArab": 8929,
      "alsa": 8930,
      "Ġdepartamentida": 8931,
      "vegiya": 8932,
      "Ġtalablar": 8933,
      "ĠMaktab": 8934,
      "Ġusuli": 8935,
      "Ġsovet": 8936,
      "Ġ0,0": 8937,
      "Ġmaydonda": 8938,
      "Ġ57": 8939,
      "avfsizlik": 8940,
      "Ġtril": 8941,
      "ensatsiya": 8942,
      "Ġmezon": 8943,
      "elen": 8944,
      "Shavkat": 8945,
      "Ġortda": 8946,
      "Ġbo‘lganini": 8947,
      "ĠKal": 8948,
      "Ġjanjal": 8949,
      "ĠDav": 8950,
      "Ġshundaki,": 8951,
      "Ġoladi.\n": 8952,
      "“ga": 8953,
      "Ġxodimlariga": 8954,
      "33": 8955,
      "Ġmuassasalariga": 8956,
      "0-yilda": 8957,
      "ĠTergov": 8958,
      "storan": 8959,
      "Ġ189": 8960,
      "ĠRobert": 8961,
      "qor": 8962,
      "Ġmamlakatdagi": 8963,
      "Ġolimpiya": 8964,
      "Ġkorpo": 8965,
      "Ġotish": 8966,
      "Ġtez-tez": 8967,
      "ĠBra": 8968,
      "Ġshanba": 8969,
      "Ġhalokat": 8970,
      "5)": 8971,
      "Ġtasavv": 8972,
      "Ġbo‘sha": 8973,
      "Ġmintaqasi": 8974,
      "Ġetgani": 8975,
      "fan": 8976,
      "Ġ(J": 8977,
      "Ġprokuror": 8978,
      "Ġtad": 8979,
      "elli": 8980,
      "ĠBo‘": 8981,
      "Ġ79": 8982,
      "ĠZi": 8983,
      "\n\nS": 8984,
      "Ġolishda": 8985,
      "Ġniyati": 8986,
      "Ġallaqachon": 8987,
      "Ġto‘y": 8988,
      "Ġqismidagi": 8989,
      "Ġmening": 8990,
      "Ġfarovon": 8991,
      "Ġ2008-yil": 8992,
      "char": 8993,
      "Ġprotses": 8994,
      "Ġtortish": 8995,
      "ad": 8996,
      "yle=\"": 8997,
      "Ġshahri,": 8998,
      "ĠQurolli": 8999,
      "Ġbosqichma-bosqich": 9000,
      "ĠRespublikasi,": 9001,
      "Ġpichoq": 9002,
      "Ġnavbatda": 9003,
      "ĠMadrid": 9004,
      "Ġmarkazining": 9005,
      "spi": 9006,
      "Ġstadion": 9007,
      "taga": 9008,
      "Ġo‘rganib": 9009,
      "TA": 9010,
      "tara": 9011,
      "ĠOba": 9012,
      "ĠInternet": 9013,
      "Ġmaydoncha": 9014,
      "ĠKeyingi": 9015,
      "Ġjoylashtirilgan": 9016,
      "Ġdali": 9017,
      "Ġmukammal": 9018,
      "Ġmuhandislik": 9019,
      "Ġqoladi.": 9020,
      "Ġuzluksiz": 9021,
      "Ġrafiqasi": 9022,
      "ĠChar": 9023,
      "Ġ51": 9024,
      "Ġqoplash": 9025,
      "Ġbo'lib,": 9026,
      "rildi.\n": 9027,
      "Ġ52": 9028,
      "Ġyodgorlik": 9029,
      "GA": 9030,
      "-in": 9031,
      "sidiya": 9032,
      "Ġ250": 9033,
      "Ġo`rin": 9034,
      "Ġkosmik": 9035,
      "Ġtanishish": 9036,
      "rlar": 9037,
      "Ġbolalarni": 9038,
      "Ġellik": 9039,
      "Ġyurgan": 9040,
      "stro": 9041,
      "rgaz": 9042,
      "Ġhavola": 9043,
      "ĠUru": 9044,
      "Ġnoyob": 9045,
      "Ġnas": 9046,
      "Ġzid": 9047,
      "dasi": 9048,
      "Ġmamlakatga": 9049,
      "sam": 9050,
      "Ġqo`l": 9051,
      "Ġmamlakatimiz": 9052,
      "Ġloyihani": 9053,
      "ĠChen": 9054,
      "ĠFavqulodda": 9055,
      "Ġto‘lovlar": 9056,
      ".\nMazkur": 9057,
      "Ġatrofidagi": 9058,
      "ĠMDH": 9059,
      "Ġborib,": 9060,
      "Ġkutilmoqda.": 9061,
      "Ġbildirgan": 9062,
      "Vazirlar": 9063,
      "Ġarmiyasi": 9064,
      "Ġyoshi": 9065,
      "gus": 9066,
      "sona": 9067,
      "Ġ\n\"": 9068,
      "Ġuslubi": 9069,
      "eh": 9070,
      "Ġhunar": 9071,
      "kani": 9072,
      "Ġgar": 9073,
      "Ġbo‘lishicha,": 9074,
      "Ġnuqtai": 9075,
      "Ġsti": 9076,
      "archa": 9077,
      "ĠVol": 9078,
      "Ġdalil": 9079,
      "Ġkoʻr": 9080,
      "Ġolmas": 9081,
      "lashtiruvchi": 9082,
      "Ġmaydonidir.": 9083,
      "Ġpesh": 9084,
      "Ġroʻyxati": 9085,
      "Ġoltinchi": 9086,
      "Ġ(video)\n\n": 9087,
      "gapur": 9088,
      "toqlik": 9089,
      "Ġpora": 9090,
      "Ġochil": 9091,
      "Ġkuzatish": 9092,
      "Ġhavza": 9093,
      "ĠKo‘p": 9094,
      "Ġ13.": 9095,
      "Ġkitobi": 9096,
      "Ġoʻtdi.": 9097,
      "obod": 9098,
      "ĠBah": 9099,
      "Ġdarajali": 9100,
      "Ġoydan": 9101,
      "Ġodamlarning": 9102,
      "Ġshartlari": 9103,
      "Ġtalon": 9104,
      "Ġkomissiyasining": 9105,
      "Ġo'rta": 9106,
      "Ġetadigan": 9107,
      "Ġqadimiy": 9108,
      "Ġyaroq": 9109,
      "Ġvositalarining": 9110,
      "fof": 9111,
      "Ġkoʻpincha": 9112,
      "XB": 9113,
      "Ġkesib": 9114,
      "ĠJamoat": 9115,
      "Ġshifokorlar": 9116,
      "Ye": 9117,
      "ĠBAA": 9118,
      "Ġaniqlangan.": 9119,
      "ussiya": 9120,
      "r.": 9121,
      "Ġhokimliklari": 9122,
      "Ġshahridan": 9123,
      "magani": 9124,
      "Ġobyekti": 9125,
      "1)": 9126,
      "ĠXV": 9127,
      "Ġshtatining": 9128,
      "ĠTO‘": 9129,
      "gohlantirish": 9130,
      "Ġmax": 9131,
      "Ġzilzila": 9132,
      "kli": 9133,
      "Ġjoyga": 9134,
      "Ġ\"A": 9135,
      "Ġhisoblan": 9136,
      "Ġbudjetdan": 9137,
      "Ġshoxo": 9138,
      "oʻja": 9139,
      "eb": 9140,
      "ess": 9141,
      "Ġshunchaki": 9142,
      "ĠIqtisodiy": 9143,
      "Ġterakt": 9144,
      "Qon": 9145,
      "Ġip": 9146,
      "chilikka": 9147,
      "Ġparlam": 9148,
      "Ġsamolyoti": 9149,
      "enej": 9150,
      "Ġ(2000": 9151,
      "Ġmaqsadga": 9152,
      "skaya": 9153,
      "Ġrejasi": 9154,
      "Ġbelgisi": 9155,
      "Ġif": 9156,
      "ĠOTM": 9157,
      "Ġo‘tkaziladi.": 9158,
      "Ġzahar": 9159,
      "Ġbazaviy": 9160,
      "Ġyo‘lida": 9161,
      "Ġsharoitlar": 9162,
      "Ġko‘pa": 9163,
      "Ġibodat": 9164,
      "yapti,": 9165,
      "Ġkelishuvga": 9166,
      "Ġboʻldi": 9167,
      "ĠYo‘": 9168,
      "lektr": 9169,
      "Ġnatijasi": 9170,
      "ĠTor": 9171,
      "foga": 9172,
      "-\n|": 9173,
      "ĠSoliq": 9174,
      "Ġguber": 9175,
      "Ġaholisining": 9176,
      "ĠPat": 9177,
      "Ġo‘tayotgan": 9178,
      "Ġhaykal": 9179,
      "Ġilovaga": 9180,
      "44": 9181,
      "Ġfutboli": 9182,
      "tiradi": 9183,
      "Ġroʻyxatiga": 9184,
      "Ġyordamchi": 9185,
      "Ġmilliondan": 9186,
      "Ġbo‘linma": 9187,
      "Ġreali": 9188,
      "Ġchiqqan.": 9189,
      "Ġguvohnomasi": 9190,
      "da)": 9191,
      "Ġetiladi": 9192,
      "ĠShoh": 9193,
      "RIS": 9194,
      "Ġhisobvaraq": 9195,
      "\n\n“": 9196,
      "Ġnota": 9197,
      "Ġsiyosatini": 9198,
      "ĠErd": 9199,
      "Loyiha": 9200,
      "ektor": 9201,
      "Ġqadri": 9202,
      "Ġraisining": 9203,
      "Ġto‘g‘risida»gi": 9204,
      "shil": 9205,
      "Ġkeksa": 9206,
      "fiya": 9207,
      "Ġdebyutini": 9208,
      "Ġmablagʻ": 9209,
      "tsep": 9210,
      "Ġko‘paytirish": 9211,
      "Ġsportchilar": 9212,
      "use": 9213,
      "ĠTrampning": 9214,
      "Ġsaylovi": 9215,
      "Ġkoʻrib": 9216,
      "Ġistalgan": 9217,
      "Ġtog‘": 9218,
      "qinlik": 9219,
      "Ġqilingandi.": 9220,
      "Ġkonsert": 9221,
      "Ġuzi": 9222,
      "Ġkelmoqda.": 9223,
      "ubay": 9224,
      "Ġqabri": 9225,
      "-sa": 9226,
      "murodov": 9227,
      "\n·": 9228,
      "Ġintervyusida": 9229,
      "tiko": 9230,
      "diyasi": 9231,
      "ĠVeng": 9232,
      "Ġog‘ri": 9233,
      ".\nP": 9234,
      "Ġqilmoqda.\n": 9235,
      "Ġma’lumotlarga": 9236,
      "Ġsutka": 9237,
      "Ġqilinishini": 9238,
      "Ġo‘tkazildi.": 9239,
      "Chi": 9240,
      "1,": 9241,
      "Ġinqiroz": 9242,
      "Ġreg": 9243,
      "ĠLin": 9244,
      "Ġqiroli": 9245,
      "Ġsoxta": 9246,
      "text": 9247,
      "O‘zbek": 9248,
      "Ġtushdi.": 9249,
      "Ġholatga": 9250,
      "Ġajrat": 9251,
      "Ġ88": 9252,
      "uliston": 9253,
      "Ġxodimlarini": 9254,
      "Ġqilishlari": 9255,
      "bet": 9256,
      "Ġruhiy": 9257,
      "Ġustiga": 9258,
      "Ġberdi,": 9259,
      "Ġboshqaruvchi": 9260,
      "ĠArgentina": 9261,
      "Ġmaksimal": 9262,
      "Ġoshirgan": 9263,
      "Ġaslida": 9264,
      "mi?\n": 9265,
      "Ġ(F": 9266,
      "layotganini": 9267,
      "Ġxaridor": 9268,
[...]
