{
  "version": "1.0",
  "truncation": null,
  "padding": null,
  "added_tokens": [
    {
      "id": 0,
      "content": "<unk>",
      "single_word": false,
      "lstrip": false,
      "rstrip": false,
      "normalized": false,
      "special": true
    },
    {
      "id": 1,
      "content": "<s>",
      "single_word": false,
      "lstrip": false,
      "rstrip": false,
      "normalized": false,
      "special": true
    },
    {
      "id": 2,
      "content": "</s>",
      "single_word": false,
      "lstrip": false,
      "rstrip": false,
      "normalized": false,
      "special": true
    },
    {
      "id": 3,
      "content": "<pad>",
      "single_word": false,
      "lstrip": false,
      "rstrip": false,
      "normalized": false,
      "special": true
    }
  ],
  "normalizer": null,
  "pre_tokenizer": {
    "type": "Sequence",
    "pretokenizers": [
      {
        "type": "Split",
        "pattern": {
          "Regex": "(?i:'s|'t|'re|'ve|'m|'ll|'d)|[^\\r\\n\\p{L}\\p{N}]?\\p{L}+|\\p{N}{1,3}| ?[^\\s\\p{L}\\p{N}]+[\\r\\n]*|\\s*[\\r\\n]+|\\s+(?!\\S)|\\s+"
        },
        "behavior": "Isolated",
        "invert": false
      },
      {
        "type": "ByteLevel",
        "add_prefix_space": false,
        "trim_offsets": true,
        "use_regex": false
      }
    ]
  },
  "post_processor": {
    "type": "TemplateProcessing",
    "single": [
      {
        "SpecialToken": {
          "id": "<s>",
          "type_id": 0
        }
      },
      {
        "Sequence": {
          "id": "A",
          "type_id": 0
        }
      }
    ],
    "pair": [
      {
        "SpecialToken": {
          "id": "<s>",
          "type_id": 0
        }
      },
      {
        "Sequence": {
          "id": "A",
          "type_id": 0
        }
      },
      {
        "SpecialToken": {
          "id": "<s>",
          "type_id": 1
        }
      },
      {
        "Sequence": {
          "id": "B",
          "type_id": 1
        }
      }
    ],
    "special_tokens": {
      "<s>": {
        "id": "<s>",
        "ids": [
          1
        ],
        "tokens": [
          "<s>"
        ]
      }
    }
  },
  "decoder": {
    "type": "ByteLevel",
    "add_prefix_space": true,
    "trim_offsets": true,
    "use_regex": true
  },
  "model": {
    "type": "BPE",
    "dropout": null,
    "unk_token": "<unk>",
    "continuing_subword_prefix": null,
    "end_of_word_suffix": null,
    "fuse_unk": false,
    "byte_fallback": false,
    "ignore_merges": false,
    "vocab": {
      "<unk>": 0,
      "<s>": 1,
      "</s>": 2,
      "<pad>": 3,
      "\u0002": 4,
      "\t": 5,
      "\n": 6,
      "!": 7,
      "\"": 8,
      "#": 9,
      "$": 10,
      "%": 11,
      "&": 12,
      "'": 13,
      "(": 14,
      ")": 15,
      "*": 16,
      "+": 17,
      ",": 18,
      "-": 19,
      ".": 20,
      "/": 21,
      "0": 22,
      "1": 23,
      "2": 24,
      "3": 25,
      "4": 26,
      "5": 27,
      "6": 28,
      "7": 29,
      "8": 30,
      "9": 31,
      ":": 32,
      ";": 33,
      "<": 34,
      "=": 35,
      ">": 36,
      "?": 37,
      "@": 38,
      "A": 39,
      "B": 40,
      "C": 41,
      "D": 42,
      "E": 43,
      "F": 44,
      "G": 45,
      "H": 46,
      "I": 47,
      "J": 48,
      "K": 49,
      "L": 50,
      "M": 51,
      "N": 52,
      "O": 53,
      "P": 54,
      "Q": 55,
      "R": 56,
      "S": 57,
      "T": 58,
      "U": 59,
      "V": 60,
      "W": 61,
      "X": 62,
      "Y": 63,
      "Z": 64,
      "[": 65,
      "\\": 66,
      "]": 67,
      "^": 68,
      "_": 69,
      "`": 70,
      "a": 71,
      "b": 72,
      "c": 73,
      "d": 74,
      "e": 75,
      "f": 76,
      "g": 77,
      "h": 78,
      "i": 79,
      "j": 80,
      "k": 81,
      "l": 82,
      "m": 83,
      "n": 84,
      "o": 85,
      "p": 86,
      "q": 87,
      "r": 88,
      "s": 89,
      "t": 90,
      "u": 91,
      "v": 92,
      "w": 93,
      "x": 94,
      "y": 95,
      "z": 96,
      "{": 97,
      "|": 98,
      "}": 99,
      "~": 100,
      "": 101,
      "": 102,
      "": 103,
      "¡": 104,
      "¢": 105,
      "£": 106,
      "¤": 107,
      "¥": 108,
      "§": 109,
      "©": 110,
      "«": 111,
      "¬": 112,
      "­": 113,
      "®": 114,
      "°": 115,
      "±": 116,
      "·": 117,
      "»": 118,
      "¿": 119,
      "Á": 120,
      "Â": 121,
      "Ä": 122,
      "Å": 123,
      "Æ": 124,
      "Ç": 125,
      "È": 126,
      "É": 127,
      "Ë": 128,
      "Í": 129,
      "Ñ": 130,
      "Ò": 131,
      "Ó": 132,
      "Ô": 133,
      "Õ": 134,
      "Ö": 135,
      "×": 136,
      "Ø": 137,
      "Ú": 138,
      "Û": 139,
      "Ü": 140,
      "Ý": 141,
      "ß": 142,
      "à": 143,
      "á": 144,
      "â": 145,
      "ã": 146,
      "ä": 147,
      "å": 148,
      "æ": 149,
      "ç": 150,
      "è": 151,
      "é": 152,
      "ê": 153,
      "ë": 154,
      "í": 155,
      "î": 156,
      "ï": 157,
      "ñ": 158,
      "ò": 159,
      "ó": 160,
      "ô": 161,
      "õ": 162,
      "ö": 163,
      "÷": 164,
      "ø": 165,
      "ú": 166,
      "û": 167,
      "ü": 168,
      "ý": 169,
      "ā": 170,
      "ą": 171,
      "Ć": 172,
      "ć": 173,
      "Ĉ": 174,
      "ĉ": 175,
      "Ċ": 176,
      "ċ": 177,
      "Č": 178,
      "č": 179,
      "đ": 180,
      "ē": 181,
      "Ę": 182,
      "ě": 183,
      "Ĝ": 184,
      "ĝ": 185,
      "Ğ": 186,
      "ğ": 187,
      "ġ": 188,
      "ģ": 189,
      "ī": 190,
      "ĭ": 191,
      "İ": 192,
      "ı": 193,
      "Ĵ": 194,
      "ĵ": 195,
      "ł": 196,
      "ń": 197,
      "Ň": 198,
      "ň": 199,
      "ŋ": 200,
      "Ō": 201,
      "ō": 202,
      "Ŏ": 203,
      "ŏ": 204,
      "ŕ": 205,
      "ř": 206,
      "Ś": 207,
      "ś": 208,
      "Ŝ": 209,
      "ŝ": 210,
      "Ş": 211,
      "ş": 212,
      "Š": 213,
      "š": 214,
      "ū": 215,
      "Ŭ": 216,
      "ŭ": 217,
      "ż": 218,
      "Ž": 219,
      "ž": 220,
      "Ə": 221,
      "Ǒ": 222,
      "ǒ": 223,
      "Ǧ": 224,
      "ǧ": 225,
      "Ǵ": 226,
      "ǵ": 227,
      "Ș": 228,
      "ș": 229,
      "Ț": 230,
      "Ƞ": 231,
      "Ɉ": 232,
      "ɉ": 233,
      "ɑ": 234,
      "ɒ": 235,
      "ə": 236,
      "ɜ": 237,
      "ɢ": 238,
      "ɨ": 239,
      "ʏ": 240,
      "ʹ": 241,
      "ʻ": 242,
      "ʼ": 243,
      "ʾ": 244,
      "˅": 245,
      "˗": 246,
      "́": 247,
      "̃": 248,
      "̄": 249,
      "̊": 250,
      "̓": 251,
      "̤": 252,
      "̧": 253,
      "̶": 254,
      "̸": 255,
      "͘": 256,
      "͡": 257,
      "ͦ": 258,
      "ΐ": 259,
      "Α": 260,
      "Δ": 261,
      "Ε": 262,
      "Θ": 263,
      "Ι": 264,
      "Λ": 265,
      "Σ": 266,
      "Τ": 267,
      "ά": 268,
      "ί": 269,
      "α": 270,
      "β": 271,
      "γ": 272,
      "δ": 273,
      "ε": 274,
      "η": 275,
      "θ": 276,
      "ι": 277,
      "κ": 278,
      "λ": 279,
      "μ": 280,
      "ν": 281,
      "ο": 282,
      "π": 283,
      "ρ": 284,
      "ς": 285,
      "σ": 286,
      "τ": 287,
      "υ": 288,
      "φ": 289,
      "Ё": 290,
      "Є": 291,
      "І": 292,
      "Ј": 293,
      "Ў": 294,
      "А": 295,
      "Б": 296,
      "В": 297,
      "Г": 298,
      "Д": 299,
      "Е": 300,
      "Ж": 301,
      "З": 302,
      "И": 303,
      "Й": 304,
      "К": 305,
      "Л": 306,
      "М": 307,
      "Н": 308,
      "О": 309,
      "П": 310,
      "Р": 311,
      "С": 312,
      "Т": 313,
      "У": 314,
      "Ф": 315,
      "Х": 316,
      "Ц": 317,
      "Ч": 318,
      "Ш": 319,
      "Щ": 320,
      "Ы": 321,
      "Ь": 322,
      "Э": 323,
      "Ю": 324,
      "Я": 325,
      "а": 326,
      "б": 327,
      "в": 328,
      "г": 329,
      "д": 330,
      "е": 331,
      "ж": 332,
      "з": 333,
      "и": 334,
      "й": 335,
      "к": 336,
      "л": 337,
      "м": 338,
      "н": 339,
      "о": 340,
      "п": 341,
      "р": 342,
      "с": 343,
      "т": 344,
      "у": 345,
      "ф": 346,
      "х": 347,
      "ц": 348,
      "ч": 349,
      "ш": 350,
      "щ": 351,
      "ъ": 352,
      "ы": 353,
      "ь": 354,
      "э": 355,
      "ю": 356,
      "я": 357,
      "ѐ": 358,
      "ё": 359,
      "ѓ": 360,
      "є": 361,
      "і": 362,
      "ї": 363,
      "ј": 364,
      "ќ": 365,
      "ў": 366,
      "ґ": 367,
      "Ғ": 368,
      "ғ": 369,
      "Җ": 370,
      "Қ": 371,
      "қ": 372,
      "Ң": 373,
      "ң": 374,
      "ҫ": 375,
      "Ү": 376,
      "ү": 377,
      "Ұ": 378,
      "ұ": 379,
      "Ҳ": 380,
      "ҳ": 381,
      "Ҷ": 382,
      "һ": 383,
      "ӈ": 384,
      "ӊ": 385,
      "Ә": 386,
      "ә": 387,
      "ӣ": 388,
      "Ө": 389,
      "ө": 390,
      "Ӯ": 391,
      "ӯ": 392,
      "ӽ": 393,
      "Բ": 394,
      "Ձ": 395,
      "ա": 396,
      "ե": 397,
      "ի": 398,
      "խ": 399,
      "կ": 400,
      "մ": 401,
      "ն": 402,
      "ո": 403,
      "տ": 404,
      "ր": 405,
      "֏": 406,
      "֥": 407,
      "ְ": 408,
      "ֲ": 409,
      "ֹ": 410,
      "ֺ": 411,
      "א": 412,
      "ב": 413,
      "ג": 414,
      "ד": 415,
      "ה": 416,
      "ו": 417,
      "ז": 418,
      "ח": 419,
      "ט": 420,
      "י": 421,
      "ך": 422,
      "כ": 423,
      "ל": 424,
      "ם": 425,
      "מ": 426,
      "ן": 427,
      "נ": 428,
      "ס": 429,
      "ע": 430,
      "ף": 431,
      "פ": 432,
      "ץ": 433,
      "צ": 434,
      "ק": 435,
      "ר": 436,
      "ש": 437,
      "ת": 438,
      "״": 439,
      "،": 440,
      "ؘ": 441,
      "؟": 442,
      "ء": 443,
      "آ": 444,
      "أ": 445,
      "ؤ": 446,
      "إ": 447,
      "ئ": 448,
      "ا": 449,
      "ب": 450,
      "ة": 451,
      "ت": 452,
      "ث": 453,
      "ج": 454,
      "ح": 455,
      "خ": 456,
      "د": 457,
      "ذ": 458,
      "ر": 459,
      "ز": 460,
      "س": 461,
      "ش": 462,
      "ص": 463,
      "ض": 464,
      "ط": 465,
      "ظ": 466,
      "ع": 467,
      "غ": 468,
      "ـ": 469,
      "ف": 470,
      "ق": 471,
      "ك": 472,
      "ل": 473,
      "م": 474,
      "ن": 475,
      "ه": 476,
      "و": 477,
      "ى": 478,
      "ي": 479,
      "ً": 480,
      "ٌ": 481,
      "ٍ": 482,
      "َ": 483,
      "ُ": 484,
      "ِ": 485,
      "ّ": 486,
      "ْ": 487,
      "ٓ": 488,
      "٠": 489,
      "١": 490,
      "٢": 491,
      "٥": 492,
      "٦": 493,
      "٧": 494,
      "٨": 495,
      "٩": 496,
      "ٰ": 497,
      "ٱ": 498,
      "پ": 499,
      "چ": 500,
      "ڤ": 501,
      "ک": 502,
      "گ": 503,
      "ۀ": 504,
      "ی": 505,
      "ې": 506,
      "ۖ": 507,
      "۝": 508,
      "ۡ": 509,
      "۱": 510,
      "ॐ": 511,
      "ন": 512,
      "ব": 513,
      "র": 514,
      "া": 515,
      "ি": 516,
      "ু": 517,
      "ં": 518,
      "જ": 519,
      "ત": 520,
      "ન": 521,
      "મ": 522,
      "વ": 523,
      "ા": 524,
      "ો": 525,
      "ก": 526,
      "ค": 527,
      "ง": 528,
      "ช": 529,
      "ด": 530,
      "ต": 531,
      "ธ": 532,
      "น": 533,
      "ย": 534,
      "ร": 535,
      "ล": 536,
      "ว": 537,
      "ส": 538,
      "า": 539,
      "ิ": 540,
      "ี": 541,
      "เ": 542,
      "โ": 543,
      "ใ": 544,
      "่": 545,
      "้": 546,
      "ვ": 547,
      "ლ": 548,
      "Ꭿ": 549,
      "Ꮋ": 550,
      "Ḡ": 551,
      "ḡ": 552,
      "ḥ": 553,
      "ḱ": 554,
      "ḷ": 555,
      "Ṡ": 556,
      "ṡ": 557,
      "Ṣ": 558,
      "ṣ": 559,
      "ἄ": 560,
      "​": 561,
      "‌": 562,
      "‍": 563,
      "‎": 564,
      "‏": 565,
      "‐": 566,
      "‒": 567,
      "–": 568,
      "—": 569,
      "―": 570,
      "‘": 571,
      "’": 572,
      "‚": 573,
      "‛": 574,
      "“": 575,
      "”": 576,
      "„": 577,
      "•": 578,
      " ": 579,
      "‪": 580,
      "‬": 581,
      "′": 582,
      "⁃": 583,
      "⁄": 584,
      "⁠": 585,
      "⁦": 586,
      "⁩": 587,
      "€": 588,
      "₴": 589,
      "₸": 590,
      "₼": 591,
      "₽": 592,
      "⃣": 593,
      "↑": 594,
      "→": 595,
      "↓": 596,
      "∆": 597,
      "∑": 598,
      "−": 599,
      "∙": 600,
      "√": 601,
      "∼": 602,
      "≈": 603,
      "≤": 604,
      "≥": 605,
      "⊆": 606,
      "⋅": 607,
      "⏰": 608,
      "─": 609,
      "│": 610,
      "┃": 611,
      "═": 612,
      "▁": 613,
      "■": 614,
      "□": 615,
      "▪": 616,
      "▫": 617,
      "▶": 618,
      "►": 619,
      "◉": 620,
      "◎": 621,
      "●": 622,
      "◾": 623,
      "☀": 624,
      "☄": 625,
      "☎": 626,
      "☑": 627,
      "☝": 628,
      "☺": 629,
      "♀": 630,
      "♂": 631,
      "♦": 632,
      "♪": 633,
      "♫": 634,
      "⚒": 635,
      "⚓": 636,
      "⚕": 637,
      "⚜": 638,
      "⚠": 639,
      "⚡": 640,
      "⚪": 641,
      "⚫": 642,
      "⚽": 643,
      "⛔": 644,
      "✅": 645,
      "✈": 646,
      "✉": 647,
      "✊": 648,
      "✋": 649,
      "✌": 650,
      "✍": 651,
      "✓": 652,
      "✔": 653,
      "✨": 654,
      "❄": 655,
      "❌": 656,
      "❓": 657,
      "❗": 658,
      "❤": 659,
      "➕": 660,
      "➖": 661,
      "➡": 662,
      "➥": 663,
      "⟨": 664,
      "⠀": 665,
      "⤵": 666,
      "⦁": 667,
      "⬇": 668,
      "⭐": 669,
      "、": 670,
      "。": 671,
      "《": 672,
      "》": 673,
      "「": 674,
      "」": 675,
      "【": 676,
      "】": 677,
      "〰": 678,
      "い": 679,
      "う": 680,
      "え": 681,
      "お": 682,
      "か": 683,
      "が": 684,
      "ぎ": 685,
      "く": 686,
      "け": 687,
      "こ": 688,
      "さ": 689,
      "し": 690,
      "じ": 691,
      "す": 692,
      "せ": 693,
      "そ": 694,
      "た": 695,
      "だ": 696,
      "っ": 697,
      "て": 698,
      "で": 699,
      "と": 700,
      "ど": 701,
      "な": 702,
      "に": 703,
      "の": 704,
      "は": 705,
      "ひ": 706,
      "ま": 707,
      "み": 708,
      "め": 709,
      "も": 710,
      "や": 711,
      "よ": 712,
      "ら": 713,
      "り": 714,
      "る": 715,
      "れ": 716,
      "を": 717,
      "ん": 718,
      "ァ": 719,
      "ア": 720,
      "ィ": 721,
      "イ": 722,
      "ェ": 723,
      "ォ": 724,
      "オ": 725,
      "カ": 726,
      "ク": 727,
      "ゴ": 728,
      "サ": 729,
      "シ": 730,
      "ス": 731,
      "セ": 732,
      "ソ": 733,
      "タ": 734,
      "ダ": 735,
      "チ": 736,
      "ッ": 737,
      "ツ": 738,
      "テ": 739,
      "ト": 740,
      "ド": 741,
      "ナ": 742,
      "フ": 743,
      "プ": 744,
      "モ": 745,
      "ヤ": 746,
      "ョ": 747,
      "ラ": 748,
      "リ": 749,
      "ル": 750,
      "レ": 751,
      "ロ": 752,
      "ン": 753,
      "ヴ": 754,
      "・": 755,
      "ー": 756,
      "一": 757,
      "万": 758,
      "上": 759,
      "下": 760,
      "不": 761,
      "中": 762,
      "为": 763,
      "书": 764,
      "了": 765,
      "事": 766,
      "云": 767,
      "亡": 768,
      "交": 769,
      "人": 770,
      "今": 771,
      "代": 772,
      "会": 773,
      "位": 774,
      "余": 775,
      "作": 776,
      "像": 777,
      "僕": 778,
      "億": 779,
      "先": 780,
      "全": 781,
      "公": 782,
      "内": 783,
      "円": 784,
      "再": 785,
      "军": 786,
      "出": 787,
      "分": 788,
      "刘": 789,
      "初": 790,
      "制": 791,
      "前": 792,
      "剛": 793,
      "化": 794,
      "北": 795,
      "午": 796,
      "半": 797,
      "南": 798,
      "原": 799,
      "友": 800,
      "发": 801,
      "受": 802,
      "口": 803,
      "另": 804,
      "台": 805,
      "囲": 806,
      "国": 807,
      "在": 808,
      "地": 809,
      "场": 810,
      "坚": 811,
      "城": 812,
      "基": 813,
      "境": 814,
      "墙": 815,
      "外": 816,
      "大": 817,
      "委": 818,
      "子": 819,
      "字": 820,
      "孝": 821,
      "宅": 822,
      "完": 823,
      "官": 824,
      "害": 825,
      "家": 826,
      "寓": 827,
      "専": 828,
      "少": 829,
      "层": 830,
      "工": 831,
      "已": 832,
      "币": 833,
      "市": 834,
      "平": 835,
      "年": 836,
      "广": 837,
      "広": 838,
      "庄": 839,
      "府": 840,
      "度": 841,
      "建": 842,
      "当": 843,
      "思": 844,
      "感": 845,
      "成": 846,
      "手": 847,
      "斯": 848,
      "新": 849,
      "方": 850,
      "旗": 851,
      "日": 852,
      "时": 853,
      "明": 854,
      "星": 855,
      "春": 856,
      "時": 857,
      "晓": 858,
      "月": 859,
      "期": 860,
      "木": 861,
      "本": 862,
      "李": 863,
      "村": 864,
      "杰": 865,
      "東": 866,
      "柴": 867,
      "格": 868,
      "楼": 869,
      "樓": 870,
      "次": 871,
      "止": 872,
      "正": 873,
      "死": 874,
      "民": 875,
      "流": 876,
      "海": 877,
      "測": 878,
      "港": 879,
      "澤": 880,
      "火": 881,
      "炸": 882,
      "爆": 883,
      "爷": 884,
      "特": 885,
      "玉": 886,
      "环": 887,
      "现": 888,
      "現": 889,
      "球": 890,
      "用": 891,
      "甸": 892,
      "的": 893,
      "目": 894,
      "直": 895,
      "知": 896,
      "石": 897,
      "砖": 898,
      "社": 899,
      "程": 900,
      "突": 901,
      "立": 902,
      "範": 903,
      "紛": 904,
      "红": 905,
      "缅": 906,
      "群": 907,
      "考": 908,
      "英": 909,
      "获": 910,
      "落": 911,
      "蕪": 912,
      "行": 913,
      "被": 914,
      "西": 915,
      "見": 916,
      "観": 917,
      "解": 918,
      "记": 919,
      "赵": 920,
      "越": 921,
      "転": 922,
      "輝": 923,
      "转": 924,
      "边": 925,
      "达": 926,
      "近": 927,
      "连": 928,
      "逃": 929,
      "速": 930,
      "造": 931,
      "違": 932,
      "遗": 933,
      "選": 934,
      "部": 935,
      "里": 936,
      "金": 937,
      "鉦": 938,
      "长": 939,
      "防": 940,
      "隔": 941,
      "電": 942,
      "震": 943,
      "韩": 944,
      "香": 945,
      "験": 946,
      "马": 947,
      "骸": 948,
      "高": 949,
      "黄": 950,
      "ꞌ": 951,
      "가": 952,
      "광": 953,
      "구": 954,
      "국": 955,
      "기": 956,
      "김": 957,
      "니": 958,
      "다": 959,
      "대": 960,
      "동": 961,
      "레": 962,
      "로": 963,
      "를": 964,
      "리": 965,
      "마": 966,
      "백": 967,
      "벡": 968,
      "봉": 969,
      "사": 970,
      "산": 971,
      "슐": 972,
      "시": 973,
      "식": 974,
      "심": 975,
      "쓰": 976,
      "아": 977,
      "역": 978,
      "영": 979,
      "우": 980,
      "은": 981,
      "입": 982,
      "재": 983,
      "정": 984,
      "주": 985,
      "즈": 986,
      "진": 987,
      "토": 988,
      "투": 989,
      "표": 990,
      "프": 991,
      "합": 992,
      "행": 993,
      "화": 994,
      "": 995,
      "": 996,
      "": 997,
      "": 998,
      "": 999,
      "︎": 1000,
      "️": 1001,
      "﻿": 1002,
      "�": 1003,
      "la": 1004,
      "sh": 1005,
      "da": 1006,
      "ni": 1007,
      "ri": 1008,
      "ga": 1009,
      "li": 1010,
      "▁b": 1011,
      "o‘": 1012,
      "ti": 1013,
      "▁t": 1014,
      "ma": 1015,
      "si": 1016,
      "di": 1017,
      "ch": 1018,
      "lar": 1019,
      "ar": 1020,
      "▁k": 1021,
      "▁q": 1022,
      "ng": 1023,
      "ya": 1024,
      "gan": 1025,
      "on": 1026,
      "va": 1027,
      "or": 1028,
      "lari": 1029,
      "▁h": 1030,
      "ning": 1031,
      "▁va": 1032,
      "gi": 1033,
      "il": 1034,
      "at": 1035,
      "▁y": 1036,
      "shi": 1037,
      "▁s": 1038,
      "▁o": 1039,
      "▁m": 1040,
      "ra": 1041,
      "▁ta": 1042,
      "▁a": 1043,
      "▁i": 1044,
      "ta": 1045,
      "▁e": 1046,
      "▁ma": 1047,
      "chi": 1048,
      "▁u": 1049,
      "ki": 1050,
      "zi": 1051,
      "dan": 1052,
      "mi": 1053,
      "di.": 1054,
      "lan": 1055,
      "lik": 1056,
      "mo": 1057,
      "un": 1058,
      "▁o‘": 1059,
      "▁bi": 1060,
      "na": 1061,
      "sa": 1062,
      "ka": 1063,
      "▁bo‘": 1064,
      "g‘": 1065,
      "st": 1066,
      "▁ha": 1067,
      "cha": 1068,
      "er": 1069,
      "▁x": 1070,
      "lo": 1071,
      "yi": 1072,
      "▁bo": 1073,
      "de": 1074,
      "▁j": 1075,
      "▁qi": 1076,
      "ur": 1077,
      "qi": 1078,
      "yo": 1079,
      "▁mu": 1080,
      "▁f": 1081,
      "dagi": 1082,
      "▁sh": 1083,
      "rish": 1084,
      "qa": 1085,
      "lgan": 1086,
      "lash": 1087,
      "ro": 1088,
      "bi": 1089,
      ".\n": 1090,
      "vo": 1091,
      "▁ke": 1092,
      "asi": 1093,
      "▁da": 1094,
      "no": 1095,
      "▁p": 1096,
      "▁ko‘": 1097,
      "uv": 1098,
      "▁1": 1099,
      "▁O": 1100,
      "an": 1101,
      "ston": 1102,
      "en": 1103,
      "ligi": 1104,
      "▁M": 1105,
      "di.\n": 1106,
      "siya": 1107,
      "▁2": 1108,
      "▁B": 1109,
      "▁ish": 1110,
      "▁S": 1111,
      "ay": 1112,
      "▁bilan": 1113,
      "be": 1114,
      "so": 1115,
      "▁A": 1116,
      "▁qili": 1117,
      "▁“": 1118,
      "re": 1119,
      "ab": 1120,
      "▁be": 1121,
      "▁uch": 1122,
      "▁tu": 1123,
      "▁ham": 1124,
      "▁ya": 1125,
      "al": 1126,
      "ol": 1127,
      "zbe": 1128,
      "lab": 1129,
      "larni": 1130,
      "kiston": 1131,
      "▁to": 1132,
      "▁R": 1133,
      "▁so": 1134,
      "▁yo": 1135,
      "sp": 1136,
      "ub": 1137,
      "zbekiston": 1138,
      "lat": 1139,
      "▁to‘": 1140,
      "▁bosh": 1141,
      "vi": 1142,
      "ara": 1143,
      "ori": 1144,
      "▁T": 1145,
      "▁uchun": 1146,
      "ot": 1147,
      "▁de": 1148,
      "iz": 1149,
      "‘zbekiston": 1150,
      "ah": 1151,
      "▁hu": 1152,
      "tish": 1153,
      "▁qo‘": 1154,
      "▁(": 1155,
      "▁na": 1156,
      "▁oli": 1157,
      "▁tash": 1158,
      "larini": 1159,
      "oy": 1160,
      "oli": 1161,
      "ul": 1162,
      "\n\n": 1163,
      "ona": 1164,
      "▁ra": 1165,
      "▁bu": 1166,
      "qda": 1167,
      "▁ku": 1168,
      "yat": 1169,
      "▁te": 1170,
      "▁ki": 1171,
      "▁chi": 1172,
      "tgan": 1173,
      "ja": 1174,
      "do": 1175,
      "tib": 1176,
      "lishi": 1177,
      "um": 1178,
      "larning": 1179,
      "gani": 1180,
      "▁sa": 1181,
      "▁O‘zbekiston": 1182,
      "za": 1183,
      "qar": 1184,
      "▁K": 1185,
      "uri": 1186,
      "et": 1187,
      "sida": 1188,
      "tirish": 1189,
      "▁bir": 1190,
      "us": 1191,
      "g‘i": 1192,
      "ublik": 1193,
      "spublik": 1194,
      "▁ja": 1195,
      "larga": 1196,
      "langan": 1197,
      "ek": 1198,
      "zo": 1199,
      "vlat": 1200,
      "ladi": 1201,
      "▁yil": 1202,
      "▁tar": 1203,
      "▁or": 1204,
      "yicha": 1205,
      "▁Re": 1206,
      "▁20": 1207,
      "▁ko": 1208,
      "▁ka": 1209,
      "kin": 1210,
      "▁ch": 1211,
      "▁vazi": 1212,
      "kil": 1213,
      "▁yo‘": 1214,
      "▁hi": 1215,
      "lani": 1216,
      "yati": 1217,
      "ko": 1218,
      "▁U": 1219,
      "ora": 1220,
      "▁Respublik": 1221,
      "▁qil": 1222,
      "moqda": 1223,
      "▁I": 1224,
      "uvchi": 1225,
      "kat": 1226,
      "ba": 1227,
      "miz": 1228,
      "▁bo‘yicha": 1229,
      "fa": 1230,
      "ent": 1231,
      "▁ho": 1232,
      "▁Respublikasi": 1233,
      "▁qar": 1234,
      "ha": 1235,
      "ud": 1236,
      "mat": 1237,
      "▁Q": 1238,
      "fi": 1239,
      "lariga": 1240,
      "▁so‘": 1241,
      "moni": 1242,
      "ngi": 1243,
      "▁o‘z": 1244,
      "▁yu": 1245,
      "lib": 1246,
      "lma": 1247,
      "▁qilish": 1248,
      "rin": 1249,
      "▁P": 1250,
      "lga": 1251,
      "sti": 1252,
      "▁tashkil": 1253,
      "▁eti": 1254,
      "kazi": 1255,
      "▁mi": 1256,
      "larda": 1257,
      "ilo": 1258,
      "▁o‘t": 1259,
      "mp": 1260,
      "▁in": 1261,
      "rib": 1262,
      "osh": 1263,
      "▁3": 1264,
      "▁davlat": 1265,
      "▁ay": 1266,
      "▁bo‘lgan": 1267,
      "masi": 1268,
      "▁N": 1269,
      "bu": 1270,
      "ev": 1271,
      "iy": 1272,
      "▁fa": 1273,
      "▁—": 1274,
      "yil": 1275,
      "▁oshi": 1276,
      "▁Bu": 1277,
      "▁ama": 1278,
      "▁ti": 1279,
      "▁D": 1280,
      "▁ta’": 1281,
      "▁ber": 1282,
      "▁d": 1283,
      "▁re": 1284,
      "▁n": 1285,
      "▁Y": 1286,
      "kor": 1287,
      "▁si": 1288,
      "g‘ri": 1289,
      "to": 1290,
      "lu": 1291,
      "dda": 1292,
      "▁«": 1293,
      "▁\n": 1294,
      "▁sha": 1295,
      "lish": 1296,
      "ldi": 1297,
      "▁qo": 1298,
      "man": 1299,
      ";\n": 1300,
      "os": 1301,
      "▁hiso": 1302,
      "▁g": 1303,
      "hi": 1304,
      "▁tomoni": 1305,
      "lov": 1306,
      "abar": 1307,
      "Sh": 1308,
      "liy": 1309,
      "▁shu": 1310,
      "den": 1311,
      "ut": 1312,
      "▁tomonidan": 1313,
      "▁v": 1314,
      "rilgan": 1315,
      "bat": 1316,
      "ov": 1317,
      "▁to‘g‘ri": 1318,
      "dir": 1319,
      "ir": 1320,
      "ort": 1321,
      "qaro": 1322,
      "tida": 1323,
      "▁o‘r": 1324,
      "yotgan": 1325,
      "▁xabar": 1326,
      "niya": 1327,
      "liq": 1328,
      "yin": 1329,
      "dim": 1330,
      "miy": 1331,
      "xs": 1332,
      "▁J": 1333,
      "ladi.": 1334,
      "▁xiz": 1335,
      "dek": 1336,
      "▁ko‘r": 1337,
      "▁F": 1338,
      "▁no": 1339,
      "-yil": 1340,
      "▁haqi": 1341,
      "zar": 1342,
      "▁qay": 1343,
      "ziden": 1344,
      "▁X": 1345,
      "▁shah": 1346,
      "▁aso": 1347,
      "▁ba": 1348,
      "00": 1349,
      "yot": 1350,
      "larining": 1351,
      "siz": 1352,
      "reziden": 1353,
      "▁Sh": 1354,
      "▁hamda": 1355,
      "▁ma’": 1356,
      "▁boshqa": 1357,
      "▁H": 1358,
      "▁V": 1359,
      "bo": 1360,
      "le": 1361,
      "gar": 1362,
      "▁mum": 1363,
      "▁qa": 1364,
      "▁mumkin": 1365,
      "▁qilin": 1366,
      "mon": 1367,
      "▁av": 1368,
      "▁kuni": 1369,
      "▁5": 1370,
      "ekt": 1371,
      "larida": 1372,
      "biy": 1373,
      "lana": 1374,
      "▁4": 1375,
      "▁vazir": 1376,
      "di,": 1377,
      "▁hisob": 1378,
      "▁Ma": 1379,
      "roq": 1380,
      "jat": 1381,
      "▁amalga": 1382,
      "gan.": 1383,
      "ladi.\n": 1384,
      "dor": 1385,
      "mati": 1386,
      "lgi": 1387,
      "lay": 1388,
      "▁lo": 1389,
      "▁vilo": 1390,
      "▁me": 1391,
      "tilgan": 1392,
      "lim": 1393,
      "▁mah": 1394,
      "▁G": 1395,
      "uq": 1396,
      "▁mar": 1397,
      "te": 1398,
      "rak": 1399,
      "mas": 1400,
      "▁huj": 1401,
      "chilik": 1402,
      "▁etish": 1403,
      "bir": 1404,
      "▁har": 1405,
      "zil": 1406,
      "viy": 1407,
      "▁deb": 1408,
      "tasi": 1409,
      "sin": 1410,
      "as": 1411,
      "oyda": 1412,
      "lar,": 1413,
      "kent": 1414,
      "▁kun": 1415,
      "lardan": 1416,
      "▁bar": 1417,
      "shbu": 1418,
      "▁olib": 1419,
      "20": 1420,
      "▁tur": 1421,
      "diy": 1422,
      "cha,": 1423,
      "xona": 1424,
      "▁–": 1425,
      "av": 1426,
      "du": 1427,
      "ru": 1428,
      "▁xo": 1429,
      "lumo": 1430,
      "▁ni": 1431,
      "orat": 1432,
      "oshkent": 1433,
      "zir": 1434,
      "▁esa": 1435,
      "day": 1436,
      "▁yoki": 1437,
      "▁ji": 1438,
      "▁bor": 1439,
      "▁shar": 1440,
      "mida": 1441,
      "▁bo‘l": 1442,
      "▁ik": 1443,
      "dbir": 1444,
      "▁201": 1445,
      "▁belgi": 1446,
      "ligini": 1447,
      "mu": 1448,
      "▁faoli": 1449,
      "sha": 1450,
      "▁mil": 1451,
      "min": 1452,
      "▁im": 1453,
      "digan": 1454,
      "lumot": 1455,
      "▁foyda": 1456,
      "ningdek": 1457,
      "▁joy": 1458,
      "lum": 1459,
      "ulo": 1460,
      "▁ij": 1461,
      "sta": 1462,
      "qti": 1463,
      "▁E": 1464,
      "siy": 1465,
      "mla": 1466,
      "▁kor": 1467,
      "▁L": 1468,
      "may": 1469,
      "▁yangi": 1470,
      "▁davo": 1471,
      "lashti": 1472,
      "niq": 1473,
      "ran": 1474,
      "▁ko‘p": 1475,
      "son": 1476,
      "yor": 1477,
      "kur": 1478,
      "dar": 1479,
      "▁chiqa": 1480,
      "siyasi": 1481,
      "▁qu": 1482,
      ".\n\n": 1483,
      "di\n\n": 1484,
      "▁et": 1485,
      "▁ishlab": 1486,
      "dam": 1487,
      ":\n": 1488,
      "▁kiri": 1489,
      "onun": 1490,
      "lashtirish": 1491,
      "▁ega": 1492,
      "▁ko‘ra": 1493,
      "▁chiqi": 1494,
      "▁yi": 1495,
      "ril": 1496,
      "▁ri": 1497,
      "▁olish": 1498,
      "asida": 1499,
      "zim": 1500,
      "nga": 1501,
      "lanish": 1502,
      "lari,": 1503,
      "▁hujjat": 1504,
      "▁6": 1505,
      "da,": 1506,
      "▁vazirligi": 1507,
      "▁7": 1508,
      "uqaro": 1509,
      "yu": 1510,
      "▁C": 1511,
      "br": 1512,
      "it": 1513,
      "▁haqida": 1514,
      "▁bo‘lib": 1515,
      "mani": 1516,
      "▁do": 1517,
      "moqda.": 1518,
      "b,": 1519,
      "qat": 1520,
      "▁vo": 1521,
      "▁maq": 1522,
      "▁xizmat": 1523,
      "▁qab": 1524,
      "▁taq": 1525,
      "▁mamla": 1526,
      "▁Toshkent": 1527,
      "▁mo": 1528,
      "▁rah": 1529,
      "▁top": 1530,
      "tiro": 1531,
      "el": 1532,
      "shli": 1533,
      "▁qabul": 1534,
      "▁fuqaro": 1535,
      "lantirish": 1536,
      "▁aniq": 1537,
      "▁ga": 1538,
      "aniya": 1539,
      "es": 1540,
      "sat": 1541,
      "ku": 1542,
      "▁kerak": 1543,
      "am": 1544,
      "▁jamo": 1545,
      "▁o‘tkazi": 1546,
      "rezidenti": 1547,
      "fo": 1548,
      "voj": 1549,
      "▁fo": 1550,
      "giya": 1551,
      "▁shaxs": 1552,
      "far": 1553,
      "▁loyi": 1554,
      "▁rivoj": 1555,
      "▁ye": 1556,
      "▁o`": 1557,
      "▁tas": 1558,
      "sini": 1559,
      "ho": 1560,
      "▁dara": 1561,
      "O‘zbekiston": 1562,
      "▁talab": 1563,
      "▁ban": 1564,
      "kt": 1565,
      "▁o‘zi": 1566,
      "▁ta'": 1567,
      "▁komp": 1568,
      "▁xal": 1569,
      "▁uning": 1570,
      "ladigan": 1571,
      "bor": 1572,
      "▁haqda": 1573,
      "diq": 1574,
      "▁ushbu": 1575,
      "▁vaq": 1576,
      "ningdek,": 1577,
      "laridan": 1578,
      "aro": 1579,
      "▁ming": 1580,
      "▁mamlakat": 1581,
      "▁oshirish": 1582,
      "▁el": 1583,
      "ossiya": 1584,
      "▁eng": 1585,
      "▁hol": 1586,
      "▁ikki": 1587,
      "▁yo‘l": 1588,
      "▁to‘g‘risida": 1589,
      "▁faoliyati": 1590,
      "▁huq": 1591,
      "ji": 1592,
      "▁yet": 1593,
      "▁qat": 1594,
      "sidagi": 1595,
      "gacha": 1596,
      "var": 1597,
      "▁ma'": 1598,
      "layotgan": 1599,
      "▁8": 1600,
      "▁o‘rin": 1601,
      "tini": 1602,
      "om": 1603,
      "ndi": 1604,
      "▁qonun": 1605,
      "fiq": 1606,
      "▁beri": 1607,
      "▁muvo": 1608,
      "▁shahri": 1609,
      "noma": 1610,
      "QSh": 1611,
      "▁r": 1612,
      "▁zar": 1613,
      "gan.\n": 1614,
      "▁su": 1615,
      "▁oldi": 1616,
      "▁qis": 1617,
      "▁ishtiro": 1618,
      "lanishi": 1619,
      "▁tay": 1620,
      "sa,": 1621,
      "▁muvofiq": 1622,
      "▁sab": 1623,
      "▁il": 1624,
      "▁viloyati": 1625,
      "ron": 1626,
      "▁tayyor": 1627,
      "▁maqsa": 1628,
      "eri": 1629,
      "),": 1630,
      "xi": 1631,
      "zkur": 1632,
      "”,": 1633,
      "▁ko‘ra,": 1634,
      "zasi": 1635,
      "▁mav": 1636,
      "▁man": 1637,
      "qin": 1638,
      "▁qaror": 1639,
      "siga": 1640,
      "▁yana": 1641,
      "mar": 1642,
      "▁chora": 1643,
      "rinchi": 1644,
      "▁masa": 1645,
      "moq": 1646,
      "▁shart": 1647,
      "xbor": 1648,
      "kta": 1649,
      "▁chiq": 1650,
      "pi": 1651,
      "▁berish": 1652,
      "▁avto": 1653,
      "▁barcha": 1654,
      "▁ah": 1655,
      "▁hara": 1656,
      "▁milli": 1657,
      "tir": 1658,
      "ari": 1659,
      "▁dol": 1660,
      "atsiya": 1661,
      "kli": 1662,
      "▁qarshi": 1663,
      "▁boshqar": 1664,
      "▁shahar": 1665,
      "ulot": 1666,
      "tin": 1667,
      "sining": 1668,
      "▁orqa": 1669,
      "▁holat": 1670,
      "▁maj": 1671,
      "▁yor": 1672,
      "xborot": 1673,
      "til": 1674,
      "niy": 1675,
      "▁mudda": 1676,
      "▁di": 1677,
      "▁fi": 1678,
      "gu": 1679,
      "Ma": 1680,
      "▁o‘tka": 1681,
      "▁say": 1682,
      "▁pro": 1683,
      "▁Da": 1684,
      "▁qo‘l": 1685,
      "▁hoki": 1686,
      "▁tashkilot": 1687,
      "vir": 1688,
      "▁9": 1689,
      "korlik": 1690,
      "di.\n\n": 1691,
      "▁tadbir": 1692,
      "zimi": 1693,
      "▁pa": 1694,
      "▁organ": 1695,
      "▁dast": 1696,
      "rash": 1697,
      "qtiso": 1698,
      "vat": 1699,
      "▁ko‘rsa": 1700,
      "▁tex": 1701,
      "▁10": 1702,
      "ngiz": 1703,
      "▁masala": 1704,
      "▁19": 1705,
      "▁tasdiq": 1706,
      "▁kel": 1707,
      "undan": 1708,
      "mol": 1709,
      "▁yer": 1710,
      "▁saq": 1711,
      "▁Rossiya": 1712,
      "lashi": 1713,
      "▁Va": 1714,
      "dida": 1715,
      "▁kishi": 1716,
      "stit": 1717,
      "▁tan": 1718,
      "ve": 1719,
      "▁quri": 1720,
      "o‘y": 1721,
      "▁sabab": 1722,
      "▁qo‘shi": 1723,
      "▁nafar": 1724,
      "▁ta’min": 1725,
      "bol": 1726,
      "sport": 1727,
      "▁bo`": 1728,
      "▁xodim": 1729,
      "▁orqali": 1730,
      "uro": 1731,
      "san": 1732,
      "▁qayta": 1733,
      "oliya": 1734,
      "nat": 1735,
      "unday": 1736,
      "oriy": 1737,
      "▁alo": 1738,
      "▁AQSh": 1739,
      "lovchi": 1740,
      "port": 1741,
      "▁ras": 1742,
      "▁qan": 1743,
      "▁so‘z": 1744,
      "▁nati": 1745,
      "▁uni": 1746,
      "▁bo‘lishi": 1747,
      "▁ma’lumot": 1748,
      "po": 1749,
      "tda": 1750,
      "timo": 1751,
      "▁yo‘q": 1752,
      "yidagi": 1753,
      "▁doi": 1754,
      "▁mun": 1755,
      "▁xav": 1756,
      "don": 1757,
      "▁uy": 1758,
      "O‘": 1759,
      "▁mahs": 1760,
      "rilishi": 1761,
      "▁tartib": 1762,
      "tiga": 1763,
      "rat": 1764,
      "▁oy": 1765,
      "rezident": 1766,
      "g`": 1767,
      "▁olin": 1768,
      "▁birinchi": 1769,
      "loq": 1770,
      "▁yuri": 1771,
      "o‘ja": 1772,
      "lon": 1773,
      "▁ol": 1774,
      "uvi": 1775,
      "▁buy": 1776,
      "▁Sa": 1777,
      "▁tumani": 1778,
      "val": 1779,
      "quv": 1780,
      "in": 1781,
      "▁xizmati": 1782,
      "▁may": 1783,
      "▁ko‘rsat": 1784,
      "▁tegi": 1785,
      "bla": 1786,
      "-mo": 1787,
      "mir": 1788,
      "▁Shu": 1789,
      "▁shi": 1790,
      "▁rivojlantirish": 1791,
      "▁so‘m": 1792,
      "oni": 1793,
      "▁qilingan": 1794,
      "▁che": 1795,
      "▁tush": 1796,
      "▁bo‘lma": 1797,
      "kid": 1798,
      "▁axborot": 1799,
      "bari": 1800,
      "▁nar": 1801,
      "▁kompaniya": 1802,
      "nishi": 1803,
      "▁ter": 1804,
      "xta": 1805,
      "▁aholi": 1806,
      "▁ishtirok": 1807,
      "xshi": 1808,
      "▁za": 1809,
      "ey": 1810,
      "moqda.\n": 1811,
      "▁bera": 1812,
      "▁foiz": 1813,
      "ganini": 1814,
      "xon": 1815,
      "liya": 1816,
      "▁meh": 1817,
      "▁vosi": 1818,
      "virus": 1819,
      "lin": 1820,
      "▁ak": 1821,
      "▁e’": 1822,
      "▁g‘": 1823,
      "▁ularning": 1824,
      "▁mahsulot": 1825,
      "▁olgan": 1826,
      "pa": 1827,
      "▁tegishli": 1828,
      "▁viloyat": 1829,
      "uz": 1830,
      "▁so‘ng": 1831,
      "▁etilgan": 1832,
      "ter": 1833,
      "▁naz": 1834,
      "▁hudu": 1835,
      "▁emas": 1836,
      "▁yosh": 1837,
      "▁harakat": 1838,
      "▁bil": 1839,
      "g‘liq": 1840,
      "bar": 1841,
      "▁ek": 1842,
      "▁belgilangan": 1843,
      "▁rahbari": 1844,
      "rishi": 1845,
      "▁qara": 1846,
      "▁loyiha": 1847,
      "▁xavf": 1848,
      "▁mabla": 1849,
      "koni": 1850,
      "▁O‘": 1851,
      "-modda": 1852,
      "▁to‘g‘risidagi": 1853,
      "▁yaxshi": 1854,
      "sal": 1855,
      "nali": 1856,
      "▁xo‘ja": 1857,
      "▁miq": 1858,
      "▁ne": 1859,
      "▁kon": 1860,
      "o‘yx": 1861,
      "▁ishlar": 1862,
      "utbol": 1863,
      "▁takli": 1864,
      "hasi": 1865,
      "bil": 1866,
      "logiya": 1867,
      "▁elekt": 1868,
      "▁biri": 1869,
      "▁pay": 1870,
      "vob": 1871,
      "▁holda": 1872,
      "▁oi": 1873,
      "▁rasmiy": 1874,
      "qan": 1875,
      "▁daraja": 1876,
      "▁biz": 1877,
      "kan": 1878,
      "mcha": 1879,
      "rim": 1880,
      "▁Ya": 1881,
      "mpi": 1882,
      "▁Mah": 1883,
      "tibi": 1884,
      "▁sifa": 1885,
      "▁tez": 1886,
      "▁sud": 1887,
      "▁etgan": 1888,
      "uru": 1889,
      "likda": 1890,
      "▁tizimi": 1891,
      "hat": 1892,
      "tax": 1893,
      "▁taqdim": 1894,
      "▁muas": 1895,
      "yish": 1896,
      "▁bah": 1897,
      "usu": 1898,
      "-son": 1899,
      "tishi": 1900,
      "dik": 1901,
      "▁chiqarish": 1902,
      "▁muno": 1903,
      "nida": 1904,
      "▁qilgan": 1905,
      "▁keyin": 1906,
      "▁ma’lum": 1907,
      "▁Vazir": 1908,
      "▁javob": 1909,
      "timoiy": 1910,
      "▁o‘ta": 1911,
      "▁aj": 1912,
      "▁qarori": 1913,
      "▁is": 1914,
      "sasa": 1915,
      "tiq": 1916,
      "▁joriy": 1917,
      "▁xalqaro": 1918,
      "atta": 1919,
      "ver": 1920,
      "shda": 1921,
      "▁quyidagi": 1922,
      "zm": 1923,
      "▁markazi": 1924,
      "noyat": 1925,
      "▁yuq": 1926,
      "▁eta": 1927,
      "▁muassasa": 1928,
      "▁o‘rta": 1929,
      "▁tuman": 1930,
      "▁qol": 1931,
      "jon": 1932,
      "magan": 1933,
      "▁-": 1934,
      "▁imkoni": 1935,
      "-ta": 1936,
      "▁davomida": 1937,
      "▁Na": 1938,
      "▁muho": 1939,
      "▁Davlat": 1940,
      "nal": 1941,
      "▁mas": 1942,
      "moya": 1943,
      "Bu": 1944,
      "▁mumkin.": 1945,
      "uqi": 1946,
      "liklar": 1947,
      "▁birga": 1948,
      "▁mablag‘": 1949,
      "▁mahal": 1950,
      "▁million": 1951,
      "▁bola": 1952,
      "▁cha": 1953,
      "▁hud": 1954,
      "kamasi": 1955,
      "▁foydalanish": 1956,
      "▁hudud": 1957,
      "riya": 1958,
      "vdo": 1959,
      "ki,": 1960,
      "▁15": 1961,
      "▁ichi": 1962,
      "▁Ch": 1963,
      "▁sta": 1964,
      "chisi": 1965,
      "▁yordam": 1966,
      "▁vosita": 1967,
      "▁ro‘yx": 1968,
      "qari": 1969,
      "onavirus": 1970,
      "▁at": 1971,
      "▁par": 1972,
      "zilgan": 1973,
      "▁futbol": 1974,
      "uriy": 1975,
      "▁tashqari": 1976,
      "▁savdo": 1977,
      "go": 1978,
      "▁qo‘mi": 1979,
      "xsus": 1980,
      "▁Ta": 1981,
      "▁qanday": 1982,
      "▁guru": 1983,
      "unyo": 1984,
      "▁kuch": 1985,
      "▁yuqori": 1986,
      "▁taklif": 1987,
      "dan,": 1988,
      "rik": 1989,
      "▁Mar": 1990,
      "▁Vazirlar": 1991,
      "▁mat": 1992,
      "▁sport": 1993,
      "▁asosida": 1994,
      "▁iqtiso": 1995,
      "lagan": 1996,
      "▁un": 1997,
      "jud": 1998,
      "▁munosa": 1999,
      "▁vaziri": 2000,
      "▁far": 2001,
      "▁huquq": 2002,
      "▁yara": 2003,
      "▁qayd": 2004,
      "▁katta": 2005,
      "Shu": 2006,
      "zasidan": 2007,
      "▁tib": 2008,
      "ayon": 2009,
      "chki": 2010,
      "▁nis": 2011,
      "▁ta’lim": 2012,
      "qo": 2013,
      "▁yub": 2014,
      "ram": 2015,
      "»,": 2016,
      "▁chiqish": 2017,
      "dov": 2018,
      "chilar": 2019,
      "▁soni": 2020,
      "▁harbiy": 2021,
      "▁la": 2022,
      "▁kasal": 2023,
      "▁kam": 2024,
      "ktab": 2025,
      "orij": 2026,
      "▁bank": 2027,
      "sari": 2028,
      "yev": 2029,
      "▁o‘yin": 2030,
      "▁o‘tkazish": 2031,
      "▁asosiy": 2032,
      "ilgan": 2033,
      "▁suv": 2034,
      "kun": 2035,
      "▁ijtimoiy": 2036,
      "▁tah": 2037,
      "▁kelib": 2038,
      "▁er": 2039,
      "kl": 2040,
      "▁ml": 2041,
      "mis": 2042,
      "▁nisbat": 2043,
      "▁edi.": 2044,
      "▁yuzasidan": 2045,
      "ura": 2046,
      "evro": 2047,
      "sion": 2048,
      "▁yilda": 2049,
      "gent": 2050,
      "▁ob": 2051,
      "▁Mahkamasi": 2052,
      "▁nisbatan": 2053,
      "ban": 2054,
      "▁qo‘shimcha": 2055,
      "zod": 2056,
      "▁kenga": 2057,
      "▁12": 2058,
      "▁yuk": 2059,
      "▁yaqin": 2060,
      "▁moliya": 2061,
      "▁o‘qi": 2062,
      "▁o‘tgan": 2063,
      "▁Mir": 2064,
      "▁maxsus": 2065,
      "▁nazorat": 2066,
      "nik": 2067,
      "▁prezidenti": 2068,
      "▁himoya": 2069,
      "ziyo": 2070,
      "g‘iston": 2071,
      "▁mavjud": 2072,
      "▁topshi": 2073,
      "▁koronavirus": 2074,
      "▁ular": 2075,
      "▁pul": 2076,
      "-1": 2077,
      "umla": 2078,
      "▁hamkorlik": 2079,
      "▁Sha": 2080,
      "sis": 2081,
      "▁as": 2082,
      "▁dav": 2083,
      "▁shuningdek,": 2084,
      "o‘l": 2085,
      "ati": 2086,
      "▁o‘zgar": 2087,
      "▁Z": 2088,
      "uroja": 2089,
      "kinchi": 2090,
      "limi": 2091,
      "▁qadar": 2092,
      "lam": 2093,
      "dori": 2094,
      "qiq": 2095,
      "▁mazkur": 2096,
      "dit": 2097,
      "▁hisobi": 2098,
      "▁vi": 2099,
      "▁tran": 2100,
      "▁Prezidenti": 2101,
      "201": 2102,
      "lashtirilgan": 2103,
      "mobil": 2104,
      "kaz": 2105,
      "▁200": 2106,
      "▁ro": 2107,
      "▁ko`": 2108,
      "nov": 2109,
      "yap": 2110,
      "▁In": 2111,
      "▁xavfsiz": 2112,
      "▁ju": 2113,
      "▁sifatida": 2114,
      "per": 2115,
      "etr": 2116,
      "sin.\n": 2117,
      "▁jami": 2118,
      "▁odam": 2119,
      "oyi": 2120,
      "▁yo‘na": 2121,
      "▁etil": 2122,
      "▁11": 2123,
      "▁saqlash": 2124,
      "oro": 2125,
      "▁muhi": 2126,
      "daryo": 2127,
      "ddiy": 2128,
      "ech": 2129,
      "▁majb": 2130,
      "▁qo‘mitasi": 2131,
      "▁xorij": 2132,
      "▁boz": 2133,
      "▁ar": 2134,
      "▁hay": 2135,
      "▁oyi": 2136,
      "▁ortiq": 2137,
      "yan": 2138,
      "▁qur": 2139,
      "▁maqsadida": 2140,
      "▁Qo": 2141,
      "mmo": 2142,
      "▁zarur": 2143,
      "▁tartibi": 2144,
      "21": 2145,
      "ral": 2146,
      "▁doira": 2147,
      "▁oqi": 2148,
      "buot": 2149,
      "▁musta": 2150,
      "liga": 2151,
      "onu": 2152,
      "▁to‘g‘risida”": 2153,
      "▁reja": 2154,
      "yol": 2155,
      "▁korxona": 2156,
      "ida": 2157,
      "der": 2158,
      "▁tari": 2159,
      "▁asos": 2160,
      "▁uchrash": 2161,
      "mma": 2162,
      "mini": 2163,
      "▁muroja": 2164,
      "is": 2165,
      "ke": 2166,
      "▁tushi": 2167,
      "jasi": 2168,
      "▁oshiri": 2169,
      "▁ijro": 2170,
      "▁davom": 2171,
      "▁qilishi": 2172,
      "ner": 2173,
      "▁ta’minlash": 2174,
      "▁berilgan": 2175,
      "▁kelgan": 2176,
      "▁xat": 2177,
      "tining": 2178,
      "▁huku": 2179,
      "lashgan": 2180,
      "▁baja": 2181,
      "Ch": 2182,
      "▁tele": 2183,
      "▁lozim": 2184,
      "kra": 2185,
      "fot": 2186,
      "▁oʻ": 2187,
      "shloq": 2188,
      "▁an": 2189,
      "shga": 2190,
      "ts": 2191,
      "▁kar": 2192,
      "lida": 2193,
      "▁natija": 2194,
      "▁degan": 2195,
      "niga": 2196,
      "▁jinoyat": 2197,
      "▁soliq": 2198,
      "▁qilina": 2199,
      "ahon": 2200,
      "lanadi.": 2201,
      "-t": 2202,
      "▁deya": 2203,
      "demi": 2204,
      "▁faoliyatini": 2205,
      "▁maktab": 2206,
      "▁z": 2207,
      "▁vaqt": 2208,
      "mara": 2209,
      "▁shakl": 2210,
      "mov": 2211,
      "▁milliy": 2212,
      "shina": 2213,
      "-tadbir": 2214,
      "▁muam": 2215,
      "par": 2216,
      "▁Tur": 2217,
      "▁bino": 2218,
      "▁umu": 2219,
      "taxas": 2220,
      "lini": 2221,
      "gik": 2222,
      "▁matbuot": 2223,
      "▁Oliy": 2224,
      "▁chora-tadbir": 2225,
      "ilova": 2226,
      "rini": 2227,
      "rov": 2228,
      "▁texno": 2229,
      "▁ishlari": 2230,
      "▁ochi": 2231,
      "▁ajra": 2232,
      "yekt": 2233,
      "▁rahbar": 2234,
      "▁huquqi": 2235,
      "likka": 2236,
      "miz,": 2237,
      "▁bora": 2238,
      "▁agent": 2239,
      "▁nafa": 2240,
      "▁kabi": 2241,
      "ste": 2242,
      "▁hokim": 2243,
      "bosari": 2244,
      "▁oila": 2245,
      "▁murojaat": 2246,
      "▁Mu": 2247,
      "mil": 2248,
      "▁kelish": 2249,
      "▁bog‘liq": 2250,
      "▁tarmoq": 2251,
      "▁yilning": 2252,
      "▁gaz": 2253,
      "likni": 2254,
      "itoy": 2255,
      "▁tarki": 2256,
      "▁jumla": 2257,
      "lib,": 2258,
      "oz": 2259,
      "▁hokimi": 2260,
      "▁aloqa": 2261,
      "▁avtomobil": 2262,
      "▁faoliyat": 2263,
      "Ta": 2264,
      "▁komis": 2265,
      "▁etilishi": 2266,
      "spublika": 2267,
      "▁bos": 2268,
      "▁muddat": 2269,
      "▁yig‘i": 2270,
      "▁muammo": 2271,
      "kon": 2272,
      "▁14": 2273,
      "▁soat": 2274,
      "▁samara": 2275,
      "tilishi": 2276,
      "▁jamoa": 2277,
      "▁ekan": 2278,
      "▁ru": 2279,
      "▁raqa": 2280,
      "▁ko‘rib": 2281,
      "taxassis": 2282,
      "▁mehnat": 2283,
      "diya": 2284,
      "▁dunyo": 2285,
      "▁16": 2286,
      "ladi,": 2287,
      "gʻ": 2288,
      "▁Bosh": 2289,
      "▁yanada": 2290,
      "▁inve": 2291,
      "dora": 2292,
      "▁nom": 2293,
      "▁lavo": 2294,
      "▁bo‘lib,": 2295,
      "▁tek": 2296,
      "▁miqdori": 2297,
      "riy": 2298,
      "▁ma'lum": 2299,
      "▁juda": 2300,
      "g‘ir": 2301,
      "▁vakil": 2302,
      "ni,": 2303,
      "kam": 2304,
      "hida": 2305,
      "▁18": 2306,
      "▁us": 2307,
      "▁vaziyat": 2308,
      "▁13": 2309,
      "-ban": 2310,
      "▁Mirziyo": 2311,
      "▁Te": 2312,
      "lanadi.\n": 2313,
      "pre": 2314,
      "▁o‘rinbosari": 2315,
      "lanuvchi": 2316,
      "▁po": 2317,
      "vkat": 2318,
      "▁Ab": 2319,
      "▁ravi": 2320,
      "▁olingan": 2321,
      "▁tomon": 2322,
      "zbek": 2323,
      "▁nazar": 2324,
      "▁II": 2325,
      "▁bergan": 2326,
      "▁No": 2327,
      "▁hozir": 2328,
      "rib,": 2329,
      "lmay": 2330,
      ".uz": 2331,
      "Ya": 2332,
      "kati": 2333,
      "yabr": 2334,
      "nini": 2335,
      "▁chek": 2336,
      "rida": 2337,
      "ng‘": 2338,
      "gram": 2339,
      "▁sodir": 2340,
      "▁ikkinchi": 2341,
      "▁baho": 2342,
      "▁ayol": 2343,
      "rab": 2344,
      "▁tekshi": 2345,
      "▁xusu": 2346,
      "▁li": 2347,
      "si,": 2348,
      "▁boʻ": 2349,
      "▁shahrida": 2350,
      "▁siyo": 2351,
      "▁0": 2352,
      "▁ravishda": 2353,
      "mor": 2354,
      "▁doirasida": 2355,
      "landi.": 2356,
      "tiyo": 2357,
      "▁Bi": 2358,
      "▁fik": 2359,
      "▁munosabat": 2360,
      "yotgani": 2361,
      "▁O‘zbekistonda": 2362,
      "▁qo‘yil": 2363,
      "▁ularni": 2364,
      "▁se": 2365,
      "tibor": 2366,
      "▁dey": 2367,
      "▁amal": 2368,
      "riq": 2369,
      "zda": 2370,
      "ft": 2371,
      "tira": 2372,
      "lama": 2373,
      "▁30": 2374,
      "tirilgan": 2375,
      "▁soha": 2376,
      "lati": 2377,
      "▁marta": 2378,
      "▁dar": 2379,
      "larimiz": 2380,
      "▁Kor": 2381,
      "▁ilmiy": 2382,
      "▁qilib": 2383,
      "▁tartibda": 2384,
      "marqan": 2385,
      "lig‘i": 2386,
      "ina": 2387,
      "redit": 2388,
      "eya": 2389,
      "▁idora": 2390,
      "batida": 2391,
      "▁yetkazi": 2392,
      "▁xo‘jaligi": 2393,
      "ga,": 2394,
      "shan": 2395,
      "▁ket": 2396,
      "▁e'": 2397,
      "▁“D": 2398,
      "▁qilinishi": 2399,
      "▁ishi": 2400,
      "tuvchi": 2401,
      "▁hech": 2402,
      "▁mumkin.\n": 2403,
      "▁e’lon": 2404,
      "▁mutaxassis": 2405,
      "▁shartnoma": 2406,
      "araf": 2407,
      "▁17": 2408,
      "rgan": 2409,
      "▁alma": 2410,
      "▁prezident": 2411,
      "lek": 2412,
      "ziya": 2413,
      "-h": 2414,
      "▁dollar": 2415,
      "nchi": 2416,
      "lab-": 2417,
      "noat": 2418,
      "▁yoz": 2419,
      "quvvat": 2420,
      "oq": 2421,
      "▁vaqtida": 2422,
      "▁to‘lov": 2423,
      "dj": 2424,
      "▁25": 2425,
      "▁organlari": 2426,
      "▁bo‘lsa,": 2427,
      "shish": 2428,
      "arli": 2429,
      "voz": 2430,
      "▁Far": 2431,
      "enta": 2432,
      "▁1-": 2433,
      "lash,": 2434,
      "▁havo": 2435,
      "qal": 2436,
      "▁imzo": 2437,
      "▁qildi.": 2438,
      "▁osh": 2439,
      "siyalar": 2440,
      "▁ma'lumot": 2441,
      "me": 2442,
      "yapti": 2443,
      "▁nav": 2444,
      "▁umumiy": 2445,
      "lab-quvvat": 2446,
      "▁qiy": 2447,
      "▁muhim": 2448,
      "enga": 2449,
      "▁qolgan": 2450,
      "▁eksp": 2451,
      "▁vaqti": 2452,
      "▁Mirziyoyev": 2453,
      "▁agentligi": 2454,
      "tiv": 2455,
      "▁mahalliy": 2456,
      "▁etib": 2457,
      "riga": 2458,
      "▁sur": 2459,
      "unga": 2460,
      "yingi": 2461,
      "sla": 2462,
      "unda": 2463,
      "▁“T": 2464,
      "▁faqat": 2465,
      "deo": 2466,
      "lashga": 2467,
      "op": 2468,
      "▁Shavkat": 2469,
      "▁\"": 2470,
      "▁unga": 2471,
      "▁bayon": 2472,
      "▁to‘p": 2473,
      "▁bal": 2474,
      "▁jamoasi": 2475,
      "▁bosqi": 2476,
      "▁kim": 2477,
      "izi": 2478,
      "▁texnologiya": 2479,
      "▁boshlab": 2480,
      "▁respublika": 2481,
      "▁turli": 2482,
      "▁qoida": 2483,
      "▁a’": 2484,
      "zon": 2485,
      "kaziy": 2486,
      "▁shuningdek": 2487,
      "▁haqidagi": 2488,
      "▁min": 2489,
      "lom": 2490,
      "una": 2491,
      "nan": 2492,
      "gara": 2493,
      "▁vazifa": 2494,
      "Av": 2495,
      "versi": 2496,
      "chasi": 2497,
      "ldi\n\n": 2498,
      "▁ko‘rsatish": 2499,
      "tsiya": 2500,
      "▁tizim": 2501,
      "siyo": 2502,
      "▁iste": 2503,
      "-yilda": 2504,
      "qil": 2505,
      "alb": 2506,
      "▁uz": 2507,
      "kiya": 2508,
      "▁qismi": 2509,
      "▁to‘xta": 2510,
      "▁halo": 2511,
      "▁xari": 2512,
      "▁tayin": 2513,
      "▁maqsad": 2514,
      "▁Respublikasining": 2515,
      "▁xorijiy": 2516,
      "▁loyihasi": 2517,
      "lubi": 2518,
      "prel": 2519,
      "▁a’zo": 2520,
      "▁eh": 2521,
      "▁bermoqda": 2522,
      "▁ro‘yxat": 2523,
      "▁dedi": 2524,
      "sim": 2525,
      "chik": 2526,
      "tak": 2527,
      "▁guruh": 2528,
      "▁sar": 2529,
      "▁boj": 2530,
      "▁kiritish": 2531,
      "▁jara": 2532,
      "▁mln": 2533,
      "▁to‘g‘risida”gi": 2534,
      "▁boshqarmasi": 2535,
      "▁vako": 2536,
      "lmagan": 2537,
      "▁Ha": 2538,
      "▁jalb": 2539,
      "▁maydon": 2540,
      "▁ichki": 2541,
      "rd": 2542,
      "▁nomi": 2543,
      "rif": 2544,
      "▁jarayo": 2545,
      "▁shifo": 2546,
      "▁mul": 2547,
      "▁ener": 2548,
      "▁bo‘lish": 2549,
      "▁bildir": 2550,
      "mad": 2551,
      "▁och": 2552,
      "▁qo‘y": 2553,
      "▁shax": 2554,
      "ert": 2555,
      "g‘ar": 2556,
      "▁yoshli": 2557,
      "logik": 2558,
      "▁usti": 2559,
      "▁rai": 2560,
      "biyot": 2561,
      "biq": 2562,
      "▁Yevro": 2563,
      "▁o‘zga": 2564,
      "▁alohida": 2565,
      "ard": 2566,
      "▁Ra": 2567,
      "dr": 2568,
      "▁To": 2569,
      "▁qishloq": 2570,
      "valroq": 2571,
      "miz.": 2572,
      "▁ichida": 2573,
      "xa": 2574,
      "▁iqtisodiy": 2575,
      "▁mashina": 2576,
      "lis": 2577,
      "kraina": 2578,
      "▁xodimlari": 2579,
      "▁Ka": 2580,
      "▁yuz": 2581,
      "anu": 2582,
      "tar": 2583,
      "▁hal": 2584,
      "marqand": 2585,
      "shni": 2586,
      "urt": 2587,
      "▁yo‘nalish": 2588,
      "▁elektr": 2589,
      "▁chempi": 2590,
      "▁Ko": 2591,
      "▁“B": 2592,
      "▁budj": 2593,
      "▁sharo": 2594,
      "▁bo‘lmagan": 2595,
      "yasi": 2596,
      "▁jam": 2597,
      "fon": 2598,
      "▁qo‘llab-quvvat": 2599,
      "nika": 2600,
      "eti": 2601,
      "lub": 2602,
      "▁o‘rna": 2603,
      "▁al": 2604,
      "moniy": 2605,
      "ss": 2606,
      "▁inf": 2607,
      "gov": 2608,
      "▁ta’kid": 2609,
      "▁qo‘lga": 2610,
      "▁yash": 2611,
      "▁oliy": 2612,
      "▁Xitoy": 2613,
      ",5": 2614,
      "22": 2615,
      "▁jamoat": 2616,
      "▁dastur": 2617,
      "jasida": 2618,
      "ea": 2619,
      "▁qo`": 2620,
      "▁Ushbu": 2621,
      "bon": 2622,
      "malar": 2623,
      "▁nazarda": 2624,
      "▁tibbiy": 2625,
      "▁nash": 2626,
      "ton": 2627,
      "▁inson": 2628,
      "▁san": 2629,
      "▁investit": 2630,
      "▁uchi": 2631,
      "ozir": 2632,
      "▁So": 2633,
      "▁2020": 2634,
      "est": 2635,
      "su": 2636,
      "▁o‘y": 2637,
      "▁“M": 2638,
      "erti": 2639,
      "ID": 2640,
      "▁sov": 2641,
      "▁to‘liq": 2642,
      "▁o‘rgani": 2643,
      "mart": 2644,
      "▁24": 2645,
      "aryo": 2646,
      "▁“A": 2647,
      "tun": 2648,
      "▁tashqari,": 2649,
      "▁uchrashuv": 2650,
      "nomasi": 2651,
      "lardagi": 2652,
      "qalpo": 2653,
      "▁prokur": 2654,
      "slatib": 2655,
      "oraqalpo": 2656,
      "ata": 2657,
      "▁huz": 2658,
      "▁o‘quv": 2659,
      "jal": 2660,
      "▁g‘a": 2661,
      "onaviy": 2662,
      "▁tashqi": 2663,
      "▁(1": 2664,
      "000": 2665,
      "▁Bo": 2666,
      "xonasi": 2667,
      "▁huzuri": 2668,
      "urs": 2669,
      "▁qoli": 2670,
      "▁Is": 2671,
      "langan.": 2672,
      "▁necha": 2673,
      "▁poy": 2674,
      "▁\n\n": 2675,
      "▁o‘rtasida": 2676,
      "laka": 2677,
      "malari": 2678,
      "bek": 2679,
      "▁o‘q": 2680,
      "▁ishga": 2681,
      "▁bo‘lsa": 2682,
      "▁mash": 2683,
      "uli": 2684,
      "meri": 2685,
      "tam": 2686,
      "▁mux": 2687,
      "▁“S": 2688,
      "▁kuza": 2689,
      "▁21": 2690,
      "▁iy": 2691,
      "shiga": 2692,
      "chilari": 2693,
      "g‘a": 2694,
      "shini": 2695,
      "▁sohasi": 2696,
      "yoti": 2697,
      "ligiga": 2698,
      "kama": 2699,
      "▁namo": 2700,
      "▁osti": 2701,
      "ksi": 2702,
      "▁chegara": 2703,
      "man.": 2704,
      "gust": 2705,
      "fta": 2706,
      "▁Markaziy": 2707,
      "▁qator": 2708,
      "im": 2709,
      "▁tarkibi": 2710,
      "▁yakun": 2711,
      "ayli": 2712,
      "▁chet": 2713,
      "nash": 2714,
      "kabr": 2715,
      "▁oqibatida": 2716,
      "▁kas": 2717,
      "▁almash": 2718,
      "▁tarqa": 2719,
      "▁bo‘ldi.": 2720,
      "komil": 2721,
      "-iy": 2722,
      "▁haj": 2723,
      "▁bunday": 2724,
      "▁oldin": 2725,
      "▁ishon": 2726,
      "onuniy": 2727,
      "se": 2728,
      "▁ista": 2729,
      "▁shunday": 2730,
      "tob": 2731,
      "▁Maj": 2732,
      "lil": 2733,
      "▁takomil": 2734,
      "▁xona": 2735,
      "▁instit": 2736,
      "biya": 2737,
      "▁foizi": 2738,
      "▁turi": 2739,
      "▁mada": 2740,
      "▁keng": 2741,
      "▁23": 2742,
      "garlik": 2743,
      "▁Tra": 2744,
      ":1": 2745,
      "ksiya": 2746,
      "▁nor": 2747,
      "gona": 2748,
      "dro": 2749,
      "zan": 2750,
      "▁xara": 2751,
      "▁omma": 2752,
      "▁kerak.": 2753,
      "moqchi": 2754,
      "▁22": 2755,
      "▁tuf": 2756,
      "▁bojxona": 2757,
      "▁sub": 2758,
      "Re": 2759,
      "gun": 2760,
      "tiril": 2761,
      "▁joylashgan": 2762,
      "-a": 2763,
      "▁metr": 2764,
      "▁2019": 2765,
      "▁joyi": 2766,
      "bod": 2767,
      "chalik": 2768,
      "▁qurilish": 2769,
      "▁dire": 2770,
      "▁shaxslar": 2771,
      "sil": 2772,
      "▁Be": 2773,
      "▁dasturi": 2774,
      "ganidan": 2775,
      "▁rey": 2776,
      "dosh": 2777,
      "ch,": 2778,
      "▁kompaniyasi": 2779,
      "siq": 2780,
      "▁2018": 2781,
      "▁Li": 2782,
      "▁yili": 2783,
      "▁tovar": 2784,
      "▁universi": 2785,
      "zoq": 2786,
      "o‘r": 2787,
      "▁o‘tkaz": 2788,
      "▁tufayli": 2789,
      "rial": 2790,
      "▁sotib": 2791,
      "fasi": 2792,
      "tal": 2793,
      ":0": 2794,
      "▁“O‘": 2795,
      "merika": 2796,
      "▁kredit": 2797,
      "▁saylov": 2798,
      "laba": 2799,
      "tiri": 2800,
      "▁199": 2801,
      "▁Qonun": 2802,
      "▁manfa": 2803,
      "ladi\n\n": 2804,
      "▁zam": 2805,
      "xsat": 2806,
      "▁Xal": 2807,
      "dqiq": 2808,
      "▁elektron": 2809,
      "fat": 2810,
      "▁malaka": 2811,
      "▁birgalikda": 2812,
      "▁vakolat": 2813,
      "▁transport": 2814,
      "▁De": 2815,
      "loh": 2816,
      "kka": 2817,
      "▁ayrim": 2818,
      "▁ari": 2819,
      "ddi": 2820,
      "lanib": 2821,
      "Toshkent": 2822,
      "bay": 2823,
      "▁bo‘ladi.": 2824,
      "Eslatib": 2825,
      "ks": 2826,
      "Shuningdek,": 2827,
      "▁pala": 2828,
      "▁qizi": 2829,
      "▁xalq": 2830,
      "▁Af": 2831,
      "▁Koreya": 2832,
      "▁oyida": 2833,
      "oraqalpog‘iston": 2834,
      "▁tayyorlash": 2835,
      "▁zamonaviy": 2836,
      "lanadi": 2837,
      "RI": 2838,
      "▁yuridik": 2839,
      "qon": 2840,
      "atsiyasi": 2841,
      "▁“O‘zbekiston": 2842,
      "▁taqdir": 2843,
      "▁Ke": 2844,
      "▁tuga": 2845,
      "▁xo‘jalik": 2846,
      "oya": 2847,
      "▁muhokama": 2848,
      "boshi": 2849,
      "ktori": 2850,
      "▁kelishi": 2851,
      "▁ruxsat": 2852,
      "yush": 2853,
      "▁2017": 2854,
      "▁vafot": 2855,
      "▁tutilgan": 2856,
      "▁o‘tkazilgan": 2857,
      "▁ib": 2858,
      "▁darajasi": 2859,
      "▁jazo": 2860,
      "▁gol": 2861,
      "`zbekiston": 2862,
      "▁yaratish": 2863,
      "▁deyi": 2864,
      "▁2021": 2865,
      "▁oper": 2866,
      "ish": 2867,
      "▁halok": 2868,
      "▁Ja": 2869,
      "uk": 2870,
      "hasida": 2871,
      "▁ta'lim": 2872,
      "dir.": 2873,
      "dqiqot": 2874,
      "▁huzuridagi": 2875,
      "▁tor": 2876,
      "rishga": 2877,
      "▁jis": 2878,
      "▁manfaat": 2879,
      "▁bemor": 2880,
      "▁ozod": 2881,
      "▁ayb": 2882,
      "▁Yevropa": 2883,
      "▁Mahkamasining": 2884,
      "▁Mazkur": 2885,
      "▁xarajat": 2886,
      "▁tabi": 2887,
      "▁Ba": 2888,
      "▁zarar": 2889,
      "g‘liqni": 2890,
      "od": 2891,
      "katsiya": 2892,
      "▁natijasida": 2893,
      "nish": 2894,
      "▁chiqar": 2895,
      "▁kunda": 2896,
      "xt": 2897,
      "▁mate": 2898,
      "▁atro": 2899,
      "zog‘iston": 2900,
      "▁Osiyo": 2901,
      "▁yasha": 2902,
      "illiy": 2903,
      "▁haq": 2904,
      "sir": 2905,
      "▁taj": 2906,
      "▁bo‘ladi.\n": 2907,
      "▁hisobga": 2908,
      "▁terma": 2909,
      "tidan": 2910,
      "▁markaz": 2911,
      "▁Me": 2912,
      "▁daro": 2913,
      "▁asosan": 2914,
      "▁qo‘yi": 2915,
      "ror": 2916,
      "▁ust": 2917,
      "k,": 2918,
      "evral": 2919,
      "▁takomillashtirish": 2920,
      "▁hujum": 2921,
      "▁muhofa": 2922,
      "▁Ukraina": 2923,
      "▁chiqqan": 2924,
      "▁tav": 2925,
      "tasidagi": 2926,
      "▁ta'min": 2927,
      "-qi": 2928,
      "▁Samarqand": 2929,
      "▁50": 2930,
      "▁Tramp": 2931,
      "▁tibbiyot": 2932,
      "▁sababli": 2933,
      "tib,": 2934,
      "mli": 2935,
      "▁stan": 2936,
      "▁butun": 2937,
      "disa": 2938,
      "g‘ona": 2939,
      "von": 2940,
      "▁tug‘": 2941,
      "▁bozor": 2942,
      "▁pi": 2943,
      "kich": 2944,
      "▁milliard": 2945,
      "▁mahalla": 2946,
      "▁tik": 2947,
      "yatini": 2948,
      "▁o‘tamiz,": 2949,
      "pp": 2950,
      "▁jahon": 2951,
      "▁inter": 2952,
      "▁hududi": 2953,
      "▁yetak": 2954,
      "muni": 2955,
      "▁navbat": 2956,
      "mino": 2957,
      "▁deydi": 2958,
      "era": 2959,
      "▁ko‘proq": 2960,
      "goh": 2961,
      "▁An": 2962,
      "▁raisi": 2963,
      "▁Prezident": 2964,
      "bus": 2965,
      "▁hukumat": 2966,
      "▁koʻ": 2967,
      "▁gap": 2968,
      "enti": 2969,
      "▁toʻ": 2970,
      "▁ix": 2971,
      "masiga": 2972,
      "ytirish": 2973,
      "baqa": 2974,
      "▁narx": 2975,
      "▁ko‘cha": 2976,
      "net": 2977,
      "▁yildan": 2978,
      "▁Turkiya": 2979,
      "▁nima": 2980,
      "▁st": 2981,
      "▁yerda": 2982,
      "rda": 2983,
      "▁muh": 2984,
      "sib": 2985,
      "▁uyush": 2986,
      "▁Mi": 2987,
      "▁energiya": 2988,
      "▁hafta": 2989,
      "▁Al": 2990,
      "vol": 2991,
      "gina": 2992,
      "▁deyiladi": 2993,
      "ligi,": 2994,
      "▁beruvchi": 2995,
      "▁27": 2996,
      "ndijon": 2997,
      "▁qiladi": 2998,
      ".\nB": 2999,
      "lik,": 3000,
      "▁100": 3001,
      "▁imkoniyat": 3002,
      "▁qiluvchi": 3003,
      "▁jaro": 3004,
      "▁jismoniy": 3005,
      "▁o‘zgartirish": 3006,
      "xoro": 3007,
      "▁to‘r": 3008,
      "..": 3009,
      "entabr": 3010,
      "▁Le": 3011,
      "▁Kenga": 3012,
      "onal": 3013,
      "▁yetkazib": 3014,
      "radi.": 3015,
      "▁ishtiroki": 3016,
      "▁hujjatlar": 3017,
      "▁iborat": 3018,
      "▁faol": 3019,
      "▁eka": 3020,
      "▁haydov": 3021,
      "▁bo‘lgan.": 3022,
      "▁sho": 3023,
      "▁Shuningdek,": 3024,
      "qiqa": 3025,
      "▁26": 3026,
      "aryo”": 3027,
      "▁qildi.\n": 3028,
      "▁surat": 3029,
      "landi.\n": 3030,
      "▁voq": 3031,
      "erma": 3032,
      "▁qo‘sh": 3033,
      "kasi": 3034,
      "▁muva": 3035,
      "tik": 3036,
      "mni": 3037,
      "▁jar": 3038,
      "ze": 3039,
      "▁tuzi": 3040,
      "▁bozori": 3041,
      "▁dan": 3042,
      "▁yirik": 3043,
      "ffa": 3044,
      "▁mos": 3045,
      "▁jamg‘ar": 3046,
      "▁nizo": 3047,
      "qiy": 3048,
      "▁egal": 3049,
      "▁beril": 3050,
      "▁kucha": 3051,
      "▁mustah": 3052,
      "put": 3053,
      "atura": 3054,
      "rita": 3055,
      "▁Har": 3056,
      "▁og‘ir": 3057,
      "▁samarali": 3058,
      "▁hududida": 3059,
      "▁kirish": 3060,
      "lak": 3061,
      "xo": 3062,
      "▁yubori": 3063,
      "▁tizimini": 3064,
      "▁muhofaza": 3065,
      "-o": 3066,
      "▁isti": 3067,
      "▁Tash": 3068,
      "Da": 3069,
      "▁tadbirkor": 3070,
      "▁vositalari": 3071,
      "lanadigan": 3072,
      "zlar": 3073,
      ").\n": 3074,
      "▁qila": 3075,
      "urnali": 3076,
      "▁tumanida": 3077,
      "▁Si": 3078,
      "zu": 3079,
      "ash": 3080,
      "sobaqa": 3081,
      "▁sohasida": 3082,
      "▁28": 3083,
      "▁bekor": 3084,
      "▁ta'kid": 3085,
      "▁IIB": 3086,
      "ktabr": 3087,
      "▁kodek": 3088,
      "▁vaki": 3089,
      "di;\n": 3090,
      "▁on": 3091,
      "▁iqtisodi": 3092,
      "▁komissiyasi": 3093,
      "▁х": 3094,
      "taqa": 3095,
      "gungi": 3096,
      "▁ishlash": 3097,
      "▁mustahkam": 3098,
      "▁bildi": 3099,
      "o‘ljal": 3100,
      "nes": 3101,
      "▁taqiq": 3102,
      "▁obyekt": 3103,
      "▁texnik": 3104,
      "▁ularga": 3105,
      "▁yan": 3106,
      "▁muvaffa": 3107,
      "▁do‘": 3108,
      "▁o‘tkazil": 3109,
      "▁Ammo": 3110,
      "▁chaqi": 3111,
      "▁quv": 3112,
      "▁Uning": 3113,
      "mer": 3114,
      "▁futbolchi": 3115,
      "▁maro": 3116,
      "▁investitsiya": 3117,
      "▁tergov": 3118,
      "▁vakillari": 3119,
      "▁bolalar": 3120,
      "?\n": 3121,
      "oti": 3122,
      "▁masalalari": 3123,
      "sab": 3124,
      "▁e’tibor": 3125,
      "▁buzi": 3126,
      "muriy": 3127,
      "▁material": 3128,
      "▁poli": 3129,
      "▁hududiy": 3130,
      "labki": 3131,
      "▁teng": 3132,
      "▁ko‘rish": 3133,
      "nda": 3134,
      "▁ilk": 3135,
      "-o‘": 3136,
      "▁to`": 3137,
      "▁Qoraqalpog‘iston": 3138,
      "▁sharoit": 3139,
      "▁vaqtda": 3140,
      "ush": 3141,
      "▁xatboshi": 3142,
      "shanba": 3143,
      "▁guruhi": 3144,
      "Avvalroq": 3145,
      "bati": 3146,
      "▁tadbirkorlik": 3147,
      "▁pe": 3148,
      "▁fil": 3149,
      "ski": 3150,
      "▁gi": 3151,
      "▁video": 3152,
      "▁narsa": 3153,
      "▁qilishga": 3154,
      "▁Prezidentining": 3155,
      "▁voqea": 3156,
      "ce": 3157,
      "▁“Daryo”": 3158,
      "▁uzoq": 3159,
      "ola": 3160,
      "▁2.": 3161,
      "▁iste’": 3162,
      "lar:": 3163,
      "▁besh": 3164,
      "▁tushun": 3165,
      "▁qiymati": 3166,
      "▁1.": 3167,
      "ali": 3168,
      "for": 3169,
      "▁ommaviy": 3170,
      "▁modda": 3171,
      "mpaniya": 3172,
      "▁viloyatida": 3173,
      "liklari": 3174,
      "▁tashrif": 3175,
      "▁orasida": 3176,
      "oniston": 3177,
      "▁G‘": 3178,
      "▁qiladi.": 3179,
      "▁sobiq": 3180,
      "LA": 3181,
      "▁narxi": 3182,
      "ritaniya": 3183,
      "mak": 3184,
      "lashtir": 3185,
      "▁ketgan": 3186,
      "anubiy": 3187,
      "▁gu": 3188,
      "▁Ay": 3189,
      "ensiya": 3190,
      "▁hukumati": 3191,
      "▁“K": 3192,
      "ero": 3193,
      "ahar": 3194,
      "▁avval": 3195,
      "tti": 3196,
      "▁oid": 3197,
      "ldi,": 3198,
      "eva": 3199,
      "▁miqdor": 3200,
      "▁g‘alaba": 3201,
      "▁olma": 3202,
      "▁o‘quvchi": 3203,
      "▁ammo": 3204,
      "▁fikr": 3205,
      "mizda": 3206,
      "stan": 3207,
      "▁organi": 3208,
      "30": 3209,
      "▁mlrd": 3210,
      "▁o‘zaro": 3211,
      "▁erish": 3212,
      "lar.": 3213,
      "lanib,": 3214,
      "araq": 3215,
      "▁uru": 3216,
      "▁bo‘limi": 3217,
      "fer": 3218,
      "lishini": 3219,
      "▁ariza": 3220,
      "ngil": 3221,
      "▁kengashi": 3222,
      "▁ishla": 3223,
      "ziq": 3224,
      "miga": 3225,
      "▁so‘zlari": 3226,
      "sin;\n": 3227,
      "-j": 3228,
      "▁men": 3229,
      "▁lits": 3230,
      "▁daromad": 3231,
      "▁salo": 3232,
      "-yilning": 3233,
      "▁qo‘yish": 3234,
      "▁avi": 3235,
      "▁Biz": 3236,
      "▁tasdiqlangan": 3237,
      "▁siz": 3238,
      "▁yo‘li": 3239,
      "▁paydo": 3240,
      "gaz": 3241,
      "▁mintaqa": 3242,
      "▁boshqaruvi": 3243,
      "▁yo`": 3244,
      "ne": 3245,
      "kov": 3246,
      "stik": 3247,
      "▁namoyish": 3248,
      "▁qilib,": 3249,
      "▁Niz": 3250,
      "▁beradi": 3251,
      "▁klubi": 3252,
      "mangan": 3253,
      "sidan": 3254,
      "▁mo‘ljal": 3255,
      "▁berishi": 3256,
      "AS": 3257,
      "yuk": 3258,
      "In": 3259,
      "▁qonunchilik": 3260,
      "kar": 3261,
      "▁ko‘rsatkich": 3262,
      "▁turgan": 3263,
      "tex": 3264,
      "mmat": 3265,
      "▁vakili": 3266,
      "ermaniya": 3267,
      "▁banki": 3268,
      "▁kir": 3269,
      "mal": 3270,
      "▁Hu": 3271,
      "▁kichik": 3272,
      "niyat": 3273,
      "▁emas,": 3274,
      "▁direktori": 3275,
      "▁manba": 3276,
      "▁bog‘": 3277,
      "▁fuqarolar": 3278,
      "▁kura": 3279,
      "▁o‘rtasidagi": 3280,
      "▁Milliy": 3281,
      "▁prokuratura": 3282,
      "rilishini": 3283,
      "erg": 3284,
      "▁sana": 3285,
      "ulosa": 3286,
      "legram": 3287,
      "▁ko‘rsatilgan": 3288,
      "▁qilish,": 3289,
      "▁buyon": 3290,
      "▁ovoz": 3291,
      "▁ayt": 3292,
      "▁O`zbekiston": 3293,
      "▁jumladan": 3294,
      "▁xarid": 3295,
      "demiya": 3296,
      "▁samol": 3297,
      "putat": 3298,
      "▁edi.\n": 3299,
      "▁talaba": 3300,
      "▁ko‘ta": 3301,
      "▁musobaqa": 3302,
      "▁Av": 3303,
      "mlar": 3304,
      "▁universite": 3305,
      "▁keyingi": 3306,
      "▁mehmon": 3307,
      "▁so‘nggi": 3308,
      "▁yozi": 3309,
      "▁yar": 3310,
      "▁um": 3311,
      ").": 3312,
      "zaga": 3313,
      "▁borish": 3314,
      "mi,": 3315,
      "▁Abdu": 3316,
      "▁o‘n": 3317,
      "boy": 3318,
      "lab,": 3319,
      "▁moliyaviy": 3320,
      "▁boshlig‘i": 3321,
      "▁palatasi": 3322,
      "g‘ida": 3323,
      "▁Ular": 3324,
      "▁maydo": 3325,
      "▁bosqich": 3326,
      "gari": 3327,
      "▁tabiiy": 3328,
      "▁aka": 3329,
      "▁qimmat": 3330,
      "▁kanali": 3331,
      "▁qurol": 3332,
      "▁doimiy": 3333,
      "▁yanvar": 3334,
      "▁yaku": 3335,
      "▁hujjatlari": 3336,
      "lashtiri": 3337,
      "chiligi": 3338,
      "▁le": 3339,
      "tlar": 3340,
      "▁yillik": 3341,
      "▁kom": 3342,
      "▁balki": 3343,
      "-i": 3344,
      "ting": 3345,
      "-s": 3346,
      "▁bo‘y": 3347,
      "▁ishonch": 3348,
      "tta": 3349,
      "▁qop": 3350,
      "▁ucha": 3351,
      "▁farzan": 3352,
      "▁Qozog‘iston": 3353,
      "ransport": 3354,
      "▁muddatda": 3355,
      "eo": 3356,
      "▁ota": 3357,
      "▁yarim": 3358,
      "xir": 3359,
      "tan": 3360,
      "▁ochiq": 3361,
      ")\n\n": 3362,
      "▁hodisa": 3363,
      "hbat": 3364,
      "enziya": 3365,
      "jorat": 3366,
      "tirib": 3367,
      "▁29": 3368,
      "▁ko‘z": 3369,
      "▁jurnali": 3370,
      "▁uchun,": 3371,
      "sin:\n": 3372,
      "▁sinov": 3373,
      "g‘oniston": 3374,
      "ziga": 3375,
      "”.\n\n": 3376,
      "▁tura": 3377,
      "▁joylarda": 3378,
      "▁so‘ra": 3379,
      "▁berdi.\n": 3380,
      "lyu": 3381,
      "▁yagona": 3382,
      "da.\n": 3383,
      "aho": 3384,
      "▁jarayon": 3385,
      "▁etdi.": 3386,
      "ayd": 3387,
      "sel": 3388,
      "▁tarbiya": 3389,
      "san,": 3390,
      "hon": 3391,
      "he": 3392,
      "dofa": 3393,
      "▁Nizom": 3394,
      "▁o‘zining": 3395,
      "sh,": 3396,
      "▁ko‘ri": 3397,
      "ng‘in": 3398,
      "kki": 3399,
      "ada": 3400,
      "▁jumladan,": 3401,
      "▁aytgan": 3402,
      "▁jang": 3403,
      "▁xususiy": 3404,
      "dliya": 3405,
      "unki": 3406,
      "▁foizga": 3407,
      "g‘ul": 3408,
      "sho": 3409,
      ":00": 3410,
      "van": 3411,
      "▁mulk": 3412,
      "▁Su": 3413,
      "laydi.": 3414,
      "mga": 3415,
      "qtisodiy": 3416,
      "▁boshqarish": 3417,
      "▁darajada": 3418,
      "▁moddiy": 3419,
      "▁uchinchi": 3420,
      "▁kuchli": 3421,
      "▁tashkilotlar": 3422,
      "▁iz": 3423,
      "vich": 3424,
      "voiy": 3425,
      "▁e'lon": 3426,
      "-joy": 3427,
      "▁Fa": 3428,
      "rifi": 3429,
      "▁nashri": 3430,
      "laridagi": 3431,
      "▁sug‘": 3432,
      "▁turib": 3433,
      "▁budjet": 3434,
      "▁ma’lumotlar": 3435,
      "▁eksport": 3436,
      "-band": 3437,
      "dim.": 3438,
      "▁shaxsiy": 3439,
      "▁qurish": 3440,
      "kva": 3441,
      "zor": 3442,
      "maydi.": 3443,
      "▁paytda": 3444,
      "taraf": 3445,
      "▁doir": 3446,
      "▁murab": 3447,
      "zatsiya": 3448,
      "▁bo‘lin": 3449,
      "▁chora-tadbirlari": 3450,
      "▁qurilma": 3451,
      "▁Ar": 3452,
      "▁uchra": 3453,
      "▁uyi": 3454,
      "▁tax": 3455,
      "▁xulosa": 3456,
      "▁oldini": 3457,
      "▁fon": 3458,
      "▁yo‘lovchi": 3459,
      "▁so`": 3460,
      "Sa": 3461,
      "dal": 3462,
      "-de": 3463,
      "▁parti": 3464,
      "tishga": 3465,
      "▁his": 3466,
      "▁Biroq": 3467,
      "▁Agar": 3468,
      "▁yetish": 3469,
      "ttifo": 3470,
      "mda": 3471,
      "lahat": 3472,
      "▁issiq": 3473,
      "▁institu": 3474,
      "g‘on": 3475,
      "-ilova": 3476,
      "lar.\n": 3477,
      "▁vazirligi,": 3478,
      "▁insp": 3479,
      "dofaa": 3480,
      "klar": 3481,
      "▁ush": 3482,
      "▁xavfsizlik": 3483,
      "▁band": 3484,
      "▁shug‘ul": 3485,
      "sos": 3486,
      "▁“O": 3487,
      "Rossiya": 3488,
      "▁yo‘lga": 3489,
      "bos": 3490,
      "▁tekshir": 3491,
      "Ushbu": 3492,
      "▁31": 3493,
      "▁erkin": 3494,
      "voh": 3495,
      "metr": 3496,
      "▁vazirlik": 3497,
      "moqda,": 3498,
      "▁bartaraf": 3499,
      "▁lavozimi": 3500,
      "▁qilgan.": 3501,
      "▁tahri": 3502,
      "▁qarz": 3503,
      "▁kasallik": 3504,
      "-2": 3505,
      ".\n“": 3506,
      "▁amali": 3507,
      "kara": 3508,
      "▁majburiy": 3509,
      "▁o`t": 3510,
      "▁undan": 3511,
      "▁yur": 3512,
      "dul": 3513,
      "▁Moliya": 3514,
      "▁kons": 3515,
      "▁Kon": 3516,
      "▁etishi": 3517,
      "▁eshi": 3518,
      "kro": 3519,
      "▁biroq": 3520,
      "landi\n\n": 3521,
      "ransiya": 3522,
      "▁aksiya": 3523,
      "▁jiho": 3524,
      "ok": 3525,
      "▁kamida": 3526,
      "▁ilova": 3527,
      "▁port": 3528,
      "▁kurash": 3529,
      "▁chiqib": 3530,
      "▁Ni": 3531,
      "▁Hi": 3532,
      "▁dori": 3533,
      "▁poytax": 3534,
      ".\nA": 3535,
      "Ma’": 3536,
      "kuna": 3537,
      "buzar": 3538,
      "▁deputat": 3539,
      "▁berdi.": 3540,
      "▁kechi": 3541,
      "▁kirit": 3542,
      "▁yorda": 3543,
      "roz": 3544,
      "▁tuzil": 3545,
      "▁uchast": 3546,
      "gani,": 3547,
      "lanma": 3548,
      "▁Britaniya": 3549,
      "yotganini": 3550,
      "▁boy": 3551,
      "▁yog‘i": 3552,
      "’dagi": 3553,
      "▁nam": 3554,
      "▁qulay": 3555,
      "▁o‘ziga": 3556,
      "▁kundu": 3557,
      "pul": 3558,
      "▁sifat": 3559,
      "▁xizmatlari": 3560,
      "▁so‘zlariga": 3561,
      "▁40": 3562,
      "urta": 3563,
      "▁noq": 3564,
      "▁kilo": 3565,
      "▁maslahat": 3566,
      "ator": 3567,
      "uriya": 3568,
      "▁to‘lash": 3569,
      "▁texnika": 3570,
      "riba": 3571,
      "MT": 3572,
      "ling": 3573,
      "orati": 3574,
      "▁ustidan": 3575,
      "▁ov": 3576,
      "nit": 3577,
      "▁majburi": 3578,
      "▁kunlari": 3579,
      "▁tavsiya": 3580,
      "▁sog‘": 3581,
      "zadi": 3582,
      "Na": 3583,
      "ma-": 3584,
      "▁sanoat": 3585,
      "dorlik": 3586,
      "▁isloh": 3587,
      "ovchi": 3588,
      "▁sal": 3589,
      "-moddasi": 3590,
      "-sonli": 3591,
      "eksiyasi": 3592,
      "▁klub": 3593,
      "▁ijo": 3594,
      "Mazkur": 3595,
      "▁sah": 3596,
      "uquqi": 3597,
      "▁Ji": 3598,
      "▁nafari": 3599,
      "▁mart": 3600,
      "▁test": 3601,
      "mush": 3602,
      "▁majmu": 3603,
      "▁xa": 3604,
      "▁Farg‘ona": 3605,
      "ksina": 3606,
      "zokara": 3607,
      "▁javobgar": 3608,
      "▁mustaqil": 3609,
      "▁berdi.\n\n": 3610,
      "ridan": 3611,
      "tinchi": 3612,
      "▁aniqlangan": 3613,
      "sin.": 3614,
      "▁Shi": 3615,
      "fes": 3616,
      "lisi": 3617,
      "▁zi": 3618,
      "uquqiy": 3619,
      "▁hisobot": 3620,
      "▁bor.": 3621,
      "gan,": 3622,
      "poniya": 3623,
      "▁kiritilgan": 3624,
      "▁qildi": 3625,
      "surs": 3626,
      "AV": 3627,
      "▁keta": 3628,
      "▁qiz": 3629,
      "▁karan": 3630,
      "▁vaqtin": 3631,
      "-f": 3632,
      "▁Pu": 3633,
      "▁emas.": 3634,
      "▁jarohat": 3635,
      "▁valyu": 3636,
      "miyat": 3637,
      "▁tarzda": 3638,
      "▁hisoblanadi.": 3639,
      "▁lavozim": 3640,
      "s,": 3641,
      "▁000": 3642,
      "▁Ne": 3643,
      "▁tahlil": 3644,
      "stika": 3645,
      "qadaryo": 3646,
      "▁biznes": 3647,
      "▁Namangan": 3648,
      "▁Telegram": 3649,
      "▁yuzaga": 3650,
      "dik.": 3651,
      "99": 3652,
      "▁munosabati": 3653,
      "▁Andijon": 3654,
      "▁rioya": 3655,
      "▁muko": 3656,
      "”ga": 3657,
      "▁to‘ldi": 3658,
      "▁bundan": 3659,
      "-y": 3660,
      "mativ": 3661,
      "olib": 3662,
      "▁ma`": 3663,
      "’ga": 3664,
      "▁hola": 3665,
      "▁toi": 3666,
      "▁mas’": 3667,
      "uvchilar": 3668,
      "▁o‘zini": 3669,
      "abari": 3670,
      "▁3.": 3671,
      "ovqat": 3672,
      "50": 3673,
      "▁pan": 3674,
      "▁chora-tadbirlar": 3675,
      "dimi": 3676,
      "▁muloq": 3677,
      "qaror": 3678,
      "▁shahridagi": 3679,
      "▁kundan": 3680,
      "ektor": 3681,
      "g‘izi": 3682,
      "▁Qo‘": 3683,
      "▁suhbat": 3684,
      "▁ko‘mak": 3685,
      "lament": 3686,
      "g`i": 3687,
      "▁Buxoro": 3688,
      "▁dastlabki": 3689,
      "▁kasb": 3690,
      "ashqadaryo": 3691,
      "▁holati": 3692,
      "shida": 3693,
      "▁guvoh": 3694,
      "g‘iziston": 3695,
      "▁avva": 3696,
      "▁tadqiqot": 3697,
      "▁bermoqda.\n\n": 3698,
      "▁tajriba": 3699,
      "▁jamiyat": 3700,
      "qulo": 3701,
      "tika": 3702,
      "▁eva": 3703,
      "▁rad": 3704,
      "▁Bundan": 3705,
      "▁reji": 3706,
      "▁mablag‘lari": 3707,
      "▁aprel": 3708,
      "▁Bir": 3709,
      "▁jihat": 3710,
      "▁1,": 3711,
      "▁nomzod": 3712,
      "log": 3713,
      "▁hayot": 3714,
      "▁resurs": 3715,
      "lovi": 3716,
      "▁fe": 3717,
      "sum": 3718,
      "▁qoʻ": 3719,
      "chta": 3720,
      "▁kelishuv": 3721,
      "▁Hozir": 3722,
      "▁sohasidagi": 3723,
      "chon": 3724,
      "▁solish": 3725,
      "AQSh": 3726,
      "▁ko‘plab": 3727,
      "▁Afg‘oniston": 3728,
      "qib": 3729,
      "land": 3730,
      "ye": 3731,
      "Qayd": 3732,
      "▁komissiya": 3733,
      "▁qilishicha,": 3734,
      "▁jari": 3735,
      "▁chor": 3736,
      "jikiston": 3737,
      "masligi": 3738,
      "oskva": 3739,
      "▁almashtiril": 3740,
      "li,": 3741,
      "▁savol": 3742,
      "▁yashovchi": 3743,
      "▁tashab": 3744,
      "▁ishlarini": 3745,
      "▁vaksina": 3746,
      "▁yubor": 3747,
      "▁tarmo": 3748,
      "partam": 3749,
      "▁kadr": 3750,
      "▁buyurt": 3751,
      "gor": 3752,
      "▁foydalani": 3753,
      "adi.": 3754,
      "hur": 3755,
      "▁bo‘lgani": 3756,
      "▁sarf": 3757,
      "yanvar": 3758,
      "▁kamay": 3759,
      "yoh": 3760,
      "▁telefon": 3761,
      "▁Kengashi": 3762,
      "▁jihoz": 3763,
      "1.": 3764,
      "▁ul": 3765,
      "▁Se": 3766,
      "▁ta`": 3767,
      "▁qilindi.": 3768,
      "▁tin": 3769,
      "▁o‘zbek": 3770,
      "▁qo‘llab-quvvatlash": 3771,
      "▁o‘tish": 3772,
      "▁mo‘ljallangan": 3773,
      "▁baj": 3774,
      "▁muvaffaqi": 3775,
      "▁akt": 3776,
      "▁sum": 3777,
      "▁cho": 3778,
      "▁iste’mol": 3779,
      "▁aniqlash": 3780,
      "▁aha": 3781,
      "▁qaratilgan": 3782,
      "▁iliq": 3783,
      "lararo": 3784,
      "ng‘i": 3785,
      "▁fan": 3786,
      "di.\nB": 3787,
      "irg‘iziston": 3788,
      "▁Janubiy": 3789,
      "zal": 3790,
      "__": 3791,
      "▁tomonlama": 3792,
      "▁«B": 3793,
      "▁shta": 3794,
      "lanishicha,": 3795,
      "▁xabari": 3796,
      "ziq-": 3797,
      "▁bo`lgan": 3798,
      "▁ostida": 3799,
      "▁biti": 3800,
      "▁Germaniya": 3801,
      "▁olishi": 3802,
      "▁kotibi": 3803,
      "▁etilishicha,": 3804,
      "▁kechasi": 3805,
      "uch": 3806,
      "▁Eron": 3807,
      "▁chempiona": 3808,
      "ziq-ovqat": 3809,
      "orti": 3810,
      "▁bo‘lmay": 3811,
      "▁Yangi": 3812,
      "shyo": 3813,
      "▁qaroriga": 3814,
      "▁to‘q": 3815,
      "▁litsenziya": 3816,
      "Gol": 3817,
      "onna": 3818,
      "▁AJ": 3819,
      "▁kela": 3820,
      "▁ishchi": 3821,
      "▁sudi": 3822,
      "▁borasida": 3823,
      "▁by": 3824,
      "▁ro‘yxati": 3825,
      "▁kuti": 3826,
      "xira": 3827,
      "-may": 3828,
      "maslik": 3829,
      "▁yong‘in": 3830,
      "▁unda": 3831,
      "▁tartibga": 3832,
      "▁qiladi.\n": 3833,
      "yapti.": 3834,
      "▁Er": 3835,
      "▁til": 3836,
      "-3": 3837,
      "sk": 3838,
      "▁aks": 3839,
      "▁bori": 3840,
      "tet": 3841,
      "▁mag‘": 3842,
      "vor": 3843,
      "▁boʻyicha": 3844,
      "2.": 3845,
      "▁bay": 3846,
      "say": 3847,
      "▁komplek": 3848,
      "tisos": 3849,
      "rate": 3850,
      "likdan": 3851,
      "▁izo": 3852,
      "zat": 3853,
      "stru": 3854,
      "/s": 3855,
      "▁bo‘lim": 3856,
      "qulodda": 3857,
      "yani": 3858,
      "gra": 3859,
      "▁yozadi": 3860,
      "tildi.": 3861,
      "tishicha,": 3862,
      "Real": 3863,
      "▁qoldi": 3864,
      "▁mahsulotlari": 3865,
      "▁sotish": 3866,
      "▁etadi.": 3867,
      "▁2016": 3868,
      "▁zim": 3869,
      "▁hokimligi": 3870,
      "▁muzokara": 3871,
      "ktor": 3872,
      "▁tushgan": 3873,
      "-ki": 3874,
      "▁bo`yicha": 3875,
      "▁o`z": 3876,
      "▁vazifasi": 3877,
      "▁kerak.\n": 3878,
      "▁o‘sha": 3879,
      "▁berdi": 3880,
      "▁yoshlar": 3881,
      "urxon": 3882,
      "▁kunduzi": 3883,
      "▁Navoiy": 3884,
      "izza": 3885,
      "abi": 3886,
      "▁tug‘ilgan": 3887,
      "Va": 3888,
      "▁imtiyo": 3889,
      "▁lekin": 3890,
      "▁for": 3891,
      "biri": 3892,
      "▁qiyin": 3893,
      "▁hisobidan": 3894,
      "▁ro‘yxatdan": 3895,
      "▁muvaffaqiyat": 3896,
      "▁siyosiy": 3897,
      "ana": 3898,
      "▁tezkor": 3899,
      "▁maso": 3900,
      "da.": 3901,
      "▁shifokor": 3902,
      "▁Che": 3903,
      "▁tanish": 3904,
      "-m": 3905,
      "arsel": 3906,
      "▁erka": 3907,
      "▁kurashish": 3908,
      "anch": 3909,
      "man,": 3910,
      "▁mavsum": 3911,
      "▁mol": 3912,
      "▁O‘z": 3913,
      "stitut": 3914,
      "▁uchastka": 3915,
      "dri": 3916,
      "▁temir": 3917,
      "batta": 3918,
      "Ga": 3919,
      "▁tanlov": 3920,
      "▁endi": 3921,
      "▁muloqot": 3922,
      "▁operatsiya": 3923,
      "▁fun": 3924,
      "▁met": 3925,
      "-mart": 3926,
      "▁tonna": 3927,
      "Mu": 3928,
      "ren": 3929,
      "▁af": 3930,
      "bot": 3931,
      "▁Yo": 3932,
      "▁topil": 3933,
      "garchilik": 3934,
      "-huquqiy": 3935,
      "▁valyuta": 3936,
      ")\n": 3937,
      "zimida": 3938,
      "yishi": 3939,
      "lmaydi.": 3940,
      "AT": 3941,
      "▁normativ": 3942,
      "▁Amerika": 3943,
      "▁oxi": 3944,
      "▁harakati": 3945,
      "▁bahs": 3946,
      "▁Jinoyat": 3947,
      "yoq": 3948,
      "▁Toshkentda": 3949,
      "yon": 3950,
      "novat": 3951,
      "masini": 3952,
      "ester": 3953,
      "-p": 3954,
      "▁oshiriladi.\n": 3955,
      "-aprel": 3956,
      "▁ta’mino": 3957,
      "▁koronavirusga": 3958,
      "▁A.": 3959,
      "▁xizmatlar": 3960,
      "▁odamlar": 3961,
      "▁mamlakati": 3962,
      "▁bitta": 3963,
      "▁yo‘nalishi": 3964,
      "ermer": 3965,
      "▁muassasalari": 3966,
      "izzax": 3967,
      "▁rus": 3968,
      "▁Ro": 3969,
      "▁(2": 3970,
      "▁past": 3971,
      "▁zaxira": 3972,
      "avgust": 3973,
      "▁standar": 3974,
      "▁olina": 3975,
      "▁bajarish": 3976,
      "▁ko‘chi": 3977,
      "▁boshla": 3978,
      "▁xil": 3979,
      "10": 3980,
      "arselona": 3981,
      "▁kol": 3982,
      "▁ehtiyo": 3983,
      "▁imkoniyati": 3984,
      "▁imp": 3985,
      "▁kiriti": 3986,
      "▁mamlakatda": 3987,
      "lingan": 3988,
      "▁sheri": 3989,
      "lanayotgan": 3990,
      "NI": 3991,
      "▁huquqiy": 3992,
      "mb": 3993,
      "Hu": 3994,
      "▁daqiqa": 3995,
      "▁profes": 3996,
      "▁rahbarlari": 3997,
      "▁bara": 3998,
      "Hozir": 3999,
      "▁tashkilotlari": 4000,
      "▁Lekin": 4001,
      "▁iqtisodiyot": 4002,
      "▁tashkiloti": 4003,
      "munikatsiya": 4004,
      "ngiz,": 4005,
      "▁muddati": 4006,
      "▁ulu": 4007,
      "▁jarima": 4008,
      "ndiston": 4009,
      "▁moliyalashtirish": 4010,
      "fida": 4011,
      "▁bosqichi": 4012,
      "▁aynan": 4013,
      "▁Suriya": 4014,
      "psiya": 4015,
      "▁kuchga": 4016,
      "▁hujjatlarni": 4017,
      "▁60": 4018,
      "▁ham,": 4019,
      "▁sug‘urta": 4020,
      "▁qo‘z": 4021,
      "rum": 4022,
      "▁a'": 4023,
      "qobat": 4024,
      "▁qilishni": 4025,
      "-19": 4026,
      "’ning": 4027,
      "▁uy-joy": 4028,
      "▁samolyot": 4029,
      "▁barqaror": 4030,
      ".\nU": 4031,
      "▁ota-": 4032,
      "laydi": 4033,
      "▁jiddiy": 4034,
      "shon": 4035,
      "▁majburiyat": 4036,
      "rildi.": 4037,
      "▁foydalanuvchi": 4038,
      "\n\n\n\n": 4039,
      "ov,": 4040,
      "▁noqonuniy": 4041,
      "mlari": 4042,
      "ertifi": 4043,
      "taliya": 4044,
      "uqur": 4045,
      "▁tezlikda": 4046,
      "▁Qu": 4047,
      "▁tinch": 4048,
      "▁“Q": 4049,
      "▁Respublika": 4050,
      "▁o‘qituvchi": 4051,
      "lanmagan": 4052,
      "▁“Y": 4053,
      "▁masofa": 4054,
      "▁Qonunchilik": 4055,
      "langani": 4056,
      "▁toza": 4057,
      "▁yillarda": 4058,
      "▁kengaytirish": 4059,
      "▁jo‘": 4060,
      "-da": 4061,
      "▁izoh": 4062,
      "o‘g‘ri": 4063,
      "mizning": 4064,
      "▁dekabr": 4065,
      "▁jamg‘armasi": 4066,
      "abr": 4067,
      "▁hali": 4068,
      "-iyul": 4069,
      "uter": 4070,
      "▁Men": 4071,
      "▁baholash": 4072,
      "bul": 4073,
      "▁yopi": 4074,
      "▁W": 4075,
      "lashicha,": 4076,
      "▁jino": 4077,
      "-sh": 4078,
      "atto": 4079,
      "ju": 4080,
      "m,": 4081,
      "▁o`r": 4082,
      "alli": 4083,
      "▁tariqa": 4084,
      "▁haydovchi": 4085,
      "▁oshir": 4086,
      "▁qisqar": 4087,
      "▁ulardan": 4088,
      "▁qut": 4089,
      "▁O‘zbekistonning": 4090,
      "▁usta": 4091,
      "radi": 4092,
      "▁etildi.": 4093,
      "▁nuq": 4094,
      "zini": 4095,
      "▁beradi.": 4096,
      "▁qo‘llani": 4097,
      "▁jurnalist": 4098,
      "Prezident": 4099,
      "▁qatnash": 4100,
      "▁boshqaruv": 4101,
      "▁Putin": 4102,
      "▁etiladi.\n": 4103,
      "orta": 4104,
      "lan,": 4105,
      "▁safar": 4106,
      "▁oziq-ovqat": 4107,
      "▁ikkita": 4108,
      "▁chiqil": 4109,
      "▁ixtisos": 4110,
      "▁kes": 4111,
      "\n\nO‘zbekiston": 4112,
      "rilmoqda.": 4113,
      "▁Xalq": 4114,
      "▁yevro": 4115,
      "▁Ah": 4116,
      "▁etishga": 4117,
      "laydigan": 4118,
      "▁hujjatlariga": 4119,
      "▁Chi": 4120,
      "dini": 4121,
      "3.": 4122,
      "▁a'zo": 4123,
      "▁bo‘ylab": 4124,
      "▁raqami": 4125,
      "▁islohot": 4126,
      "▁strate": 4127,
      "tirgan": 4128,
      "▁birga,": 4129,
      "▁O‘zbekistonga": 4130,
      "▁go‘": 4131,
      "sizlik": 4132,
      "lari”": 4133,
      "tilgan.": 4134,
      "▁shakli": 4135,
      "▁iyul": 4136,
      "ngli": 4137,
      "▁bo‘ladi": 4138,
      "-dekabr": 4139,
      "▁nus": 4140,
      "lansin.\n": 4141,
      "rakt": 4142,
      "’ni": 4143,
      "▁chuqur": 4144,
      "▁zimmasiga": 4145,
      "▁o‘yna": 4146,
      "▁qo‘yilgan": 4147,
      "▁vazirligining": 4148,
      "’zi": 4149,
      "▁harakatlari": 4150,
      "▁tekshiruv": 4151,
      ":2": 4152,
      "▁ta’sir": 4153,
      "▁avgust": 4154,
      "▁mingdan": 4155,
      "spaniya": 4156,
      "▁yordamida": 4157,
      "▁so‘zlar": 4158,
      "tsiyasi": 4159,
      "▁Moskva": 4160,
      "▁kelayotgan": 4161,
      "▁«A": 4162,
      "▁dollarga": 4163,
      "▁«M": 4164,
      "▁agar": 4165,
      "▁raqobat": 4166,
      "nada": 4167,
      "di.\n“": 4168,
      "sanoat": 4169,
      "mizga": 4170,
      "OV": 4171,
      "▁jan": 4172,
      "g‘ish": 4173,
      "▁tijorat": 4174,
      "▁internet": 4175,
      "▁o‘rganish": 4176,
      "araqqi": 4177,
      "▁Fransiya": 4178,
      "stor": 4179,
      "▁fili": 4180,
      "sional": 4181,
      "▁neft": 4182,
      "gal": 4183,
      "nati": 4184,
      "ez": 4185,
      "▁Tashqi": 4186,
      "moliy": 4187,
      "▁Ichki": 4188,
      "▁sahi": 4189,
      "-avgust": 4190,
      "▁Liga": 4191,
      "limpi": 4192,
      "ligida": 4193,
      "▁4.": 4194,
      "▁amaliy": 4195,
      "udiya": 4196,
      "hqon": 4197,
      "▁tasdiqlash": 4198,
      "▁hajmi": 4199,
      "layn": 4200,
      "urxondaryo": 4201,
      "xirgi": 4202,
      "mid": 4203,
      "▁Po": 4204,
      "▁chiqarilgan": 4205,
      "▁hamma": 4206,
      "▁tarix": 4207,
      "▁(O‘zbekiston": 4208,
      "bur": 4209,
      "oto": 4210,
      "▁rejalashtirilgan": 4211,
      "▁ochko": 4212,
      "▁etish,": 4213,
      "▁pun": 4214,
      "▁eksperti": 4215,
      "▁siyosa": 4216,
      "▁ayni": 4217,
      "▁hollarda": 4218,
      "▁Tojikiston": 4219,
      "g‘li": 4220,
      "tiruvchi": 4221,
      "▁shakllantirish": 4222,
      "▁noyabr": 4223,
      "▁majbur": 4224,
      "▁aytishicha,": 4225,
      "▁sertifi": 4226,
      "-tex": 4227,
      "▁jamoatchilik": 4228,
      "▁qisqa": 4229,
      "AR": 4230,
      "▁OAV": 4231,
      "▁yetakchi": 4232,
      "▁keskin": 4233,
      "▁o‘zbekiston": 4234,
      "▁viloyatlar": 4235,
      "▁2022": 4236,
      "▁kech": 4237,
      "▁mexa": 4238,
      "may,": 4239,
      "\",": 4240,
      "sno": 4241,
      "b-": 4242,
      "▁samarador": 4243,
      "▁kino": 4244,
      "▁turadi,": 4245,
      "▁xavfsizligi": 4246,
      "▁qonuniy": 4247,
      "bit": 4248,
      "▁ijara": 4249,
      "lekt": 4250,
      "onasi": 4251,
      "▁umum": 4252,
      "▁xonadon": 4253,
      "▁dip": 4254,
      "▁kur": 4255,
      "ttifoqi": 4256,
      "▁Qirg‘iziston": 4257,
      "mlik": 4258,
      "2018": 4259,
      "▁pre": 4260,
      "▁fermer": 4261,
      "▁Ti": 4262,
      "▁bo‘ldi": 4263,
      "▁xalqi": 4264,
      "▁90": 4265,
      "masdan": 4266,
      "tlari": 4267,
      "o‘p": 4268,
      "▁o‘tdi.": 4269,
      "maniston": 4270,
      "▁Yaponiya": 4271,
      "▁hisobiga": 4272,
      "▁yashash": 4273,
      "diga": 4274,
      "▁o‘zgarish": 4275,
      "▁qildi\n\n": 4276,
      "-no": 4277,
      "▁BMT": 4278,
      "tga": 4279,
      "▁universiteti": 4280,
      "▁mobay": 4281,
      "▁ata": 4282,
      "▁yangilik": 4283,
      "unar": 4284,
      "▁bugungi": 4285,
      "▁yetib": 4286,
      "smi": 4287,
      "-ma": 4288,
      "▁Xalqaro": 4289,
      "▁farzand": 4290,
      "▁yengil": 4291,
      "▁Qi": 4292,
      "▁lozim.\n": 4293,
      "▁huk": 4294,
      "▁sog‘liqni": 4295,
      "▁yo‘q.": 4296,
      "▁topshiriq": 4297,
      "tat": 4298,
      "-o‘rin": 4299,
      "sga": 4300,
      ",2": 4301,
      "mun": 4302,
      "chini": 4303,
      "arakat": 4304,
      ".,": 4305,
      "▁o‘si": 4306,
      "▁karantin": 4307,
      "▁qo‘shimchalar": 4308,
      "-yanvar": 4309,
      "-sentabr": 4310,
      "▁ko‘zda": 4311,
      "eksiya": 4312,
      "▁bo‘la": 4313,
      "oriya": 4314,
      "jjat": 4315,
      "▁Ga": 4316,
      "▁tarmog‘i": 4317,
      "▁mansab": 4318,
      "ket": 4319,
      "qul": 4320,
      "laydi.\n": 4321,
      "▁ishtirokida": 4322,
      "▁madaniy": 4323,
      "Davlat": 4324,
      "▁35": 4325,
      "▁buyurtma": 4326,
      "▁turmush": 4327,
      "▁qancha": 4328,
      "zam": 4329,
      "ment": 4330,
      "▁Vi": 4331,
      "▁ishlarni": 4332,
      "▁kodeksining": 4333,
      "TI": 4334,
      "▁mahrum": 4335,
      "▁Di": 4336,
      "▁namuna": 4337,
      "’iy": 4338,
      "▁Adliya": 4339,
      "▁avia": 4340,
      ".\nS": 4341,
      "▁turar": 4342,
      "kkinchi": 4343,
      "un.uz": 4344,
      "▁jarayoni": 4345,
      "▁natijalari": 4346,
      "lar”": 4347,
      "4.": 4348,
      "tot": 4349,
      "▁kiyi": 4350,
      "▁yo‘nal": 4351,
      "tel": 4352,
      "▁qurilishi": 4353,
      "▁masalalar": 4354,
      "▁mashhur": 4355,
      "▁hamkor": 4356,
      "▁xodimi": 4357,
      "▁mobaynida": 4358,
      "▁tarixi": 4359,
      "▁Pa": 4360,
      "▁subyekt": 4361,
      "▁“P": 4362,
      "maydigan": 4363,
      "▁yetarli": 4364,
      "-oktabr": 4365,
      "lar)": 4366,
      "▁“I": 4367,
      "lega": 4368,
      "orish": 4369,
      ",6": 4370,
      "2020": 4371,
      "▁fevral": 4372,
      "▁qilinishicha,": 4373,
      "▁Ter": 4374,
      "larini,": 4375,
      "▁San": 4376,
      "▁vazirining": 4377,
      "▁shaxslarning": 4378,
      "umli": 4379,
      "▁muz": 4380,
      "uzil": 4381,
      "▁tahrirda": 4382,
      "▁olishga": 4383,
      ",4": 4384,
      "lanishini": 4385,
      "▁etiladi.": 4386,
      "▁miqdorida": 4387,
      "▁davlatlar": 4388,
      "▁oldi.": 4389,
      "▁yigi": 4390,
      "qish": 4391,
      "landiya": 4392,
      "▁aylan": 4393,
      "▁Shar": 4394,
      ".\n«": 4395,
      "▁Ki": 4396,
      "▁holda,": 4397,
      "matik": 4398,
      "▁buyum": 4399,
      "lashish": 4400,
      "ova": 4401,
      "LI": 4402,
      "▁qilindi.\n": 4403,
      "Li": 4404,
      "▁jarayonida": 4405,
      "fe": 4406,
      "▁oylik": 4407,
      "▁ilgari": 4408,
      "▁jinoiy": 4409,
      "-yil,": 4410,
      "moqda\n\n": 4411,
      "▁lozim.": 4412,
      "ayev": 4413,
      "vosi": 4414,
      "ratuzil": 4415,
      "lashuv": 4416,
      "▁kutil": 4417,
      "▁nafaqat": 4418,
      "▁departam": 4419,
      "▁yog‘in": 4420,
      "▁turdagi": 4421,
      "zib": 4422,
      "▁(sh": 4423,
      "▁davrida": 4424,
      "rupsiya": 4425,
      ",7": 4426,
      "▁navbatdagi": 4427,
      "▁hisob-ki": 4428,
      "▁mavzu": 4429,
      "▁Abdul": 4430,
      "▁teleka": 4431,
      "▁hamkorlikni": 4432,
      "▁olib,": 4433,
      "▁ovqat": 4434,
      "▁oq": 4435,
      "▁ancha": 4436,
      "Tur": 4437,
      "▁hisoblanadi.\n": 4438,
      "▁tanqi": 4439,
      "▁chiqarib": 4440,
      "davlat": 4441,
      "▁o'": 4442,
      "▁atrof": 4443,
      "▁ekanini": 4444,
      "▁au": 4445,
      "▁jo": 4446,
      "ra,": 4447,
      "▁taraqqi": 4448,
      "▁Ho": 4449,
      "-4": 4450,
      "-iyun": 4451,
      "Ay": 4452,
      "▁uskuna": 4453,
      "orazm": 4454,
      "▁bazasi": 4455,
      "24": 4456,
      "▁Jizzax": 4457,
      "▁ekspert": 4458,
      "▁paxta": 4459,
      "hamma": 4460,
      "▁chiqib,": 4461,
      "▁Yun": 4462,
      "▁yon": 4463,
      "▁o‘zgarib": 4464,
      "▁Qonu": 4465,
      "▁ziyo": 4466,
      "▁zavo": 4467,
      "-noyabr": 4468,
      "mi?": 4469,
      "ususan,": 4470,
      "▁oshirilishi": 4471,
      "▁hisobida": 4472,
      "los": 4473,
      "▁yog‘ingarchilik": 4474,
      "▁infratuzil": 4475,
      "▁Fe": 4476,
      "▁Qashqadaryo": 4477,
      "▁saqlab": 4478,
      "▁Qar": 4479,
      "mizni": 4480,
      "▁yo‘qo": 4481,
      "choq": 4482,
      "▁ko‘rini": 4483,
      "▁qatna": 4484,
      "▁500": 4485,
      "▁vakolatli": 4486,
      "▁markaziy": 4487,
      "▁iyun": 4488,
      "ddin": 4489,
      "▁qon": 4490,
      "anchester": 4491,
      "▁dona": 4492,
      "▁jabr": 4493,
      "▁jamiyati": 4494,
      "▁ehtiyoj": 4495,
      "▁instituti": 4496,
      "joz": 4497,
      "’at": 4498,
      "▁o‘zida": 4499,
      "▁ko‘pay": 4500,
      ",3": 4501,
      "▁bo‘ldi\n\n": 4502,
      "Xal": 4503,
      "▁yuritish": 4504,
      "Gollar:": 4505,
      "-iqtisodiy": 4506,
      "▁kuzat": 4507,
      "▁tayyorgarlik": 4508,
      "▁takliflar": 4509,
      "▁mexani": 4510,
      "▁o‘ldi": 4511,
      "oma": 4512,
      "lashni": 4513,
      "Biz": 4514,
      "▁aytib": 4515,
      "Ma'": 4516,
      "udj": 4517,
      "▁murabbiy": 4518,
      "▁qir": 4519,
      "▁5.": 4520,
      "▁to‘rt": 4521,
      "▁imtiyoz": 4522,
      "▁final": 4523,
      "-da,": 4524,
      "▁imti": 4525,
      "▁Kari": 4526,
      "likning": 4527,
      "▁miqdorda": 4528,
      "▁Ye": 4529,
      "▁tekshirish": 4530,
      "▁sherik": 4531,
      "ST": 4532,
      "▁qilgan.\n": 4533,
      "▁topi": 4534,
      "di”,": 4535,
      "▁chiqari": 4536,
      "radi.\n": 4537,
      "dir.\n": 4538,
      "yib": 4539,
      "-fevral": 4540,
      "▁em": 4541,
      "▁70": 4542,
      "▁partiya": 4543,
      "▁evaziga": 4544,
      "ogi": 4545,
      "jak": 4546,
      "▁yut": 4547,
      "Bundan": 4548,
      "▁Lu": 4549,
      "▁viloyatining": 4550,
      "▁eko": 4551,
      "gʻri": 4552,
      "▁kitob": 4553,
      "▁vositasi": 4554,
      "▁qaysi": 4555,
      "▁etgan.": 4556,
      "▁rozi": 4557,
      "▁(ke": 4558,
      "▁trans": 4559,
      "▁tili": 4560,
      "▁delega": 4561,
      "▁Telegram’dagi": 4562,
      "▁insho": 4563,
      "▁tanishi": 4564,
      "▁ta’mir": 4565,
      "g‘ulot": 4566,
      "irdaryo": 4567,
      "▁mode": 4568,
      "▁Bunda": 4569,
      "ler": 4570,
      "▁chiqaruvchi": 4571,
      "-5": 4572,
      ",1": 4573,
      "tiladi.\n": 4574,
      "▁qildi,": 4575,
      "dlar": 4576,
      "▁o‘yi": 4577,
      "▁kafo": 4578,
      ",8": 4579,
      "▁ta’limi": 4580,
      "rip": 4581,
      "zida": 4582,
      "▁suratga": 4583,
      "▁usul": 4584,
      "dago": 4585,
      "▁Mo": 4586,
      "▁e'tibor": 4587,
      "o‘ra": 4588,
      "▁shifoxona": 4589,
      "▁ro‘yxatga": 4590,
      "▁ahamiyat": 4591,
      "nita": 4592,
      "▁taqdirda": 4593,
      "▁As": 4594,
      "Yangi": 4595,
      "di.\n«": 4596,
      "lashtirish,": 4597,
      "▁undi": 4598,
      "▁ara": 4599,
      "▁fuqarolarning": 4600,
      "▁tartibini": 4601,
      "ster": 4602,
      "▁ma’muriy": 4603,
      "enko": 4604,
      "▁qavat": 4605,
      "filak": 4606,
      "stra": 4607,
      "▁o‘rinlarda": 4608,
      "▁mahsulotlar": 4609,
      "▁holatda": 4610,
      "▁huquqlari": 4611,
      "▁yilga": 4612,
      "▁stati": 4613,
      "tni": 4614,
      "▁monit": 4615,
      "▁turizm": 4616,
      "▁tayani": 4617,
      "▁shartnomasi": 4618,
      "asidagi": 4619,
      "kazilgan": 4620,
      "▁2015": 4621,
      "▁mualli": 4622,
      "▁oshirilgan": 4623,
      "▁Unda": 4624,
      "▁ketishi": 4625,
      "▁bilim": 4626,
      "▁Jahon": 4627,
      "▁bo'": 4628,
      "▁bajar": 4629,
      "▁ogoh": 4630,
      "bal": 4631,
      "tiladi.": 4632,
      "ff": 4633,
      "2019": 4634,
      "▁Sog‘liqni": 4635,
      "▁“Daryo”ning": 4636,
      "uvor": 4637,
      "▁ro‘yxa": 4638,
      "▁@": 4639,
      "▁muxbiri": 4640,
      "▁yechi": 4641,
      "qbol": 4642,
      "gach,": 4643,
      "▁kirib": 4644,
      "▁dam": 4645,
      "▁erkak": 4646,
      "g‘oz": 4647,
      "nitariya": 4648,
      "▁biroz": 4649,
      "’da": 4650,
      "▁chog‘ida": 4651,
      "▁talablariga": 4652,
      "▁ta'minlash": 4653,
      "izmat": 4654,
      "mosha": 4655,
      ".A": 4656,
      "▁g‘olib": 4657,
      "onlar": 4658,
      "▁erta": 4659,
      "▁ve": 4660,
      "▁o‘zbekistonlik": 4661,
      "onald": 4662,
      "zeta": 4663,
      "pe": 4664,
      "Te": 4665,
      "bili": 4666,
      "▁bo`l": 4667,
      "▁Surxondaryo": 4668,
      "uncha": 4669,
      "▁tumanidagi": 4670,
      "▁yashi": 4671,
      "▁o‘rtacha": 4672,
      "▁amaldagi": 4673,
      "▁“N": 4674,
      "▁ustuvor": 4675,
      "qli": 4676,
      "▁(keyingi": 4677,
      "▁borada": 4678,
      "rol": 4679,
      "▁Islom": 4680,
      "▁‘": 4681,
      "▁ekanligini": 4682,
      "▁stav": 4683,
      "▁«S": 4684,
      "▁bag‘ish": 4685,
      "-12": 4686,
      "▁80": 4687,
      "anda": 4688,
      "ng,": 4689,
      "19": 4690,
      "▁Axborot": 4691,
      "▁Qur": 4692,
      "▁avtobus": 4693,
      "G‘": 4694,
      "▁etuvchi": 4695,
      "Ke": 4696,
      "▁imkonini": 4697,
      "▁toʻgʻri": 4698,
      ".\nM": 4699,
      "▁bo‘lgan,": 4700,
      "▁hayoti": 4701,
      "▁mansabdor": 4702,
      "▁virus": 4703,
      "tazam": 4704,
      "▁obuna": 4705,
      "»ga": 4706,
      "▁Huku": 4707,
      "▁dehqon": 4708,
      "▁“O‘z": 4709,
      "▁erishi": 4710,
      "novatsion": 4711,
      "cebo": 4712,
      "▁qish": 4713,
      "▁tamo": 4714,
      "tiladi": 4715,
      "▁salohi": 4716,
      "salan,": 4717,
      "▁yo‘qot": 4718,
      "▁Ish": 4719,
      "keta": 4720,
      "giron": 4721,
      "▁ma’lumotlarni": 4722,
      "▁Vladi": 4723,
      "▁mas’ul": 4724,
      "▁La": 4725,
      "▁Hindiston": 4726,
      "alla": 4727,
      "▁baza": 4728,
      "▁shaxslarga": 4729,
      "sangiz,": 4730,
      "▁Ang": 4731,
      "vosita": 4732,
      "▁qachon": 4733,
      "▁muta": 4734,
      "▁tuza": 4735,
      "▁yomon": 4736,
      "▁Kar": 4737,
      "▁oshirishga": 4738,
      "-mul": 4739,
      "▁buyur": 4740,
      "▁idoralar": 4741,
      "▁xos": 4742,
      "▁politsiya": 4743,
      "▁buni": 4744,
      "▁sifatli": 4745,
      "▁chiqishi": 4746,
      "▁hatto": 4747,
      "▁ur": 4748,
      "▁smart": 4749,
      "▁sin": 4750,
      "▁madaniyat": 4751,
      "roil": 4752,
      "12": 4753,
      "”ning": 4754,
      "▁shamol": 4755,
      "▁qildi.\n\n": 4756,
      "▁bunga": 4757,
      "▁hisob-kitob": 4758,
      "tiladigan": 4759,
      "layotgani": 4760,
      "tsi": 4761,
      "▁monitori": 4762,
      "”ni": 4763,
      "▁korxonasi": 4764,
      "▁o‘l": 4765,
      "▁kilometr": 4766,
      "uddi": 4767,
      "▁kompleks": 4768,
      "▁fav": 4769,
      "yer": 4770,
      "▁payt": 4771,
      "▁berilishi": 4772,
      "▁choralar": 4773,
      "Ha": 4774,
      "▁deyarli": 4775,
      "▁akademi": 4776,
      "rashuv": 4777,
      "orozi": 4778,
      "ChJ": 4779,
      "ziz": 4780,
      "▁Majlisi": 4781,
      "▁qilingan.": 4782,
      "2021": 4783,
      "▁muntazam": 4784,
      "▁qilayotgan": 4785,
      "▁tusha": 4786,
      "▁mukofot": 4787,
      "▁ehti": 4788,
      "▁shiko": 4789,
      "▁kapi": 4790,
      "▁holatlari": 4791,
      "▁oluvchi": 4792,
      "ti,": 4793,
      "▁muddatli": 4794,
      "▁rivojlanish": 4795,
      "geti": 4796,
      "ubogi": 4797,
      "▁ijobiy": 4798,
      "▁mablag‘lar": 4799,
      "▁siyosat": 4800,
      "▁Ularning": 4801,
      "▁oshirish,": 4802,
      "▁MChJ": 4803,
      "▁(“": 4804,
      "larni,": 4805,
      "kidlanishicha,": 4806,
      "▁qo‘mita": 4807,
      "di\n": 4808,
      "▁jihatdan": 4809,
      "▁Ara": 4810,
      "▁onlayn": 4811,
      "archa": 4812,
      "▁tashrifi": 4813,
      "▁“E": 4814,
      "uldu": 4815,
      "ilov": 4816,
      "▁barpo": 4817,
      "'zi": 4818,
      "dio": 4819,
      "5.": 4820,
      "cebook": 4821,
      "▁kg": 4822,
      "met": 4823,
      "sul": 4824,
      "▁qog‘oz": 4825,
      "▁qora": 4826,
      "kompaniya": 4827,
      "sligi": 4828,
      "umi": 4829,
      "▁amaliyot": 4830,
      "stoni": 4831,
      "▁tark": 4832,
      "▁institut": 4833,
      "▁uchrashuvi": 4834,
      "chrashuv": 4835,
      "▁Buyuk": 4836,
      "-tur": 4837,
      "▁diplo": 4838,
      "tadi.": 4839,
      "▁Ban": 4840,
      "smon": 4841,
      "g‘bat": 4842,
      "▁ba’zi": 4843,
      "ASS": 4844,
      "▁ko`r": 4845,
      "langan.\n": 4846,
      "OVID": 4847,
      "zin": 4848,
      "▁PQ": 4849,
      "▁bugun": 4850,
      "▁yaqi": 4851,
      "hammad": 4852,
      "asini": 4853,
      "▁inshoot": 4854,
      "▁36": 4855,
      "qdan": 4856,
      "urmat": 4857,
      "gich": 4858,
      "▁mijoz": 4859,
      "▁tuzilgan": 4860,
      "▁Sho": 4861,
      "bdan": 4862,
      "▁norozi": 4863,
      "uni": 4864,
      "stagram": 4865,
      "▁geo": 4866,
      "diruv": 4867,
      "▁chaqir": 4868,
      "soz": 4869,
      "lagan.": 4870,
      "kas": 4871,
      "ber": 4872,
      "ON": 4873,
      "nggi": 4874,
      "batga": 4875,
      "▁aholining": 4876,
      "▁ino": 4877,
      "chiq": 4878,
      "▁Ber": 4879,
      ");\n": 4880,
      "Gazeta": 4881,
      "▁mol-mul": 4882,
      "▁rag‘bat": 4883,
      "▁parlament": 4884,
      "▁hujjatlarida": 4885,
      "tin-qi": 4886,
      "oyiha": 4887,
      "tqi": 4888,
      "▁birlash": 4889,
      "▁o‘yinda": 4890,
      "struksiya": 4891,
      "▁yoʻ": 4892,
      "23": 4893,
      "▁marosi": 4894,
      "▁boks": 4895,
      "chilarning": 4896,
      "▁foydalanishga": 4897,
      "▁mashg‘ulot": 4898,
      "▁o‘x": 4899,
      "larus": 4900,
      "▁33": 4901,
      "boyev": 4902,
      "ES": 4903,
      "variya": 4904,
      "▁Bunday": 4905,
      "g'": 4906,
      "▁vaqtincha": 4907,
      "▁huquqbuzar": 4908,
      "▁a’zolari": 4909,
      "”.\n": 4910,
      "ngizni": 4911,
      "”.": 4912,
      "▁oxirgi": 4913,
      "kab": 4914,
      "▁mudofaa": 4915,
      "▁oltin": 4916,
      "▁bo‘ldi.\n": 4917,
      "▁ichiga": 4918,
      "▁2014": 4919,
      "▁fikri": 4920,
      "▁haqiqiy": 4921,
      "▁etilgan.": 4922,
      "▁inobatga": 4923,
      "O‘z": 4924,
      "FA": 4925,
      "▁dars": 4926,
      "▁“R": 4927,
      "shidan": 4928,
      "▁hozirgi": 4929,
      "▁cheklov": 4930,
      "▁imtihon": 4931,
      "▁ko‘rsata": 4932,
      "▁Vladimir": 4933,
      ".ru": 4934,
      "▁terror": 4935,
      "▁sovuq": 4936,
      "▁Olimpi": 4937,
      "omi": 4938,
      "▁olmay": 4939,
      "▁Pe": 4940,
      "▁tomosha": 4941,
      "▁o‘rnatilgan": 4942,
      "▁46": 4943,
      "▁mazm": 4944,
      "ssiya": 4945,
      "▁seri": 4946,
      "▁xavfli": 4947,
      "-x": 4948,
      "▁kafolat": 4949,
      "▁davr": 4950,
      "▁bois": 4951,
      "▁loyihasini": 4952,
      "▁qilinadi.": 4953,
      "OVID-19": 4954,
      "fasida": 4955,
      "yaga": 4956,
      "-u": 4957,
      "▁(3": 4958,
      "▁Rah": 4959,
      "▁nuqta": 4960,
      "▁6.": 4961,
      "gno": 4962,
      "▁muxlis": 4963,
      "▁holatlar": 4964,
      "figa": 4965,
      "▁ko‘ch": 4966,
      "▁Rossiyaning": 4967,
      "▁hosil": 4968,
      "▁olgan.": 4969,
      "▁ota-ona": 4970,
      "▁o‘chi": 4971,
      "▁Sen": 4972,
      "▁iste'": 4973,
      "▁Jam": 4974,
      "jtimoiy": 4975,
      "▁ona": 4976,
      "atar": 4977,
      "str": 4978,
      "Ma’lumot": 4979,
      "▁ziyod": 4980,
      "▁vaz": 4981,
      "deratsiyasi": 4982,
      "▁Ham": 4983,
      "7.": 4984,
      "mlakat": 4985,
      "▁qarab": 4986,
      "▁hamkorlikda": 4987,
      "com": 4988,
      "▁Buning": 4989,
      "▁etdi.\n": 4990,
      "▁olti": 4991,
      "dlik": 4992,
      "▁hokimiyati": 4993,
      "IV": 4994,
      "asiga": 4995,
      "▁Xorazm": 4996,
      "▁taraqqiyot": 4997,
      "ektar": 4998,
      "umon": 4999,
      "▁Harorat": 5000,
      "▁rahbariyati": 5001,
      "▁istiqbol": 5002,
      "▁“U": 5003,
      "▁jad": 5004,
      "rma": 5005,
      "▁surish": 5006,
      "▁yig‘ilish": 5007,
      "▁etadi.\n": 5008,
      "▁import": 5009,
      "▁favqulodda": 5010,
      "▁ada": 5011,
      "▁Italiya": 5012,
      "▁IIV": 5013,
      "▁Sirdaryo": 5014,
      "▁cho‘": 5015,
      "vay": 5016,
      "mdan": 5017,
      "▁mulki": 5018,
      "▁Xo": 5019,
      "▁Shundan": 5020,
      "▁keladi.": 5021,
      "▁nazorati": 5022,
      "-bandi": 5023,
      "gro": 5024,
      "▁joylashtirish": 5025,
      "▁oddiy": 5026,
      "▁kecha": 5027,
      "▁tak": 5028,
      "▁qo‘shma": 5029,
      "lina": 5030,
      "▁tosh": 5031,
      "▁muvofiq,": 5032,
      "▁xususiya": 5033,
      "eral": 5034,
      "▁Alek": 5035,
      "▁Ispaniya": 5036,
      "▁rejasi": 5037,
      "Vazir": 5038,
      "▁gektar": 5039,
      "▁mobil": 5040,
      "▁gaze": 5041,
      "▁chempion": 5042,
      "▁o‘rto": 5043,
      "▁noma": 5044,
      "▁qilindi\n\n": 5045,
      "▁taraf": 5046,
      "▁nogiron": 5047,
      "ten": 5048,
      "▁makta": 5049,
      "lasha": 5050,
      "▁anju": 5051,
      "▁muddatga": 5052,
      "urilish": 5053,
      "▁bepul": 5054,
      "ska": 5055,
      "▁hokimiyat": 5056,
      "▁Donald": 5057,
      "skiy": 5058,
      "▁muammolar": 5059,
      "▁kelgu": 5060,
      "▁\n\n\n": 5061,
      "▁qozon": 5062,
      "-son,": 5063,
      "Qo": 5064,
      "▁avtoma": 5065,
      "▁sara": 5066,
      "▁yilgi": 5067,
      "minan": 5068,
      "▁sut": 5069,
      "fikatsiya": 5070,
      ",9": 5071,
      "di:": 5072,
      "▁fuqarolik": 5073,
      "usta": 5074,
      "▁oladi.": 5075,
      "▁budjeti": 5076,
      "▁sentabr": 5077,
      "lishiga": 5078,
      "▁maydoni": 5079,
      "▁infeksiyasi": 5080,
      "unyod": 5081,
      "▁o‘rniga": 5082,
      "Bugun": 5083,
      "▁ketish": 5084,
      "▁bo‘ling": 5085,
      "ekun": 5086,
      "qu": 5087,
      "▁etib,": 5088,
      "▁xay": 5089,
      "▁mazmun": 5090,
      "▁qamoq": 5091,
      "lolat": 5092,
      "▁hissa": 5093,
      "▁chalingan": 5094,
      "▁bevosita": 5095,
      "nib,": 5096,
      "magan.": 5097,
      "rta": 5098,
      "▁AQShning": 5099,
      "zbeki": 5100,
      "▁chunki": 5101,
      "▁elchi": 5102,
      "▁ayollar": 5103,
      "kash": 5104,
      "▁xato": 5105,
      "▁imkon": 5106,
      "grafi": 5107,
      "▁qo‘llash": 5108,
      "▁baland": 5109,
      "▁O‘zbekistondagi": 5110,
      "▁to‘la": 5111,
      "muri": 5112,
      "▁baro": 5113,
      "▁buning": 5114,
      "▁o‘s": 5115,
      "ress": 5116,
      "▁normativ-huquqiy": 5117,
      "▁Chunki": 5118,
      "▁o‘zgartish": 5119,
      "2017": 5120,
      "▁mahsulotlarini": 5121,
      "umladan,": 5122,
      "▁hozirda": 5123,
      "▁ten": 5124,
      "tirishi": 5125,
      "mning": 5126,
      "▁45": 5127,
      "▁tizimida": 5128,
      "oliq": 5129,
      "▁qiladigan": 5130,
      "▁34": 5131,
      "▁7-12": 5132,
      "▁javobgarlik": 5133,
      "▁sertifikat": 5134,
      "lisher": 5135,
      "▁bo‘ladi,": 5136,
      "sak": 5137,
      "▁telekanali": 5138,
      "▁me’": 5139,
      "▁kolle": 5140,
      "atr": 5141,
      "▁taqdi": 5142,
      "yoki": 5143,
      "▁ekani": 5144,
      "▁Chempi": 5145,
      "razi": 5146,
      "dat": 5147,
      "▁profilak": 5148,
      "batta,": 5149,
      "matov": 5150,
      "▁mutaxassislar": 5151,
      "▁oldida": 5152,
      "tirilishi": 5153,
      "▁o‘tishi": 5154,
      "▁ta’minla": 5155,
      "▁sharoi": 5156,
      "sor": 5157,
      "▁arzon": 5158,
      "▁tana": 5159,
      "▁buz": 5160,
      "▁yom": 5161,
      "▁raketa": 5162,
      "▁du": 5163,
      "▁hisobv": 5164,
      "▁32": 5165,
      "ahra": 5166,
      "ligidan": 5167,
      "▁Arabi": 5168,
      "▁Uni": 5169,
      "test": 5170,
      "▁ishtirokchi": 5171,
      "▁avtot": 5172,
      "-daqiqa": 5173,
      "▁yol": 5174,
      "-ha": 5175,
      "▁mamlakatning": 5176,
      "▁davolash": 5177,
      "▁oʻz": 5178,
      "▁beradi.\n": 5179,
      "▁Respublikasida": 5180,
      "vyu": 5181,
      "▁Majlis": 5182,
      "▁raqam": 5183,
      "▁rek": 5184,
      "▁rekor": 5185,
      "▁organlarining": 5186,
      "▁kamchilik": 5187,
      "gon": 5188,
      "▁El": 5189,
      "▁kurs": 5190,
      "▁sot": 5191,
      "▁nashr": 5192,
      "▁COVID-19": 5193,
      "▁toifa": 5194,
      "▁Muhammad": 5195,
      "-yillarda": 5196,
      "▁bermoqda.\n": 5197,
      "\n“": 5198,
      "moqda.\n\n": 5199,
      "▁korrupsiya": 5200,
      "andi": 5201,
      "▁tashabbus": 5202,
      "▁Za": 5203,
      "?\n\n": 5204,
      "▁7.": 5205,
      "▁qoldir": 5206,
      "gur": 5207,
      "mand": 5208,
      "▁mumkin,": 5209,
      "▁chiqindi": 5210,
      "▁turni": 5211,
      "▁qilinadi.\n": 5212,
      "xud": 5213,
      "▁xoh": 5214,
      "▁texnologiyalari": 5215,
      "▁berishni": 5216,
      "▁Ri": 5217,
      "▁topshiri": 5218,
      "▁qor": 5219,
      "▁Sar": 5220,
      "▁38": 5221,
      "▁manfaatdor": 5222,
      "lanishiga": 5223,
      "▁bur": 5224,
      "▁ola": 5225,
      "▁tushib": 5226,
      "▁salbiy": 5227,
      "▁pedago": 5228,
      "tilayotgan": 5229,
      "▁tashish": 5230,
      "ologik": 5231,
      "▁yuborish": 5232,
      "shimcha": 5233,
      "▁para": 5234,
      "▁oktabr": 5235,
      "▁yig‘ilishi": 5236,
      "rans": 5237,
      "lav": 5238,
      "▁oʻt": 5239,
      "▁ta’minoti": 5240,
      "mish": 5241,
      "IDA": 5242,
      "mur": 5243,
      "▁shikoyat": 5244,
      "▁300": 5245,
      "▁standart": 5246,
      "▁Kim": 5247,
      "Tadbir": 5248,
      "▁kut": 5249,
      "vosti": 5250,
      "shma": 5251,
      "▁shakllan": 5252,
      "ladi:\n": 5253,
      "▁ang": 5254,
      "▁Shimoliy": 5255,
      "▁dalolat": 5256,
      "▁ishonchli": 5257,
      "▁sir": 5258,
      "▁berishicha,": 5259,
      "▁so‘mdan": 5260,
      "▁hududlarda": 5261,
      "lariga,": 5262,
      "▁hayvon": 5263,
      "▁“F": 5264,
      "gr": 5265,
      "▁maktabi": 5266,
      "tu": 5267,
      "anba": 5268,
      "▁uzay": 5269,
      "▁pasa": 5270,
      "▁naq": 5271,
      "▁m/s": 5272,
      "▁(4": 5273,
      "mokra": 5274,
      "▁sayyoh": 5275,
      "▁yoxud": 5276,
      "▁binoan": 5277,
      "!\n": 5278,
      "▁muvaffaqiyatli": 5279,
      "▁Arabistoni": 5280,
      "hnat": 5281,
      "▁beriladi.\n": 5282,
      "▁aktiv": 5283,
      "▁o‘tkazilishi": 5284,
      "▁mustahkamlash": 5285,
      "▁Endi": 5286,
      "▁kiritil": 5287,
      "▁rais": 5288,
      "-ko": 5289,
      "▁Mes": 5290,
      "▁yadro": 5291,
      "▁oqibat": 5292,
      "shin": 5293,
      "▁foydali": 5294,
      "▁korp": 5295,
      "▁tarmoqlarda": 5296,
      "▁Nor": 5297,
      "▁qism": 5298,
      "maydi.\n": 5299,
      "▁holatiga": 5300,
      "▁avtomashina": 5301,
      "▁kengash": 5302,
      "g‘iga": 5303,
      "Ja": 5304,
      "▁korxonalar": 5305,
      "▁barava": 5306,
      "▁meva": 5307,
      "tiruv": 5308,
      "▁almashtirilsin;\n": 5309,
      "”;\n": 5310,
      "ususiy": 5311,
      "Inter": 5312,
      "▁qurbon": 5313,
      "▁Yer": 5314,
      "▁xabardor": 5315,
      "Ho": 5316,
      "-harakat": 5317,
      "d”": 5318,
      "kiliy": 5319,
      "yek": 5320,
      "▁tasvir": 5321,
      "▁so‘ng,": 5322,
      "▁mon": 5323,
      "'ni": 5324,
      "▁+": 5325,
      "chan": 5326,
      "▁2020-yil": 5327,
      "▁nomidagi": 5328,
      "▁maqsadli": 5329,
      "’lim": 5330,
      "▁maydonga": 5331,
      "▁qismida": 5332,
      "▁manzil": 5333,
      "▁muzokaralar": 5334,
      "din": 5335,
      "▁kunlik": 5336,
      "▁mer": 5337,
      "▁turish": 5338,
      "▁pensiya": 5339,
      "▁ajratish": 5340,
      "layev": 5341,
      "▁Ronal": 5342,
      "getika": 5343,
      "hati": 5344,
      "▁tahdi": 5345,
      "▁fondi": 5346,
      "Bi": 5347,
      "▁yoni": 5348,
      "saddi": 5349,
      "▁etiladigan": 5350,
      "▁qaramay,": 5351,
      "▁Shamol": 5352,
      "ganida": 5353,
      "▁tadbirlar": 5354,
      "nining": 5355,
      "▁lab": 5356,
      "risa": 5357,
      "▁gumon": 5358,
      "▁Saudiya": 5359,
      ".\nK": 5360,
      "▁metro": 5361,
      "▁maqsadi": 5362,
      "▁kont": 5363,
      "oyib": 5364,
      "ruq": 5365,
      "o‘z": 5366,
      "-modda)": 5367,
      "▁to‘qnash": 5368,
      "▁o‘lim": 5369,
      "▁sano": 5370,
      "▁“V": 5371,
      "chining": 5372,
      "Hujjat": 5373,
      "▁198": 5374,
      "▁avvalgi": 5375,
      "▁uyushmasi": 5376,
      "▁kesi": 5377,
      "-y.,": 5378,
      "Mar": 5379,
      "ota": 5380,
      "gen": 5381,
      "▁ko`p": 5382,
      "▁oshiriladi.": 5383,
      "▁ko‘rinishi": 5384,
      "▁so‘mga": 5385,
      "▁qavatli": 5386,
      "▁ora": 5387,
      "▁so‘mlik": 5388,
      "ng.": 5389,
      "bosar": 5390,
      "▁so‘rov": 5391,
      "▁statistika": 5392,
      "To": 5393,
      "▁kuchaytirish": 5394,
      "TM": 5395,
      "kmaniston": 5396,
      "▁quyidagilar": 5397,
      "...": 5398,
      "▁ajratilgan": 5399,
      "rey": 5400,
      "▁faoliyatiga": 5401,
      "▁cheklangan": 5402,
      "▁belgilab": 5403,
      "▁etmoqda.": 5404,
      "▁nishon": 5405,
      "▁hisoblash": 5406,
      "▁raqamli": 5407,
      "▁“L": 5408,
      "▁bajarilishini": 5409,
      "▁Belgi": 5410,
      "▁maqola": 5411,
      "▁ahvo": 5412,
      "▁bizning": 5413,
      "▁(shahar": 5414,
      "▁gapi": 5415,
      "fsil": 5416,
      "▁qiladi:\n": 5417,
      "liklarni": 5418,
      "6.": 5419,
      "▁«O": 5420,
      "▁transp": 5421,
      "25": 5422,
      "gida": 5423,
      "▁dollari": 5424,
      "▁majlis": 5425,
      "9.": 5426,
      "▁keltirilgan": 5427,
      "▁chorak": 5428,
      "uriyent": 5429,
      "dek,": 5430,
      "▁esadi.": 5431,
      "▁stavka": 5432,
      "▁qariy": 5433,
      "▁xodimlar": 5434,
      "vet": 5435,
      "▁parvoz": 5436,
      "shiy": 5437,
      "▁loyihalar": 5438,
      "▁ser": 5439,
      "▁Keyin": 5440,
      "fini": 5441,
      "-hunar": 5442,
      "rilmoqda.\n": 5443,
      "▁qariyb": 5444,
      "-20": 5445,
      "▁asbo": 5446,
      "▁huquqiga": 5447,
      "bituriyent": 5448,
      "▁taxminan": 5449,
      "▁Unga": 5450,
      "bekt": 5451,
      "▁belgilash": 5452,
      "▁professional": 5453,
      "▁Serg": 5454,
      "▁bo‘ling!": 5455,
      "ngizga": 5456,
      "ker": 5457,
      "pidemi": 5458,
      "▁Nati": 5459,
      "atafsil": 5460,
      "▁etilsin:\n": 5461,
      "zbekistan": 5462,
      "tirib,": 5463,
      "▁to‘g‘ridan": 5464,
      "II": 5465,
      "iyo": 5466,
      "▁borib": 5467,
      "ganiga": 5468,
      "▁Isroil": 5469,
      "▁pandemiya": 5470,
      "▁kla": 5471,
      "▁salomat": 5472,
      "▁o‘sim": 5473,
      "dil": 5474,
      "g‘ini": 5475,
      "DR": 5476,
      "▁yakka": 5477,
      "▁intervyu": 5478,
      "AN": 5479,
      "▁joylash": 5480,
      "▁mikro": 5481,
      "▁qolish": 5482,
      "landi": 5483,
      "▁Il": 5484,
      "▁haqiqat": 5485,
      "▁o‘tib": 5486,
      "▁xodimlarining": 5487,
      "olli": 5488,
      "▁samaradorligini": 5489,
      "▁Fi": 5490,
      "▁ijrosini": 5491,
      "sus": 5492,
      "▁bo‘sh": 5493,
      "▁yilgacha": 5494,
      "▁o‘tkaza": 5495,
      "Yo": 5496,
      "▁bo‘lishni": 5497,
      "▁es": 5498,
      "yida": 5499,
      ".\nO": 5500,
      "▁urush": 5501,
      "▁qam": 5502,
      "-mu": 5503,
      "▁kiritgan": 5504,
      "▁kerak,": 5505,
      "▁fuqarolari": 5506,
      "ddan": 5507,
      "▁ekspertiza": 5508,
      "▁metal": 5509,
      "▁darvo": 5510,
      "▁daraxt": 5511,
      "▁2018-yil": 5512,
      "▁amerika": 5513,
      "▁borayotgan": 5514,
      "avf": 5515,
      "60": 5516,
      "kum": 5517,
      "▁a)": 5518,
      "▁8.": 5519,
      "burg": 5520,
      "▁rivojlantirish,": 5521,
      "lubiyat": 5522,
      "▁qilinadigan": 5523,
      "ektori": 5524,
      "▁Ma’": 5525,
      "raziliya": 5526,
      "▁ekan,": 5527,
      "viya": 5528,
      "▁ba'zi": 5529,
      "▁Birinchi": 5530,
      "▁hayo": 5531,
      "▁investor": 5532,
      "▁biror": 5533,
      "▁b)": 5534,
      "xabar": 5535,
      "bin": 5536,
      "▁Havo": 5537,
      "▁choralarini": 5538,
      "▁aero": 5539,
      "▁bir-": 5540,
      "▁topshirish": 5541,
      "▁tarkibida": 5542,
      "▁“TASS": 5543,
      "sht": 5544,
      "▁bo‘ldi,": 5545,
      "konstruksiya": 5546,
      "let": 5547,
      "▁gacha": 5548,
      "▁to‘rtinchi": 5549,
      "▁omil": 5550,
      "▁hududlarida": 5551,
      "▁Dast": 5552,
      "lit": 5553,
      "▁qarorning": 5554,
      "▁qo‘zg‘a": 5555,
      "▁nechta": 5556,
      "▁kadrlar": 5557,
      "jada": 5558,
      "▁yori": 5559,
      "madi.": 5560,
      "▁avlo": 5561,
      "▁punkt": 5562,
      "-havo": 5563,
      "▁op": 5564,
      "▁koʻr": 5565,
      "▁byudj": 5566,
      "o‘j": 5567,
      "bank": 5568,
      "▁Pro": 5569,
      "▁ichimlik": 5570,
      "▁liga": 5571,
      "▁hukm": 5572,
      "▁sen": 5573,
      "▁Ronaldu": 5574,
      "▁aholisi": 5575,
      "▁37": 5576,
      "▁darajasini": 5577,
      "▁aktyor": 5578,
      "▁keldi.": 5579,
      "▁oshira": 5580,
      "▁loyihalarini": 5581,
      "▁Jo": 5582,
      "▁obekt": 5583,
      "▁tab": 5584,
      "▁ayniq": 5585,
      "▁farq": 5586,
      "chiga": 5587,
      "lug‘": 5588,
      "▁quvvat": 5589,
      "▁shuncha": 5590,
      "▁qo‘riq": 5591,
      "uf": 5592,
      ".com": 5593,
      "▁xabariga": 5594,
      "▁malakali": 5595,
      "▁muvofiqlashtirish": 5596,
      "▁bajarilishi": 5597,
      "▁yildagi": 5598,
      "▁boshqarma": 5599,
      "▁avvalroq": 5600,
      "m-": 5601,
      "ws": 5602,
      "▁natijasi": 5603,
      "▁borishi": 5604,
      "tirishga": 5605,
      "”gi": 5606,
      "▁aer": 5607,
      "▁majli": 5608,
      "axta": 5609,
      "▁da’": 5610,
      "id": 5611,
      "▁qilishda": 5612,
      "▁yillar": 5613,
      "qich": 5614,
      "mashyo": 5615,
      "8.": 5616,
      "m.": 5617,
      "▁Mat": 5618,
      "▁rag‘batlantirish": 5619,
      "▁ekanligi": 5620,
      "mit": 5621,
      "▁tat": 5622,
      "▁elektro": 5623,
      "▁aholini": 5624,
      "▁Alisher": 5625,
      "▁Par": 5626,
      "▁inti": 5627,
      "▁aksari": 5628,
      "▁tashkiliy": 5629,
      "▁kimyo": 5630,
      "▁2019-yil": 5631,
      "toj": 5632,
      "▁mamlakatlar": 5633,
      "▁jon": 5634,
      "▁Markaz": 5635,
      "sak,": 5636,
      "tibori": 5637,
      "monlar": 5638,
      "▁hujjatlarini": 5639,
      "chka": 5640,
      "»gi": 5641,
      "tse": 5642,
      "▁vositalarini": 5643,
      "▁otasi": 5644,
      "▁ko‘rgaz": 5645,
      "▁bergan.": 5646,
      "▁audit": 5647,
      "ologiya": 5648,
      "▁hozircha": 5649,
      "▁do‘kon": 5650,
      "▁mavsu": 5651,
      "▁departamenti": 5652,
      "zavo": 5653,
      "▁markazida": 5654,
      "▁tala": 5655,
      "bosh": 5656,
      "urat": 5657,
      "▁Belarus": 5658,
      "wit": 5659,
      "▁bayonot": 5660,
      "o‘yxat": 5661,
      "▁Qishloq": 5662,
      "▁raqib": 5663,
      "▁rejalashti": 5664,
      "▁Jamo": 5665,
      "90": 5666,
      "▁qo‘shni": 5667,
      "15": 5668,
      "siyasini": 5669,
      "▁etildi.\n": 5670,
      ".M": 5671,
      "▁inspeksiyasi": 5672,
      "▁mintaqaviy": 5673,
      "▁lavozimiga": 5674,
      "▁Ku": 5675,
      "otor": 5676,
      "▁loyihalarni": 5677,
      "tidagi": 5678,
      "▁sp": 5679,
      "▁tashkilo": 5680,
      "▁oshirilayotgan": 5681,
      "kazil": 5682,
      "▁qilingan.\n": 5683,
      "De": 5684,
      "g‘o": 5685,
      "▁turlari": 5686,
      "maydi": 5687,
      "▁1:0": 5688,
      "▁eski": 5689,
      "▁do‘st": 5690,
      "▁xavfsizligini": 5691,
      "ovar": 5692,
      "▁kasb-hunar": 5693,
      "rigacha": 5694,
      "▁piyo": 5695,
      "▁keltir": 5696,
      "ani": 5697,
      "▁Kun.uz": 5698,
      "▁muassasalarida": 5699,
      "▁o‘rinbosar": 5700,
      "taba": 5701,
      "▁zarba": 5702,
      "▁universitet": 5703,
      "▁nafaqa": 5704,
      "viga": 5705,
      "▁2017-yil": 5706,
      "qara": 5707,
      "▁chiqarishni": 5708,
      "▁Mudofaa": 5709,
      "▁hisoblanadi": 5710,
      "pol": 5711,
      "▁smartfon": 5712,
      "▁yig‘": 5713,
      "strat": 5714,
      "▁oson": 5715,
      "▁ad": 5716,
      "di\n\nO‘zbekiston": 5717,
      "▁viloyatlarida": 5718,
      "▁dalil": 5719,
      "▁stadi": 5720,
      "▁huquqini": 5721,
      "▁tarixiy": 5722,
      "zarb": 5723,
      "gʻi": 5724,
      "▁laborat": 5725,
      "▁tarkibiga": 5726,
      "▁bo`lib": 5727,
      "satsiya": 5728,
      "▁berishga": 5729,
      "▁yuborilgan": 5730,
      "▁sifatini": 5731,
      "▁uchta": 5732,
      "stitutsiya": 5733,
      "▁rekonstruksiya": 5734,
      "▁model": 5735,
      "▁yetkaz": 5736,
      "▁rossiya": 5737,
      "▁tuzish": 5738,
      "ondon": 5739,
      "qtisodi": 5740,
      "▁keltirib": 5741,
      "▁Karimov": 5742,
      "▁Quyidagi": 5743,
      "▁meros": 5744,
      "▁sent": 5745,
      "▁innovatsion": 5746,
      "▁ko`ra,": 5747,
      "▁to‘pla": 5748,
      "▁taqdirda,": 5749,
      "▁muhtoj": 5750,
      "▁edi": 5751,
      "slar": 5752,
      "gandi.": 5753,
      "▁tatbiq": 5754,
      "jonov": 5755,
      "▁masalasi": 5756,
      "▁ro‘y": 5757,
      "▁Bay": 5758,
      "▁mas'": 5759,
      "▁shtat": 5760,
      "▁o‘zgartirishlar": 5761,
      "maga": 5762,
      "▁hib": 5763,
      "missiya": 5764,
      "tosh": 5765,
      "▁ap": 5766,
      "▁ustun": 5767,
      "▁qat’iy": 5768,
      "▁Oq": 5769,
      "▁san’at": 5770,
      "▁yuldu": 5771,
      "▁ma`lum": 5772,
      "▁xotin-qi": 5773,
      "langan,": 5774,
      "tishni": 5775,
      "▁aerop": 5776,
      "lanmoqda.": 5777,
      "▁chop": 5778,
      "▁qismini": 5779,
      "▁ustida": 5780,
      "▁atrofida": 5781,
      "▁Senat": 5782,
      "yuter": 5783,
      "dolat": 5784,
      "▁ixtisoslashtirilgan": 5785,
      "”da": 5786,
      "▁mutasaddi": 5787,
      "▁qilmoqda.": 5788,
      "▁sun": 5789,
      "▁ma’qul": 5790,
      "▁vazifasini": 5791,
      "g`ri": 5792,
      "▁birik": 5793,
      "▁etish;\n": 5794,
      "-A": 5795,
      "▁kelgan.": 5796,
      "▁shahrining": 5797,
      ";\n\n": 5798,
      "▁Masalan,": 5799,
      "▁doim": 5800,
      "qtisodiyot": 5801,
      "vin": 5802,
      "▁organlari,": 5803,
      "medov": 5804,
      "▁ishdan": 5805,
      "▁mavjud.": 5806,
      "ShID": 5807,
      "▁PF": 5808,
      "bel": 5809,
      "▁beradigan": 5810,
      "▁bo‘lgan.\n": 5811,
      "rildi.\n": 5812,
      "g‘or": 5813,
      "▁qarorlari": 5814,
      "tayotgan": 5815,
      "▁yurt": 5816,
      "parat": 5817,
      "▁barobar": 5818,
      "▁topish": 5819,
      "▁masji": 5820,
      "▁qo‘r": 5821,
      "▁qal": 5822,
      "-ilovaga": 5823,
      "▁sababi": 5824,
      "▁o‘xsha": 5825,
      "▁2013": 5826,
      "▁2021-yil": 5827,
      "▁naqd": 5828,
      "▁yomg‘ir": 5829,
      "lobal": 5830,
      "\nS": 5831,
      "aroit": 5832,
      "▁So‘": 5833,
      "▁mag‘lub": 5834,
      "▁joyida": 5835,
      "▁film": 5836,
      "▁Agent": 5837,
      "▁Ak": 5838,
      "▁bag‘ishlangan": 5839,
      "▁Sud": 5840,
      "▁borasidagi": 5841,
      "naviy": 5842,
      "▁nazora": 5843,
      "yatsiya": 5844,
      "▁qo‘shin": 5845,
      "ganda": 5846,
      "zila": 5847,
      "biga": 5848,
      "▁energiyasi": 5849,
      "sol": 5850,
      "▁yozma": 5851,
      "XDR": 5852,
      "▁ishni": 5853,
      "▁gran": 5854,
      "▁ma’lumotlariga": 5855,
      "▁kechik": 5856,
      "▁muhandi": 5857,
      "▁e’tiboran": 5858,
      "▁sovg‘a": 5859,
      "▁marotaba": 5860,
      "xit": 5861,
      "▁Inter": 5862,
      "▁birida": 5863,
      "▁kamera": 5864,
      "bini": 5865,
      "▁o‘qishga": 5866,
      "▁strategiya": 5867,
      "witter": 5868,
      "Ko": 5869,
      "▁ofi": 5870,
      "▁blo": 5871,
      "▁eki": 5872,
      "▁porta": 5873,
      "▁ehtiyot": 5874,
      "▁berib": 5875,
      "oshlar": 5876,
      "kredit": 5877,
      "▁aloqalar": 5878,
      "▁taqsim": 5879,
      "shi,": 5880,
      "▁9.": 5881,
      "▁tashabbu": 5882,
      "▁qiymat": 5883,
      "▁hakam": 5884,
      "▁malakasini": 5885,
      "▁targ‘i": 5886,
      "▁nizom": 5887,
      "▁savo": 5888,
      "▁armi": 5889,
      "▁ko‘rik": 5890,
      "ʻzbekiston": 5891,
      "▁mumkinligini": 5892,
      "Hozirda": 5893,
      "-modda;": 5894,
      "moli": 5895,
      "sning": 5896,
      "tirof": 5897,
      "yob": 5898,
      "lovchilar": 5899,
      "tingi": 5900,
      "▁app": 5901,
      "miz.\n": 5902,
      "Xitoy": 5903,
      "rika": 5904,
      "▁Rossiyada": 5905,
      "nomani": 5906,
      "▁Angliya": 5907,
      "▁dolzarb": 5908,
      "▁bilan,": 5909,
      "▁nusx": 5910,
      "▁shart-sh": 5911,
      "▁aksiyadorlik": 5912,
      "▁esa,": 5913,
      "▁chiqilgan": 5914,
      "▁ko‘pchilik": 5915,
      "▁progno": 5916,
      "▁hududda": 5917,
      "▁navbatida": 5918,
      "▁solig‘i": 5919,
      "KI": 5920,
      "▁deputatlari": 5921,
      "▁beriladi.": 5922,
      "▁olimpi": 5923,
      "▁ega.": 5924,
      "▁musi": 5925,
      "▁yurti": 5926,
      "▁xarajatlar": 5927,
      "tildi.\n": 5928,
      "ishiy": 5929,
      "▁takror": 5930,
      "lanadi,": 5931,
      "▁shart-sharoit": 5932,
      "▁davri": 5933,
      "▁voz": 5934,
      "▁ro‘yxatidan": 5935,
      "▁chiqara": 5936,
      "▁(shahar)": 5937,
      "▁Siz": 5938,
      "▁boshchiligi": 5939,
      "▁vaqtinchalik": 5940,
      "▁ogohlan": 5941,
      "▁sakki": 5942,
      "▁avtomo": 5943,
      "▁ajrat": 5944,
      "ork": 5945,
      "▁foydalangan": 5946,
      "▁tarif": 5947,
      "▁qisqartirish": 5948,
      "▁jo‘na": 5949,
      "▁jadal": 5950,
      "▁bo‘lar": 5951,
      "ley": 5952,
      "QS": 5953,
      "▁Shah": 5954,
      "▁shundan": 5955,
      "ligining": 5956,
      "▁barchasi": 5957,
      "▁sanitariya": 5958,
      "▁vide": 5959,
      "▁taxmin": 5960,
      "jo": 5961,
      "▁yaxshilash": 5962,
      "▁dunyoning": 5963,
      "▁yum": 5964,
      "'iy": 5965,
      "▁mag‘lubiyat": 5966,
      "▁ashyo": 5967,
      "▁keyinchalik": 5968,
      "▁vazn": 5969,
      "▁kuchay": 5970,
      "▁abituriyent": 5971,
      "biyi": 5972,
      "tor": 5973,
      "▁berilgandi.": 5974,
      "▁vaziyatni": 5975,
      "▁olinishi": 5976,
      "▁kishiga": 5977,
      "▁huquqni": 5978,
      "▁o‘rnini": 5979,
      "▁edi,": 5980,
      "▁ot": 5981,
      "▁medal": 5982,
      "▁Shuning": 5983,
      "▁tarkib": 5984,
      "▁ta'sir": 5985,
      "▁kuchlari": 5986,
      "▁The": 5987,
      "▁shaklda": 5988,
      "▁Xususan,": 5989,
      "▁fikricha,": 5990,
      "▁Tu": 5991,
      "▁yashay": 5992,
      "▁gapir": 5993,
      "uqori": 5994,
      "▁portlash": 5995,
      "sun": 5996,
      "Buxoro": 5997,
      "▁Inve": 5998,
      "ladi;\n": 5999,
      "____": 6000,
      "mokratik": 6001,
      "▁aybdor": 6002,
      "▁yo‘qotgan": 6003,
      "▁o‘tkaziladigan": 6004,
      "▁o‘rnatish": 6005,
      "-P": 6006,
      "▁diniy": 6007,
      "▁(5": 6008,
      "ge": 6009,
      "pta": 6010,
      "muriyati": 6011,
      "chil": 6012,
      "▁umuman": 6013,
      "▁shub": 6014,
      "▁murabbiyi": 6015,
      "Me": 6016,
      "▁sezi": 6017,
      "▁yotqi": 6018,
      "80": 6019,
      "obod": 6020,
      "shing": 6021,
      "▁75": 6022,
      "▁Ayni": 6023,
      "▁zona": 6024,
      "▁ana": 6025,
      "▁bo‘lsa-da,": 6026,
      "yo‘l": 6027,
      "▁aholiga": 6028,
      "▁kutilmaydi.": 6029,
      "▁sog‘lom": 6030,
      "▁“O‘zbek": 6031,
      "end": 6032,
      "▁maktabgacha": 6033,
      "▁umid": 6034,
      "liklarning": 6035,
      "▁oilaviy": 6036,
      "▁ehtimo": 6037,
      "▁mehmonxona": 6038,
      "▁Jon": 6039,
      "▁xuddi": 6040,
      "▁qilgani": 6041,
      "lol": 6042,
      "onanda": 6043,
      "▁tizimli": 6044,
      "▁jadva": 6045,
      "shanda": 6046,
      "sov": 6047,
      "▁muallif": 6048,
      "▁qattiq": 6049,
      "Far": 6050,
      "o‘g‘": 6051,
      "▁appara": 6052,
      "ote": 6053,
      "video": 6054,
      "▁bo‘lmaydi.": 6055,
      "▁qishlo": 6056,
      "▁poyez": 6057,
      "▁yal": 6058,
      "baho": 6059,
      "Ma’lum": 6060,
      "▁Air": 6061,
      "▁kama": 6062,
      "▁(7": 6063,
      "▁“H": 6064,
      "▁Mak": 6065,
      "▁diz": 6066,
      "▁da’vo": 6067,
      "▁reytingi": 6068,
      "shinchi": 6069,
      "chilarga": 6070,
      "▁(A": 6071,
      "▁munosib": 6072,
      "▁choralari": 6073,
      "▁Instagram": 6074,
      "▁saytida": 6075,
      "▁bitim": 6076,
      "Tu": 6077,
      "▁mana": 6078,
      "▁tajrib": 6079,
      "▁tahdid": 6080,
      "bosqich": 6081,
      "▁bayram": 6082,
      "-tadqiqot": 6083,
      "▁poytaxti": 6084,
      "40": 6085,
      "rilgan.": 6086,
      "▁ta’mirlash": 6087,
      "▁tanqid": 6088,
      "»ni": 6089,
      "qomat": 6090,
      "▁10.": 6091,
      "▁etishni": 6092,
      "▁Chempionlar": 6093,
      "▁kelin": 6094,
      "▁kelib,": 6095,
      "▁O‘zA": 6096,
      "▁asoslangan": 6097,
      "▁ishini": 6098,
      "▁qatori": 6099,
      "\nA": 6100,
      "lashib": 6101,
      "tilishini": 6102,
      "▁partiyasi": 6103,
      "Fa": 6104,
      "▁“Real": 6105,
      "▁boʻlgan": 6106,
      "▁km": 6107,
      "▁xomashyo": 6108,
      "▁ochil": 6109,
      "18": 6110,
      "axtakor": 6111,
      "shadi.": 6112,
      "▁Say": 6113,
      "▁pla": 6114,
      "▁qayt": 6115,
      "▁vazifalari": 6116,
      "▁aviakompaniya": 6117,
      "ovning": 6118,
      "▁reyest": 6119,
      "ei": 6120,
      "▁xotira": 6121,
      "▁texnologik": 6122,
      "rakkab": 6123,
      "▁ekin": 6124,
      "▁ajoyib": 6125,
      "▁keladigan": 6126,
      "uksion": 6127,
      "maning": 6128,
      "Xabar": 6129,
      "▁karta": 6130,
      "Respublika": 6131,
      "▁mexanizm": 6132,
      "▁o‘qish": 6133,
      "▁berildi.": 6134,
      "▁To‘": 6135,
      "berg": 6136,
      "▁yo‘nalishlari": 6137,
      ".A.": 6138,
      "▁nota": 6139,
      "▁Usmon": 6140,
      "▁sovrin": 6141,
      "▁boshida": 6142,
      "▁fax": 6143,
      "▁ma'lumotlar": 6144,
      "▁avtotransport": 6145,
      "dning": 6146,
      "kul": 6147,
      "▁iq": 6148,
      "iloyat": 6149,
      "maydi,": 6150,
      "▁joiz": 6151,
      "lmas": 6152,
      "▁sharqdan": 6153,
      "▁ulkan": 6154,
      "di.\nA": 6155,
      "ksiyalar": 6156,
      "dash": 6157,
      "998": 6158,
      "▁monitoring": 6159,
      "omala": 6160,
      "▁SS": 6161,
      "▁tizimiga": 6162,
      "▁mustasno": 6163,
      "▁not": 6164,
      "▁ortiqcha": 6165,
      "▁chiqdi.": 6166,
      "▁e`": 6167,
      "munal": 6168,
      "Ayni": 6169,
      "yosh": 6170,
      "▁istiqomat": 6171,
      "▁voyaga": 6172,
      "▁Turkmaniston": 6173,
      "▁qo‘mitasining": 6174,
      "▁M.": 6175,
      "▁ko‘rsatib": 6176,
      "straliya": 6177,
      "IM": 6178,
      "▁dollarlik": 6179,
      "▁yakuniga": 6180,
      "▁poytaxt": 6181,
      "verpul": 6182,
      "derni": 6183,
      "▁boshladi.": 6184,
      "▁muassasasi": 6185,
      "▁hududiga": 6186,
      "landi,": 6187,
      "▁talablari": 6188,
      "o‘rg‘on": 6189,
      "vati": 6190,
      "▁Ota": 6191,
      "▁«T": 6192,
      "▁tushishi": 6193,
      "▁prokuraturasi": 6194,
      "▁oladigan": 6195,
      "latfor": 6196,
      "liyev": 6197,
      "▁qo‘ygan": 6198,
      "▁oshirishda": 6199,
      "▁kal": 6200,
      "▁mut": 6201,
      "▁g‘oya": 6202,
      "▁yetmagan": 6203,
      "▁ko‘tari": 6204,
      "▁yurituvchi": 6205,
      "▁Novosti": 6206,
      "▁Farmoni": 6207,
      "▁aytish": 6208,
      "zov": 6209,
      "di.\nU": 6210,
      "▁uza": 6211,
      "▁Pol": 6212,
      "▁muvaffaq": 6213,
      "▁Mahkamasiga": 6214,
      "▁Co": 6215,
      "▁tuta": 6216,
      "▁tumani,": 6217,
      "ela": 6218,
      "▁diq": 6219,
      "▁qadam": 6220,
      "zoda": 6221,
      "▁gen": 6222,
      "t.": 6223,
      "mova": 6224,
      "▁etadi": 6225,
      "madi": 6226,
      "shib": 6227,
      "▁kuchini": 6228,
      "▁shaxsning": 6229,
      "▁ishlashi": 6230,
      "▁nodavlat": 6231,
      "▁rasmiylashtirish": 6232,
      "▁Facebook": 6233,
      "▁kunlarda": 6234,
      "fiy": 6235,
      "▁qilinayotgan": 6236,
      "Sha": 6237,
      "▁Uz": 6238,
      "▁vaziyatlar": 6239,
      "▁olish,": 6240,
      "lansin.": 6241,
      "▁reklama": 6242,
      "ayte": 6243,
      "▁televi": 6244,
      "s”": 6245,
      "▁o‘rgan": 6246,
      "▁darajadagi": 6247,
      "17": 6248,
      "▁tasdiqlovchi": 6249,
      "yohvan": 6250,
      "▁ob-havo": 6251,
      "▁ekologik": 6252,
      "▁sudga": 6253,
      "nidan": 6254,
      "vokat": 6255,
      "kal": 6256,
      "▁bo‘lishini": 6257,
      "-texnik": 6258,
      "bo‘": 6259,
      "▁ozodlikdan": 6260,
      "▁yutuq": 6261,
      "▁Sher": 6262,
      "Joriy": 6263,
      "▁ko‘maklashish": 6264,
      "ngliz": 6265,
      "yu-": 6266,
      "▁Rus": 6267,
      "▁borilmoqda.": 6268,
      "▁naza": 6269,
      "▁konsul": 6270,
      "▁ijaraga": 6271,
      "▁baliq": 6272,
      "▁uchrashuvda": 6273,
      "▁dunyoda": 6274,
      "▁tovarlar": 6275,
      "ladi.\n\n": 6276,
      "shington": 6277,
      "▁loyihalari": 6278,
      "linika": 6279,
      "▁minnat": 6280,
      "▁65": 6281,
      "▁o‘tkazib": 6282,
      "gratsiya": 6283,
      "▁ittifoqi": 6284,
      "t,": 6285,
      "likdagi": 6286,
      "▁Yo‘l": 6287,
      "▁kompyuter": 6288,
      "▁Mada": 6289,
      "▁o‘qitish": 6290,
      "siz,": 6291,
      "▁AQShda": 6292,
      "▁qaytarish": 6293,
      "▁tasi": 6294,
      "▁boshlangan": 6295,
      "▁ko‘rsatgan": 6296,
      "▁murakkab": 6297,
      "▁ketdi.": 6298,
      "So": 6299,
      "▁Rossiyaga": 6300,
      "radigan": 6301,
      "si”": 6302,
      "▁hisoblangan": 6303,
      "▁yaratilgan": 6304,
      "▁kasalxona": 6305,
      "▁«P": 6306,
      "▁Olma": 6307,
      "▁vazifalar": 6308,
      "▁niqo": 6309,
      "▁korxonalari": 6310,
      "16": 6311,
      "▁Majli": 6312,
      "▁Yu": 6313,
      "▁2012": 6314,
      "bra": 6315,
      "▁Ittifoqi": 6316,
      "▁buyruq": 6317,
      "▁ya’ni": 6318,
      "▁haqli": 6319,
      "Gazeta.uz": 6320,
      "gle": 6321,
      "ktyabr": 6322,
      "▁tinchlik": 6323,
      "▁ta’minlash,": 6324,
      "▁tuz": 6325,
      "▁qarzdor": 6326,
      "▁rang": 6327,
      "▁yarat": 6328,
      "▁mumkinligi": 6329,
      "▁penal": 6330,
      "▁tadbirkorlar": 6331,
      "▁Do": 6332,
      "▁o‘lcha": 6333,
      "▁xabarlar": 6334,
      "-7": 6335,
      "des": 6336,
      "▁menga": 6337,
      "▁(6": 6338,
      "▁tiklash": 6339,
      "▁hurmat": 6340,
      "▁Ikkinchi": 6341,
      "▁xavfi": 6342,
      "▁47": 6343,
      "▁yigit": 6344,
      "▁olishni": 6345,
      "lug‘bek": 6346,
      "▁summasi": 6347,
      "▁Kengash": 6348,
      "▁laboratoriya": 6349,
      "larda,": 6350,
      "pple": 6351,
      "▁Kom": 6352,
      "▁psi": 6353,
      "▁funksiya": 6354,
      "HT": 6355,
      "▁rivojlantirishga": 6356,
      "▁Jamg‘ar": 6357,
      "▁joylashti": 6358,
      "▁pochta": 6359,
      "AA": 6360,
      "g‘iz": 6361,
      "qadda": 6362,
      "larga,": 6363,
      "▁faqatgina": 6364,
      "▁bel": 6365,
      "Ta'": 6366,
      "Kor": 6367,
      "▁olingan.": 6368,
      "▁55": 6369,
      "-modda,": 6370,
      "▁reyting": 6371,
      "Tash": 6372,
      "urizm": 6373,
      "▁hisobo": 6374,
      "nim": 6375,
      "▁Man": 6376,
      "▁oldindan": 6377,
      "▁sutka": 6378,
      "▁strategik": 6379,
      "▁kutib": 6380,
      "LAR": 6381,
      "▁qarin": 6382,
      "▁xaridor": 6383,
      "▁boxabar": 6384,
      "▁sol": 6385,
      "▁“J": 6386,
      "▁markazlari": 6387,
      "XX": 6388,
      "-tar": 6389,
      "▁mablag‘larini": 6390,
      "▁ball": 6391,
      "Xalq": 6392,
      "▁KXDR": 6393,
      "ww": 6394,
      "▁(B": 6395,
      "▁vazirligiga": 6396,
      "▁ilmiy-tadqiqot": 6397,
      "udrat": 6398,
      "zit": 6399,
      "▁rusumli": 6400,
      "▁mukofo": 6401,
      "lagan.\n": 6402,
      "langanlar": 6403,
      "▁197": 6404,
      "▁dunyodagi": 6405,
      "»ning": 6406,
      "▁urib": 6407,
      "miz”,": 6408,
      "▁muomala": 6409,
      "▁xabarda.\n": 6410,
      "▁qilgandi.": 6411,
      "▁Siti": 6412,
      "slik": 6413,
      "▁jangari": 6414,
      "TH": 6415,
      "▁shaxsga": 6416,
      "▁nafarga": 6417,
      "▁ixtiyo": 6418,
      "▁qazib": 6419,
      "▁yetakchisi": 6420,
      "ulton": 6421,
      ",0": 6422,
      ":3": 6423,
      "Daryo": 6424,
      "lining": 6425,
      "masligini": 6426,
      "▁o‘g‘ir": 6427,
      "▁inte": 6428,
      "▁1-ilova": 6429,
      "orak": 6430,
      "▁150": 6431,
      "▁rekord": 6432,
      "▁bizga": 6433,
      "▁rossiyalik": 6434,
      "▁nuf": 6435,
      "▁qayer": 6436,
      "▁dollarni": 6437,
      "▁kada": 6438,
      "che": 6439,
      "▁May": 6440,
      "▁qo‘zg‘": 6441,
      "▁oyda": 6442,
      "kru": 6443,
      "▁48": 6444,
      "▁mazmundagi": 6445,
      "▁Hozirda": 6446,
      "▁(video": 6447,
      "▁javobgarlikka": 6448,
      "▁(yoki": 6449,
      "Liverpul": 6450,
      "▁kunga": 6451,
      "▁moderni": 6452,
      "▁Fuqaro": 6453,
      "-e": 6454,
      ".\nEslatib": 6455,
      "Chel": 6456,
      "hone": 6457,
      "genti": 6458,
      "▁rahbarining": 6459,
      "▁surishtiruv": 6460,
      "▁rasman": 6461,
      "▁anjumani": 6462,
      "200": 6463,
      "uso": 6464,
      "▁yak": 6465,
      "Men": 6466,
      "▁palata": 6467,
      "▁ahamiyatga": 6468,
      "▁toʻgʻrisida": 6469,
      "ayyan": 6470,
      "▁huquqlarini": 6471,
      "▁o‘g‘": 6472,
      "▁fuqarosi": 6473,
      "▁faoliyatining": 6474,
      "▁ulgur": 6475,
      "▁chempionati": 6476,
      "▁istasangiz,": 6477,
      "Qar": 6478,
      "jir": 6479,
      "▁London": 6480,
      "tilmoqda.": 6481,
      "▁davlatlari": 6482,
      "▁xizmatining": 6483,
      "teriya": 6484,
      "▁muammolarni": 6485,
      "dra": 6486,
      "roh": 6487,
      "▁maydonida": 6488,
      "▁G‘a": 6489,
      "▁TIV": 6490,
      "▁munosabatlari": 6491,
      "11": 6492,
      "▁post": 6493,
      "▁(0": 6494,
      "▁pu": 6495,
      "kir": 6496,
      "▁kelajak": 6497,
      "ilon": 6498,
      "▁etdi\n\n": 6499,
      "gini": 6500,
      "-turi": 6501,
      "vey": 6502,
      "▁Tadbir": 6503,
      "▁talabalar": 6504,
      "tses": 6505,
      "▁tarmoqlari": 6506,
      "arbiy": 6507,
      "▁joyiga": 6508,
      "▁bul": 6509,
      "▁qochi": 6510,
      "▁xayriya": 6511,
      "▁ijod": 6512,
      "▁o‘limi": 6513,
      "▁bor,": 6514,
      "▁bormoqda.": 6515,
      "▁manzi": 6516,
      "▁tabrik": 6517,
      "yab": 6518,
      "▁Ser": 6519,
      "▁hibsga": 6520,
      "▁ta'kidlashicha,": 6521,
      "▁tariqasida": 6522,
      "-qismi": 6523,
      "▁yiliga": 6524,
      "▁to‘siq": 6525,
      "▁platfor": 6526,
      "▁buzilishi": 6527,
      "▁yakuniy": 6528,
      "▁Aleksan": 6529,
      "▁o‘rmon": 6530,
      "▁jarohati": 6531,
      "masdan,": 6532,
      "o‘q": 6533,
      "▁“X": 6534,
      "foto": 6535,
      "sozlik": 6536,
      "nomalar": 6537,
      "▁piyoda": 6538,
      "tilishicha,": 6539,
      "▁aktrisa": 6540,
      "bida": 6541,
      "laydi,": 6542,
      "▁sektor": 6543,
      "▁Go": 6544,
      "▁uzun": 6545,
      "▁majmuasi": 6546,
      "▁imkoniyatini": 6547,
      "yut": 6548,
      "larli": 6549,
      "▁nomli": 6550,
      "▁vazifalarni": 6551,
      "rga": 6552,
      "▁boshlagan": 6553,
      "▁tubdan": 6554,
      "▁kamaytirish": 6555,
      "▁Zo": 6556,
      "▁investitsiyalar": 6557,
      "▁44": 6558,
      "▁bazasini": 6559,
      "▁qoldi.": 6560,
      "▁Majlisining": 6561,
      "jaro": 6562,
      "▁qurilgan": 6563,
      "▁kishini": 6564,
      "▁duch": 6565,
      "▁dollardan": 6566,
      "▁paytida": 6567,
      "g‘al": 6568,
      "▁ulushi": 6569,
      "▁manfaatlarini": 6570,
      "vartira": 6571,
      "parvar": 6572,
      "Yanada": 6573,
      "▁Nizomning": 6574,
      "▁suvi": 6575,
      "▁400": 6576,
      "ell": 6577,
      "▁beriladigan": 6578,
      "▁aeroport": 6579,
      "▁yo`l": 6580,
      "Turkiya": 6581,
      "▁ketayotgan": 6582,
      "-6": 6583,
      "tasiga": 6584,
      "Kning": 6585,
      "▁magi": 6586,
      "▁Dil": 6587,
      ".\nI": 6588,
      "dga": 6589,
      "▁ruh": 6590,
      "▁taf": 6591,
      "ham": 6592,
      "pro": 6593,
      "▁qas": 6594,
      "▁bo‘linma": 6595,
      "qituvchi": 6596,
      "ant": 6597,
      "▁43": 6598,
      "▁mingta": 6599,
      "▁o‘tadi.": 6600,
      "▁mas’uli": 6601,
      "▁yangiliklaridan": 6602,
      "▁sentyabr": 6603,
      "-kom": 6604,
      "▁qoidalariga": 6605,
      "▁chempioni": 6606,
      "▁qo‘ya": 6607,
      "▁kuniga": 6608,
      "sda": 6609,
      "▁avtomobillar": 6610,
      "▁ma`lumot": 6611,
      "▁etilishini": 6612,
      "▁g`": 6613,
      "e,": 6614,
      "▁musul": 6615,
      "▁etilayotgan": 6616,
      "-bandning": 6617,
      "▁nusxa": 6618,
      "▁egallab": 6619,
      "▁yetgan": 6620,
      "LARI": 6621,
      "▁turibdi.": 6622,
      "▁11.": 6623,
      "-10": 6624,
      "▁marosimi": 6625,
      "▁2010": 6626,
      "▁don": 6627,
      "ng‘ich": 6628,
      "▁urin": 6629,
      "noq": 6630,
      "▁qobili": 6631,
      "2016": 6632,
      "-moddasiga": 6633,
      "▁(M": 6634,
      "▁rejalashtir": 6635,
      "▁byuro": 6636,
      "zining": 6637,
      "▁39": 6638,
      "▁o‘tadigan": 6639,
      "mada": 6640,
      "▁yerga": 6641,
      "-8": 6642,
      "g‘u": 6643,
      "▁(foto": 6644,
      "▁ko‘rgan": 6645,
      "▁1:1": 6646,
      "▁beshinchi": 6647,
      "▁orada": 6648,
      ":30": 6649,
      "▁stansiya": 6650,
      "▁Yunayte": 6651,
      "▁etayotgan": 6652,
      "▁o‘rni": 6653,
      "larida,": 6654,
      "qo‘rg‘on": 6655,
      "▁oxirida": 6656,
      "▁(8": 6657,
      "▁shunda": 6658,
      "▁tarqalgan": 6659,
      "▁tashabbusi": 6660,
      "▁Ali": 6661,
      "▁57": 6662,
      "▁egasi": 6663,
      "▁topilgan": 6664,
      "▁energetika": 6665,
      "▁xususan,": 6666,
      "▁foizdan": 6667,
      "▁bren": 6668,
      "▁o‘g‘li": 6669,
      "▁yetishtirish": 6670,
      "▁iP": 6671,
      "▁tarkibiy": 6672,
      "neft": 6673,
      "▁(S": 6674,
      "▁2011": 6675,
      "▁diqqat": 6676,
      "Ma'lum": 6677,
      "▁urini": 6678,
      "▁kiradi.": 6679,
      "▁shaх": 6680,
      "sep": 6681,
      "▁olindi.": 6682,
      "bodon": 6683,
      "▁ta’kidlashicha,": 6684,
      "ferensiya": 6685,
      "yus": 6686,
      "▁ko'": 6687,
      "m”": 6688,
      "▁Or": 6689,
      "▁yukla": 6690,
      "opoliya": 6691,
      "Hi": 6692,
      "arselona”": 6693,
      "urodov": 6694,
      "▁o`tkazi": 6695,
      "ekund": 6696,
      "ATO": 6697,
      "fil": 6698,
      "▁kasallanish": 6699,
      "▁yurak": 6700,
      "▁mini": 6701,
      "▁amerikalik": 6702,
      "▁mahsulotlarni": 6703,
      "▁isi": 6704,
      "oldi": 6705,
      "▁delegatsiyasi": 6706,
      "novi": 6707,
      "▁O`": 6708,
      "▁moddalar": 6709,
      "uvent": 6710,
      "-q": 6711,
      "▁finali": 6712,
      "▁12.": 6713,
      "uventus": 6714,
      "▁harakatlar": 6715,
      "▁sonini": 6716,
      "▁qilish;\n": 6717,
      "▁sportchi": 6718,
      "dim,": 6719,
      "26": 6720,
      "▁tashkilotlarning": 6721,
      "lya": 6722,
      "▁musiqa": 6723,
      "▁shaf": 6724,
      "▁imtiyozli": 6725,
      "olibon": 6726,
      "-k": 6727,
      "▁miqyo": 6728,
      "uvlar": 6729,
      "▁qoidalari": 6730,
      "▁batafsil": 6731,
      "▁IShID": 6732,
      "▁mol-mulk": 6733,
      "▁ta’si": 6734,
      "▁tanlash": 6735,
      "▁kursi": 6736,
      "▁Ad": 6737,
      "-yilgi": 6738,
      "Yu": 6739,
      "▁farmon": 6740,
      "zavot": 6741,
      "▁noto‘g‘ri": 6742,
      "▁bo‘lishiga": 6743,
      "ev,": 6744,
      "▁kommunikatsiya": 6745,
      "roy": 6746,
      "▁borgan": 6747,
      "▁Uy": 6748,
      "▁joyda": 6749,
      "▁dengiz": 6750,
      "»da": 6751,
      "lidan": 6752,
      "▁to‘ldiril": 6753,
      "gir": 6754,
      "▁oktyabr": 6755,
      "▁Uzbekistan": 6756,
      "k.": 6757,
      "eng": 6758,
      "▁2000": 6759,
      "arru": 6760,
      "OR": 6761,
      "ri,": 6762,
      "mining": 6763,
      "▁foto": 6764,
      "▁okru": 6765,
      "▁Nazar": 6766,
      "▁Ol": 6767,
      "▁karto": 6768,
      "▁metr/s": 6769,
      "▁ishtirokchilari": 6770,
      "rem": 6771,
      "▁ijtimoiy-iqtisodiy": 6772,
      "Qo‘": 6773,
      "▁davlati": 6774,
      "oko": 6775,
      "▁ilg‘or": 6776,
      "▁filial": 6777,
      "▁Tan": 6778,
      "tepa": 6779,
      "▁IIBB": 6780,
      "fidagi": 6781,
      "▁«K": 6782,
      "▁qahra": 6783,
      "▁modernizatsiya": 6784,
      "zer": 6785,
      "▁tarqat": 6786,
      "ng‘iroq": 6787,
      "di»,": 6788,
      "▁Fer": 6789,
      "shun": 6790,
      "▁materiallar": 6791,
      "▁to`g`ri": 6792,
      "nar": 6793,
      "uga": 6794,
      "yun": 6795,
      "▁balan": 6796,
      "▁kommunal": 6797,
      "sin,": 6798,
      "▁tayanib": 6799,
      "▁mamlakatlari": 6800,
      "▁futbolchilar": 6801,
      "▁giyohvan": 6802,
      "▁texnologiyalar": 6803,
      "▁“Da": 6804,
      "siyasiga": 6805,
      "▁ushlab": 6806,
      "▁0:1": 6807,
      "▁yoqil": 6808,
      "itoyda": 6809,
      "vid": 6810,
      "rining": 6811,
      "Uning": 6812,
      "up": 6813,
      "▁Ulug‘bek": 6814,
      "▁kerakligini": 6815,
      "▁1,5": 6816,
      "▁attest": 6817,
      "▁oda": 6818,
      "orlik": 6819,
      "asidan": 6820,
      "ya,": 6821,
      "▁holatini": 6822,
      "▁yetti": 6823,
      "▁iltimo": 6824,
      "▁taom": 6825,
      "Ta’": 6826,
      "▁nega": 6827,
      "▁iste'mol": 6828,
      "▁Hukumat": 6829,
      "o‘jayev": 6830,
      "▁metr/sekund": 6831,
      "▁Qodi": 6832,
      "je": 6833,
      "▁asar": 6834,
      "▁ta'mino": 6835,
      "avqulodda": 6836,
      "▁lavozimida": 6837,
      "▁a’zosi": 6838,
      "▁yubora": 6839,
      "14": 6840,
      "taj": 6841,
      "ukus": 6842,
      "▁so‘mni": 6843,
      "▁kengay": 6844,
      "▁qidiruv": 6845,
      "nidagi": 6846,
      "▁aloqador": 6847,
      "▁berdi\n\n": 6848,
      "marqandda": 6849,
      "▁sinf": 6850,
      "▁pasport": 6851,
      "▁sezilarli": 6852,
      "▁joylashtirilgan": 6853,
      "ka,": 6854,
      "▁borligi": 6855,
      "▁ya'ni": 6856,
      "niqli": 6857,
      "▁yetkazilgan": 6858,
      "▁o`rin": 6859,
      "uskuna": 6860,
      "▁direktor": 6861,
      "▁farmoni": 6862,
      "▁ingliz": 6863,
      "▁hisobda": 6864,
      "▁maishiy": 6865,
      "sam": 6866,
      ".\nShuningdek,": 6867,
      "ak": 6868,
      "▁хo": 6869,
      "▁to‘xtatib": 6870,
      "t”": 6871,
      "▁asbob-": 6872,
      "▁rol": 6873,
      "ndan": 6874,
      "▁yozishi": 6875,
      "▁qaytarib": 6876,
      "▁niqob": 6877,
      "ssi": 6878,
      "▁sayo": 6879,
      "poli": 6880,
      "O‘zbekistonda": 6881,
      "tifikatsiya": 6882,
      "▁ko‘chasi": 6883,
      "▁taqdimo": 6884,
      "▁yetkazish": 6885,
      "▁o‘yinlari": 6886,
      "liklarini": 6887,
      "▁Eng": 6888,
      "▁nusxasi": 6889,
      "ningiz": 6890,
      "▁sam": 6891,
      "▁«Y": 6892,
      "lo,": 6893,
      "Samarqand": 6894,
      "tish,": 6895,
      "chak": 6896,
      "▁iliq,": 6897,
      "▁ko‘chmas": 6898,
      "▁bosi": 6899,
      "▁mehnatga": 6900,
      "▁Abdura": 6901,
      "es,": 6902,
      "Vi": 6903,
      "▁kirgan": 6904,
      "▁kapital": 6905,
      "Bugungi": 6906,
      "▁Hay": 6907,
      "▁etdi": 6908,
      "▁festi": 6909,
      ".\nBundan": 6910,
      "men": 6911,
      "▁tani": 6912,
      ".\nT": 6913,
      "▁Bar": 6914,
      "▁sifati": 6915,
      "▁amalda": 6916,
      "▁bozorida": 6917,
      "lumotiga": 6918,
      "▁olinadigan": 6919,
      "mila": 6920,
      "▁inqi": 6921,
      "▁tayyorlangan": 6922,
      "kim": 6923,
      "▁bo‘ladigan": 6924,
      "▁tasarru": 6925,
      "▁yuvi": 6926,
      "▁o‘rinda": 6927,
      "▁organlar": 6928,
      "▁qola": 6929,
      "RIA": 6930,
      "▁Ozar": 6931,
      "stin": 6932,
      "rori": 6933,
      "▁shaxslarni": 6934,
      "ttifoq": 6935,
      "▁tilida": 6936,
      "N.": 6937,
      "▁raz": 6938,
      "avdo": 6939,
      "▁sog‘lig‘i": 6940,
      "▁Sam": 6941,
      "sob": 6942,
      "▁qoidalarini": 6943,
      "lar;\n": 6944,
      "▁yuqti": 6945,
      "▁ko‘rsatuvchi": 6946,
      "▁bo‘linmalari": 6947,
      "▁nafardan": 6948,
      "▁viloyatlari": 6949,
      "▁Super": 6950,
      "▁“a": 6951,
      "▁muayyan": 6952,
      "uvga": 6953,
      "▁Investit": 6954,
      "▁rahbarlik": 6955,
      "xe": 6956,
      ".\nAvvalroq": 6957,
      "malarini": 6958,
      "▁so‘zi": 6959,
      "▁yaqinida": 6960,
      "▁tog‘": 6961,
      "▁sudya": 6962,
      "xgal": 6963,
      "▁erishish": 6964,
      "▁qo‘shil": 6965,
      "▁asr": 6966,
      "▁tushuntirish": 6967,
      "ved": 6968,
      "▁Toshkentdagi": 6969,
      "▁bildirdi.": 6970,
      "▁to‘y": 6971,
      "▁64": 6972,
      "▁tayanib,": 6973,
      "▁onasi": 6974,
      "▁boshidan": 6975,
      "▁o‘tkazgan": 6976,
      "▁qamrab": 6977,
      "▁mig": 6978,
      "ksa": 6979,
      "▁St": 6980,
      "▁organlariga": 6981,
      "▁kompaniyasining": 6982,
      "o‘st": 6983,
      "▁mingga": 6984,
      "hol": 6985,
      "▁meni": 6986,
      "shunos": 6987,
      "SJ": 6988,
      "lekom": 6989,
      "qaruv": 6990,
      "yu-Y": 6991,
      "nis": 6992,
      ".\n\n“": 6993,
      "DH": 6994,
      "▁avtomat": 6995,
      "loniya": 6996,
      "▁buyru": 6997,
      "▁birja": 6998,
      "mos": 6999,
      "ila": 7000,
      "motiv": 7001,
      "Yi": 7002,
      "lishda": 7003,
      "▁Olimpiada": 7004,
      "▁qiladi,": 7005,
      "▁natijalariga": 7006,
      "▁uyda": 7007,
      "Is": 7008,
      "▁yo‘llari": 7009,
      "▁hokimlik": 7010,
      "▁Xa": 7011,
      "▁muassasalarining": 7012,
      "13": 7013,
      "ql": 7014,
      "▁bajari": 7015,
      "unyodkor": 7016,
      "▁ishlagan": 7017,
      "’i": 7018,
      "▁o‘zlari": 7019,
      "▁2009": 7020,
      "▁kollej": 7021,
      "▁42": 7022,
      "diiy": 7023,
      "▁boshchiligidagi": 7024,
      "▁For": 7025,
      "▁mahsulo": 7026,
      "▁Ko‘": 7027,
      "▁mln.": 7028,
      "xti": 7029,
      "▁Loyiha": 7030,
      "Bosh": 7031,
      "▁tushirish": 7032,
      "▁sohada": 7033,
      "▁Messi": 7034,
      "▁Madri": 7035,
      "▁67": 7036,
      "uquq": 7037,
      "▁qarorga": 7038,
      "▁hujumchisi": 7039,
      "qasi": 7040,
      "▁shuni": 7041,
      "aroq": 7042,
      "▁prognoz": 7043,
      "▁Quyidagilar": 7044,
      "▁guvohnoma": 7045,
      "Di": 7046,
      "eksi": 7047,
      "▁YTH": 7048,
      "O‘zbek": 7049,
      "▁havola": 7050,
      "tilmagan": 7051,
      "▁mutaxassislari": 7052,
      "▁Bunga": 7053,
      "shid": 7054,
      "-daqiqada": 7055,
      "urod": 7056,
      "ortida": 7057,
      "FY": 7058,
      "▁filiali": 7059,
      "▁«N": 7060,
      "▁oʻtkazi": 7061,
      "▁o‘xshash": 7062,
      "▁tozalash": 7063,
      "▁Jumladan,": 7064,
      "Dast": 7065,
      "qima": 7066,
      "▁Shunday": 7067,
      "▁masalalarni": 7068,
      "\n\n“": 7069,
      "▁soch": 7070,
      "▁nut": 7071,
      "▁harorati": 7072,
      "lashtirishga": 7073,
      "manitar": 7074,
      "▁Iroq": 7075,
      "▁ijrosi": 7076,
      "-so": 7077,
      "▁aytilgan": 7078,
      "▁buzgan": 7079,
      "▁Natijada": 7080,
      "ripov": 7081,
      "izil": 7082,
      "olini": 7083,
      "▁Kubogi": 7084,
      "▁akademik": 7085,
      "▁kamba": 7086,
      "sar": 7087,
      "▁kerakli": 7088,
      "▁yoshga": 7089,
      "lashuvi": 7090,
      "sioner": 7091,
      "▁sheriklik": 7092,
      "▁islohotlar": 7093,
      "'da": 7094,
      "▁qo‘ng‘iroq": 7095,
      "▁muhokamasi": 7096,
      "▁bemorlar": 7097,
      "uda": 7098,
      "▁Bun": 7099,
      "▁qimmatbaho": 7100,
      "sad": 7101,
      "-transport": 7102,
      "▁daryo": 7103,
      "▁kuchayishi": 7104,
      "ubl": 7105,
      "▁“G": 7106,
      "▁kelishib": 7107,
      "▁oladi": 7108,
      "▁S.": 7109,
      "▁o‘zgarishlar": 7110,
      "larimizni": 7111,
      "laydi;\n": 7112,
      "ismoniy": 7113,
      "-yildan": 7114,
      "▁bila": 7115,
      "▁issiqlik": 7116,
      "▁Mer": 7117,
      "▁Bayden": 7118,
      "▁asbob-uskuna": 7119,
      "▁idoralari": 7120,
      "atsion": 7121,
      "▁prokuror": 7122,
      "loger": 7123,
      "arij": 7124,
      "▁bulut": 7125,
      "eni": 7126,
      "▁bunda": 7127,
      "▁\nA": 7128,
      "▁ovqatlanish": 7129,
      "▁majlisida": 7130,
      "▁dizay": 7131,
      "miyati": 7132,
      "▁Bola": 7133,
      "sung": 7134,
      "Bir": 7135,
      "▁tov": 7136,
      "-texnika": 7137,
      "jab": 7138,
      "▁tuzatish": 7139,
      "▁anti": 7140,
      "▁idor": 7141,
      "▁butunlay": 7142,
      "▁diplomatik": 7143,
      "▁sharoitida": 7144,
      "-kommunikatsiya": 7145,
      "▁muassasalariga": 7146,
      "▁avlod": 7147,
      "▁77": 7148,
      "Be": 7149,
      "tiy": 7150,
      "▁Musta": 7151,
      "▁akademiya": 7152,
      "▁o‘zim": 7153,
      "▁Gu": 7154,
      "▁obodon": 7155,
      "▁deklar": 7156,
      "chi,": 7157,
      "▁sahifasida": 7158,
      "yul": 7159,
      "▁muqadda": 7160,
      "▁Nur": 7161,
      "▁xoli": 7162,
      "▁buyu": 7163,
      "alliy": 7164,
      "▁yozishicha,": 7165,
      "mita": 7166,
      "▁ta'mir": 7167,
      "▁punk": 7168,
      "zasida": 7169,
      "korlar": 7170,
      "▁kilogram": 7171,
      "▁mutla": 7172,
      "Ra": 7173,
      "▁iPhone": 7174,
      "di.\nS": 7175,
      "Ba": 7176,
      "▁ziy": 7177,
      "▁foizni": 7178,
      "tle": 7179,
      "▁profilaktika": 7180,
      "▁“Ma": 7181,
      "TB": 7182,
      "▁om": 7183,
      "’lum": 7184,
      "urnal": 7185,
      "▁hokimining": 7186,
      "▁Hukumati": 7187,
      "▁(video)\n\n": 7188,
      "▁ijodiy": 7189,
      "▁hammasi": 7190,
      "▁o‘rganib": 7191,
      "▁bir-bi": 7192,
      "▁etishda": 7193,
      "▁Mehnat": 7194,
      "toq": 7195,
      "▁shunga": 7196,
      "siz.": 7197,
      "▁tayinlangan": 7198,
      "▁xarajatlari": 7199,
      "dromet": 7200,
      "▁56": 7201,
      "▁mojaro": 7202,
      "▁tahli": 7203,
      "▁uyg‘": 7204,
      "▁shartnomalar": 7205,
      "▁dasturlari": 7206,
      "▁albatta": 7207,
      "pen": 7208,
      "▁aniqlik": 7209,
      "▁to‘xt": 7210,
      "▁ustav": 7211,
      "▁soʻ": 7212,
      "zbon": 7213,
      "▁qilmoqda": 7214,
      "▁olmagan": 7215,
      "latsiya": 7216,
      "▁budjetdan": 7217,
      "▁uyida": 7218,
      "Uchrashuv": 7219,
      "▁kvartira": 7220,
      "▁qonunga": 7221,
      "▁madani": 7222,
      "▁ekan.": 7223,
      "▁jarayonini": 7224,
      "NG": 7225,
      "▁davrda": 7226,
      "▁hududidan": 7227,
      "KA": 7228,
      "Vazirlar": 7229,
      "▁Fan": 7230,
      "mali": 7231,
      "▁Mis": 7232,
      "▁sel": 7233,
      "▁Min": 7234,
      "▁qo`l": 7235,
      "▁fuqarolarga": 7236,
      "▁bo‘lganini": 7237,
      "▁pozi": 7238,
      "▁hisobvaraq": 7239,
      "▁qimmatli": 7240,
      "-te": 7241,
      "▁85": 7242,
      "ca": 7243,
      "pur": 7244,
      "▁xizmatlarini": 7245,
      "▁intizo": 7246,
      "▁ketgan.": 7247,
      "dova": 7248,
      "lashtirib": 7249,
      "ger": 7250,
      "pin": 7251,
      "▁Braziliya": 7252,
      "▁banklari": 7253,
      "▁pasay": 7254,
      "▁global": 7255,
      "sotsi": 7256,
      "Ma'lumot": 7257,
      "▁ahvol": 7258,
      "tilgani": 7259,
      "eli": 7260,
      "▁bo‘sha": 7261,
      "kilot": 7262,
      "▁kema": 7263,
      "▁shaxsan": 7264,
      "koh": 7265,
      "▁ularda": 7266,
      "xonasida": 7267,
      "▁TO‘": 7268,
      "▁yurish": 7269,
      "▁oladi.\n": 7270,
      "▁elchisi": 7271,
      "DI": 7272,
      "▁firib": 7273,
      "▁54": 7274,
      "sen": 7275,
      "▁to‘g‘risida»gi": 7276,
      "▁o‘tayotgan": 7277,
      "▁bo‘lishicha,": 7278,
      "▁qilmoqda.\n": 7279,
      "▁Pokiston": 7280,
      "▁star": 7281,
      "vardiya": 7282,
      "▁kelishilgan": 7283,
      "cho": 7284,
      "gohlantirish": 7285,
      "lion": 7286,
      "▁vatan": 7287,
      "▁Aleksandr": 7288,
      "ci": 7289,
      "-muhi": 7290,
      "dia": 7291,
      "▁hokimliklari": 7292,
      "XB": 7293,
      "▁Tergov": 7294,
      "▁puli": 7295,
      "▁ishtirokidagi": 7296,
      "▁Abdulla": 7297,
      "▁ko‘paytirish": 7298,
      "▁parametr": 7299,
      "▁fot": 7300,
      "▁kompaniyalari": 7301,
      "▁Bo‘": 7302,
      "▁qarindosh": 7303,
      "l-": 7304,
      "▁Komissiya": 7305,
      "▁baravar": 7306,
      "▁maqo": 7307,
      "▁maosh": 7308,
      "▁OTM": 7309,
      "▁bilish": 7310,
      "▁53": 7311,
      "▁qadr": 7312,
      "MA": 7313,
      "hrat": 7314,
      "okomotiv": 7315,
      "▁yop": 7316,
      "▁2008": 7317,
      "▁xatti": 7318,
      "▁xavo": 7319,
      "▁o‘tkaziladi.": 7320,
      "▁vari": 7321,
      "▁ilovaga": 7322,
      "▁keldi": 7323,
      "▁73": 7324,
      "▁sura": 7325,
      ".com/": 7326,
      "▁bazaviy": 7327,
      "▁ting": 7328,
      "sev": 7329,
      "kast": 7330,
      ".M.": 7331,
      "bekov": 7332,
      "▁professor": 7333,
      "▁sakkiz": 7334,
      "▁bitiruvchi": 7335,
      "foda": 7336,
      "▁xodimlariga": 7337,
      "▁Xi": 7338,
      "▁oylarida": 7339,
      "▁qoplash": 7340,
      "▁faoliyatida": 7341,
      "▁mamlakatimiz": 7342,
      "tadi": 7343,
      "’ana": 7344,
      "▁Ras": 7345,
      "ome": 7346,
      "▁“RIA": 7347,
      "sto": 7348,
      "▁Trampning": 7349,
      "-ku": 7350,
      "lagani": 7351,
      "▁sanoati": 7352,
      "▁ahvoli": 7353,
      "▁ko‘pa": 7354,
      "▁78": 7355,
      "▁biriga": 7356,
      "▁Vashington": 7357,
      "urar": 7358,
      "▁sodda": 7359,
      "▁almashtirilsin.\n": 7360,
      "▁o‘rinni": 7361,
      "▁chorva": 7362,
      "▁homiy": 7363,
      "kali": 7364,
      "▁yo‘lida": 7365,
      "zaro": 7366,
      "▁kutilmoqda.": 7367,
      "▁boshlanishi": 7368,
      "▁kasalliklar": 7369,
      "▁dasturini": 7370,
      "magani": 7371,
      ".\nShu": 7372,
      "▁uzi": 7373,
      "▁tarqalishi": 7374,
      "▁to‘lovlar": 7375,
      "▁tartibdagi": 7376,
      "bilar": 7377,
      "▁maslahatchisi": 7378,
      "yapti,": 7379,
      "▁bosqichma-": 7380,
      "▁foydalanishni": 7381,
      "▁egalari": 7382,
      "▁Erd": 7383,
      "▁ma’lumotlarga": 7384,
      "ulla": 7385,
      "▁arizasi": 7386,
      "▁nomidan": 7387,
      "d,": 7388,
      "qarli": 7389,
      "▁Qarshi": 7390,
      "▁shubha": 7391,
      "▁ma’lumotlari": 7392,
      "▁yuksak": 7393,
      "▁NATO": 7394,
      "▁turnir": 7395,
      "▁borilgan": 7396,
      "▁ifoda": 7397,
      "▁xur": 7398,
      "▁kuzatuv": 7399,
      "▁adolat": 7400,
      "▁o‘rtog‘i": 7401,
      "▁adliya": 7402,
      "▁safida": 7403,
      "tomobil": 7404,
      "▁qilingandi.": 7405,
      "▁o‘tkazildi.": 7406,
      "▁“Sh": 7407,
      "ubxona": 7408,
      "qibat": 7409,
      "▁tanta": 7410,
      "▁Gar": 7411,
      "Qu": 7412,
      "magan.\n": 7413,
      ".0": 7414,
      "▁qo‘zg‘ati": 7415,
      "stre": 7416,
      "▁63": 7417,
      "▁qo‘shiq": 7418,
      "▁49": 7419,
      "eriya": 7420,
      ".S": 7421,
      "▁og‘ri": 7422,
      "▁haqida”gi": 7423,
      "▁bayra": 7424,
      "▁araf": 7425,
      "-T": 7426,
      "spon": 7427,
      "otida": 7428,
      "▁mavsumda": 7429,
      "▁imzolangan": 7430,
      "▁yalpi": 7431,
      "▁Iqtisodiyot": 7432,
      "▁Uch": 7433,
      ".\nUning": 7434,
      "versa,": 7435,
      "▁sayti": 7436,
      "▁kva": 7437,
      "yili": 7438,
      "lamchi": 7439,
      "▁foizini": 7440,
      "▁(yoki)": 7441,
      "▁oshib": 7442,
      "▁sanksiya": 7443,
      "▁bosqichma-bosqich": 7444,
      "▁shanba": 7445,
      "▁o`yin": 7446,
      "▁chora-tadbirlarni": 7447,
      "▁majmua": 7448,
      "uzli": 7449,
      "▁veb-": 7450,
      "▁muzey": 7451,
      "▁chipta": 7452,
      "▁norozilik": 7453,
      "▁talablar": 7454,
      "▁Amir": 7455,
      "▁yo‘nalishda": 7456,
      "▁va’da": 7457,
      "▁sohi": 7458,
      "▁bergan.\n": 7459,
      "▁dura": 7460,
      "sand": 7461,
      "▁gul": 7462,
      "▁ettirish": 7463,
      "▁saqlanib": 7464,
      "▁dunyoga": 7465,
      "▁akademiyasi": 7466,
      "▁(K": 7467,
      "▁yo‘naltirilgan": 7468,
      "▁kiruvchi": 7469,
      "sur": 7470,
      "▁operator": 7471,
      "▁gvardiya": 7472,
      "▁topshir": 7473,
      "▁“Na": 7474,
      "gentina": 7475,
      "▁berildi.\n": 7476,
      "▁Mamlakat": 7477,
      "▁yakunlari": 7478,
      "sidiya": 7479,
      "▁shartlari": 7480,
      "▁Tim": 7481,
      "▁Gul": 7482,
      "▁sanksiyalar": 7483,
      "▁ayi": 7484,
      "\n\nA": 7485,
      "▁Azi": 7486,
      "▁kompen": 7487,
      "Yevro": 7488,
      "rilgani": 7489,
      "▁musulmon": 7490,
      "yu-York": 7491,
      "▁59": 7492,
      "ektura": 7493,
      "▁faxriy": 7494,
      "▁kambag‘al": 7495,
      "▁tadqiqotlar": 7496,
      "ksiz": 7497,
      "▁yo‘q,": 7498,
      "sariya": 7499,
      "▁oshkor": 7500,
      "▁yashirin": 7501,
      "▁yakshanba": 7502,
      "▁qilinib,": 7503,
      "▁nomiga": 7504,
      "▁noma’lum": 7505,
      "▁tut": 7506,
      "▁v)": 7507,
      "n,": 7508,
      "RIS": 7509,
      "▁kengashining": 7510,
      "▁komissiyasining": 7511,
      "▁Oba": 7512,
      "▁shikast": 7513,
      "▁auksion": 7514,
      "▁mashinasi": 7515,
      "▁qurolli": 7516,
      "lip": 7517,
      "▁nomzo": 7518,
      "xob": 7519,
      "qqat": 7520,
      "▁ro‘yxatiga": 7521,
      "▁loyihani": 7522,
      "▁ayblov": 7523,
      "▁bildirish": 7524,
      "etti": 7525,
      "dirish": 7526,
      "▁2:0": 7527,
      "▁konser": 7528,
      "”.\n\n“": 7529,
      "iyev": 7530,
      "moyish": 7531,
      "▁belgilanadi.\n": 7532,
      "▁sharoitlar": 7533,
      "tr": 7534,
      "▁plastik": 7535,
      "▁xodimlarini": 7536,
      "▁obyek": 7537,
      "mi?\n": 7538,
      "▁terrori": 7539,
      "▁Kengashi,": 7540,
      "▁sayohat": 7541,
      "▁baxt": 7542,
      "▁qonunchilikda": 7543,
      "▁ochish": 7544,
      "▁qismiga": 7545,
      "▁umumta": 7546,
      "▁Avstraliya": 7547,
      "▁Samarqandda": 7548,
      "▁kuzatib": 7549,
      "siyasining": 7550,
      "▁qanchalik": 7551,
      "▁Yaqin": 7552,
      "▁isbot": 7553,
      "▁o‘tkazishga": 7554,
      "▁qarashli": 7555,
      "▁o‘sish": 7556,
      "▁radio": 7557,
      "▁ko‘zdan": 7558,
      "▁viloyatidagi": 7559,
      "basi": 7560,
      "▁yoshi": 7561,
      "hmon": 7562,
      "sponden": 7563,
      "▁MFY": 7564,
      "▁qolishi": 7565,
      "▁qiziq": 7566,
      "ovon": 7567,
      "ino": 7568,
      "rovka": 7569,
      "▁Ek": 7570,
      "▁qilishning": 7571,
      "mazon": 7572,
      "▁Soliq": 7573,
      "▁teri": 7574,
      "tli": 7575,
      "▁Sergey": 7576,
      "IZ": 7577,
      "▁zil": 7578,
      "malarni": 7579,
      "45": 7580,
      "GA": 7581,
      "▁qat’i": 7582,
      "ngda": 7583,
      "▁pora": 7584,
      "▁evaku": 7585,
      "▁talabgor": 7586,
      "▁bildirgan": 7587,
      "▁Favqulodda": 7588,
      "Endi": 7589,
      "▁toifasi": 7590,
      "▁qilishini": 7591,
      "▁o‘tilgan": 7592,
      "▁yog‘": 7593,
      "Eng": 7594,
      "Har": 7595,
      "▁xatboshidagi": 7596,
      "neftgaz": 7597,
      "▁boshlang‘ich": 7598,
      "▁tabiat": 7599,
      "onat": 7600,
      "▁qo‘mitasi,": 7601,
      "lashtirilishi": 7602,
      "▁71": 7603,
      "▁yoq": 7604,
      "▁xavotir": 7605,
      "▁to‘lovchi": 7606,
      "▁saylovi": 7607,
      "▁58": 7608,
      "▁\n“": 7609,
      "▁ko`rsat": 7610,
      "stlar": 7611,
      "tasida": 7612,
      "allu": 7613,
      "vro": 7614,
      "▁Agentlik": 7615,
      "ugaliya": 7616,
      "▁siyosati": 7617,
      "▁shifokorlar": 7618,
      "eter": 7619,
      "udud": 7620,
      "▁qiziqish": 7621,
      "▁Cha": 7622,
      "▁mezbon": 7623,
      "▁gazetasi": 7624,
      "qol": 7625,
      "tellekt": 7626,
      "▁Oy": 7627,
      "▁kanal": 7628,
      "▁Lo": 7629,
      "▁(b": 7630,
      "sub": 7631,
      "▁72": 7632,
      "sanoat”": 7633,
      "▁niyati": 7634,
      "▁rejalashtirilgan.": 7635,
      "O`zbekiston": 7636,
      "▁shoxob": 7637,
      "Sport": 7638,
      "senal": 7639,
      "▁xonanda": 7640,
      "▁orzu": 7641,
      "▁Umu": 7642,
      "▁ayta": 7643,
      "▁mamlakatga": 7644,
      "▁taniqli": 7645,
      "yotini": 7646,
      "2022": 7647,
      "▁ombor": 7648,
      "larim": 7649,
      "▁66": 7650,
      "masida": 7651,
      "shar": 7652,
      "enes": 7653,
      "▁attestatsiya": 7654,
      "▁bo‘lganda": 7655,
      "lokat": 7656,
      "▁atrof-muhi": 7657,
      "▁Respublikasi,": 7658,
      "arb": 7659,
      "▁shahriga": 7660,
      "▁harorat": 7661,
      "▁bosim": 7662,
      "▁Apple": 7663,
      "▁fir": 7664,
      "▁qiyo": 7665,
      "▁qilinadi": 7666,
      "▁berilgan.": 7667,
      "▁janjal": 7668,
      "tiriladi.\n": 7669,
      "tiradi.": 7670,
      "▁arafasida": 7671,
      "▁yoqilg‘i": 7672,
      "▁etgan.\n": 7673,
      "▁qo‘shib": 7674,
      "▁MDH": 7675,
      "▁Qonuni": 7676,
      "chilarni": 7677,
      "».": 7678,
      "▁(ma": 7679,
      "ma-ket": 7680,
      "▁Xitoyda": 7681,
      "▁zid": 7682,
      "▁metall": 7683,
      "▁Per": 7684,
      "▁me’yor": 7685,
      "▁sub'": 7686,
      "▁Qatar": 7687,
      "▁daraja,": 7688,
      "▁maqsadga": 7689,
      "▁13.": 7690,
      "▁bulutli": 7691,
      "▁sarmoya": 7692,
      "▁mis": 7693,
      "▁tashkilotlarining": 7694,
      "-in": 7695,
      "g‘in": 7696,
      "bop": 7697,
      "▁yozib": 7698,
      "▁yurgan": 7699,
      "▁olayotgan": 7700,
      "▁ismli": 7701,
      "▁Madaniyat": 7702,
      "▁Du": 7703,
      "▁qarat": 7704,
      "▁tashxi": 7705,
      "▁viza": 7706,
      "▁(«": 7707,
      "▁shaklida": 7708,
      "▁boshqarmalari": 7709,
      "RISIDA": 7710,
      "ydi.": 7711,
      "▁insonlar": 7712,
      "▁pedagog": 7713,
      "di.\n\n“": 7714,
      "▁TO‘G‘": 7715,
      "▁o‘zgarishi": 7716,
      "▁ro‘yxatini": 7717,
      "▁hududidagi": 7718,
      "▁lavozimidan": 7719,
      "▁oyoq": 7720,
      "▁«Real": 7721,
      "▁bermoqda.": 7722,
      "▁elchixonasi": 7723,
      "▁tizimlari": 7724,
      "▁advokat": 7725,
      "▁oʻr": 7726,
      "▁federatsiyasi": 7727,
      "▁Xitoyning": 7728,
      "hu": 7729,
      "▁sinovdan": 7730,
      "▁shahri,": 7731,
      "▁dia": 7732,
      "lmagan.": 7733,
      "ligini,": 7734,
      "▁shifoxonaga": 7735,
      "▁Bek": 7736,
      "▁tomondan": 7737,
      "▁pat": 7738,
      "▁penalti": 7739,
      "▁tort": 7740,
      "-to": 7741,
      "atiga": 7742,
      "▁qiyinchilik": 7743,
      "▁TO‘G‘RISIDA": 7744,
      "▁munosabatlar": 7745,
      "hum": 7746,
      "▁prokurori": 7747,
      "Xalqaro": 7748,
      "ksimal": 7749,
      "▁yo‘nalishida": 7750,
      "lashdi.": 7751,
      "zorat": 7752,
      "gol": 7753,
      "nalish": 7754,
      "▁tadbirlarni": 7755,
      "▁qolgan.": 7756,
      "▁jo‘nat": 7757,
      "▁o‘tib,": 7758,
      "▁nufuzli": 7759,
      "▁o‘tkaziladi.\n": 7760,
      "▁(a": 7761,
      "▁tashlan": 7762,
      "▁qilinishini": 7763,
      "ngga": 7764,
      "dik,": 7765,
      "▁hududlar": 7766,
      "▁efi": 7767,
      "ser": 7768,
      "▁oldingi": 7769,
      "▁mavjudligi": 7770,
      "kala": 7771,
      "▁darvozasi": 7772,
      "DA": 7773,
      "▁Kuch": 7774,
      "▁bosib": 7775,
      "O‘tgan": 7776,
      "▁yulduz": 7777,
      "▁2006": 7778,
      "larimizning": 7779,
      "▁jamoalari": 7780,
      "Qashqadaryo": 7781,
      "avfsizlik": 7782,
      "▁Afrika": 7783,
      "▁joni": 7784,
      "▁BAA": 7785,
      "▁buxgal": 7786,
      "▁guvohnomasi": 7787,
      "▁etgani": 7788,
      "▁Ko‘p": 7789,
      "▁real": 7790,
      "essiya": 7791,
      "luksiz": 7792,
      "▁olim": 7793,
      "Shundan": 7794,
      "▁bosqichda": 7795,
      "▁but": 7796,
      "▁“Davlat": 7797,
      "▁Twitter": 7798,
      "Loyiha": 7799,
      "tning": 7800,
      "lari)": 7801,
      "▁saro": 7802,
      "▁kirishi": 7803,
      "▁kapita": 7804,
      "▁harakatlanish": 7805,
      "IFA": 7806,
      "zidan": 7807,
      "▁markazining": 7808,
      "yov": 7809,
      "Qonun": 7810,
      "27": 7811,
      "▁aniqlandi.": 7812,
      "▁saralash": 7813,
      "yoz": 7814,
      "▁etiladi": 7815,
      "g`ir": 7816,
      "хona": 7817,
      "rsenal": 7818,
      "ilgan.": 7819,
      "▁an’ana": 7820,
      "deral": 7821,
      "niye": 7822,
      "▁etmoqda.\n": 7823,
      "▁nazoratni": 7824,
      "▁prin": 7825,
      "▁хizmat": 7826,
      "▁zilzila": 7827,
      "▁salohiyatini": 7828,
      "hir": 7829,
      "▁farzandi": 7830,
      "▁taklifi": 7831,
      "vis": 7832,
      "▁kompaniyalar": 7833,
      "▁bandi": 7834,
      "xan": 7835,
      "Xususan,": 7836,
      "▁ro‘": 7837,
      "▁yopiq": 7838,
      "▁Senati": 7839,
      "▁ben": 7840,
      "▁Federatsiyasi": 7841,
      "▁etildi\n\n": 7842,
      "▁vazirliklar": 7843,
      "▁vositalarining": 7844,
      "▁istalgan": 7845,
      "▁ortidan": 7846,
      "▁rafi": 7847,
      "▁chiqqa": 7848,
      "▁ruxsatnoma": 7849,
      "udu": 7850,
      "▁tadbirlari": 7851,
      "Qaror": 7852,
      "sosiy": 7853,
      "layman": 7854,
      "orre": 7855,
      "chilikni": 7856,
      ").\n\n": 7857,
      "Ne": 7858,
      "minar": 7859,
      "Mi": 7860,
      "▁o‘yini": 7861,
      "▁kelgusi": 7862,
      "usobod": 7863,
      "▁topgan": 7864,
      "▁196": 7865,
      "▁ko‘rikdan": 7866,
      "\n·": 7867,
      "kori": 7868,
      "jahon": 7869,
      "▁raisining": 7870,
      "▁Bugun": 7871,
      "Qozog‘iston": 7872,
      "'lum": 7873,
      "▁mening": 7874,
      "erina": 7875,
      "▁qolib": 7876,
      "▁(r": 7877,
      "▁(I": 7878,
      "gohlantirishlar:": 7879,
      "fof": 7880,
      "▁blok": 7881,
      "Ni": 7882,
      "yar": 7883,
      "▁pichoq": 7884,
      "grafiya": 7885,
      "▁Ligasi": 7886,
      "▁tr": 7887,
      "▁maydoncha": 7888,
      "▁bron": 7889,
      "▁ishbilar": 7890,
      "▁protses": 7891,
      "▁qonu": 7892,
      "▁Jamoat": 7893,
      "atan": 7894,
      "▁14.": 7895,
      "▁oldidan": 7896,
      "▁kub": 7897,
      "▁haraka": 7898,
      "▁ta'limi": 7899,
      "eksika": 7900,
      "sav": 7901,
      "▁farovon": 7902,
      "▁yoshdan": 7903,
      "lamli": 7904,
      "▁hisoblan": 7905,
      "Bo": 7906,
      "▁“Real”": 7907,
      "\nGollar:": 7908,
      "▁borilayotgan": 7909,
      "▁qo‘mon": 7910,
      "▁shart.\n": 7911,
      "na,": 7912,
      "▁sil": 7913,
      "▁aniqlangan.": 7914,
      "xo‘jayev": 7915,
      "▁meda": 7916,
      "▁2004": 7917,
      "orlar": 7918,
      "▁nikoh": 7919,
      "lgan.": 7920,
      "▁holatga": 7921,
      "stanbul": 7922,
      "PL": 7923,
      "jxona": 7924,
      "▁mezon": 7925,
      "▁bolalarni": 7926,
      "▁Mon": 7927,
      "bayjon": 7928,
      "▁o‘rnat": 7929,
      "and": 7930,
      "▁yoshgacha": 7931,
      "riqnoma": 7932,
      "▁intervyusida": 7933,
      "tasini": 7934,
      "▁yondash": 7935,
      "▁68": 7936,
      "▁chiqishga": 7937,
      "▁mamlakatimizda": 7938,
      "▁hov": 7939,
      "▁ma'lumotlariga": 7940,
      "▁koʻrsa": 7941,
      "▁(foto)\n\n": 7942,
      "▁subsidiya": 7943,
      "lari;\n": 7944,
      "▁bajara": 7945,
      "28": 7946,
      "▁oydan": 7947,
      "ruziya": 7948,
      "▁Barcha": 7949,
      "▁prezidentlik": 7950,
      "ʻy": 7951,
      "▁sazo": 7952,
      "▁samolyoti": 7953,
      "▁Bugungi": 7954,
      "▁ziyorat": 7955,
      "▁\n«": 7956,
      "▁B.": 7957,
      "▁(ish": 7958,
      "▁YH": 7959,
      "pak": 7960,
      "▁ko‘rishi": 7961,
      "▁oyna": 7962,
      "▁niho": 7963,
      "▁rivojlanishi": 7964,
      "▁Ru": 7965,
      "▁Ikki": 7966,
      "▁Sk": 7967,
      "▁600": 7968,
      "▁84": 7969,
      "▁mansub": 7970,
      "▁kishining": 7971,
      "▁oshirishi": 7972,
      "pon": 7973,
      "▁83": 7974,
      "▁talon": 7975,
      "▁Maktab": 7976,
      "tov": 7977,
      "▁ketma-ket": 7978,
      "▁quvur": 7979,
      "orijiy": 7980,
      "▁aytdi.": 7981,
      "Fi": 7982,
      "▁tup": 7983,
      "▁«L": 7984,
      "▁tashlash": 7985,
      "▁Sh.": 7986,
      "oqea": 7987,
      "diri": 7988,
      "▁saqlash,": 7989,
      "▁yuritiladi": 7990,
      "ahor": 7991,
      "▁Val": 7992,
      "▁Polsha": 7993,
      "▁respublikaning": 7994,
      "▁Katta": 7995,
      "▁jazosi": 7996,
      "▁kelishuvga": 7997,
      "▁xursand": 7998,
      "▁haydovchisi": 7999,
      "▁quyi": 8000,
      "▁takliflarni": 8001,
      "▁ayniqsa,": 8002,
      "▁ittifoq": 8003,
      "▁millat": 8004,
      "▁ta’minlasin.\n": 8005,
      "▁terrorchilik": 8006,
      "gre": 8007,
      "▁sazovor": 8008,
      "▁76": 8009,
      "▁veb-say": 8010,
      "▁buzilgan": 8011,
      "▁tayyorlash,": 8012,
      "qimachilik": 8013,
      "ray": 8014,
      "▁omon": 8015,
      "▁faoliyatni": 8016,
      "▁(P": 8017,
      "▁olingan.\n": 8018,
      "▁buzish": 8019,
      "▁shunchaki": 8020,
      "▁74": 8021,
      "▁kelmoqda.": 8022,
      "sinki,": 8023,
      "▁adabiyot": 8024,
      "'at": 8025,
      "▁of": 8026,
      "▁dasturiy": 8027,
      "▁organizm": 8028,
      "▁Dav": 8029,
      "tiriladi.": 8030,
      "▁joylarga": 8031,
      "▁Motor": 8032,
      "▁fotos": 8033,
      "tiko": 8034,
      "liklarga": 8035,
      "▁uzluksiz": 8036,
      "z,": 8037,
      "lashtiruvchi": 8038,
      "▁keksa": 8039,
      "▁palatasining": 8040,
      "▁konsert": 8041,
      "▁ma'muriy": 8042,
      "▁69": 8043,
      "▁mablag‘larni": 8044,
      "▁arxit": 8045,
      "▁borib,": 8046,
      "▁Kompaniya": 8047,
      "▁telekom": 8048,
      "▁hajmini": 8049,
      "▁narxlari": 8050,
      "▁ko‘ngil": 8051,
      "▁chiqilishi": 8052,
      "▁“Barselona”": 8053,
      "▁super": 8054,
      "nomasi,": 8055,
      "▁etadigan": 8056,
      "▁stadioni": 8057,
      "SST": 8058,
      "▁olgani": 8059,
      "▁Olimpiya": 8060,
      "doshi": 8061,
      "▁mamlakatdagi": 8062,
      "▁qarorni": 8063,
      "▁9,": 8064,
      "▁prezidentining": 8065,
      "ildi": 8066,
      "▁dasturlarini": 8067,
      "▁kassa": 8068,
      "▁Iqtisodiy": 8069,
      "▁bosqichida": 8070,
      "▁Yana": 8071,
      "ladi)": 8072,
      "▁olimpiya": 8073,
      "▁xotin-qizlar": 8074,
      "▁talablarga": 8075,
      "▁tortish": 8076,
      "▁41": 8077,
      "▁muhojir": 8078,
      "asta": 8079,
      "▁Nukus": 8080,
      "yam": 8081,
      "▁Qodirov": 8082,
      "▁sahifa": 8083,
      "▁Chen": 8084,
      "▁tizimining": 8085,
      "▁yod": 8086,
      "▁kiradi.\n": 8087,
      "ua": 8088,
      "tilmoqda.\n": 8089,
      "ej": 8090,
      "▁aytilishicha,": 8091,
      "▁qoʻl": 8092,
      "urojaat": 8093,
      "langanidan": 8094,
      "▁kasbiy": 8095,
      "qay": 8096,
      "▁idorasi": 8097,
      "▁kre": 8098,
      "▁miqdoridagi": 8099,
      "SI": 8100,
      "tijorat": 8101,
      "elen": 8102,
      "▁(i": 8103,
      "▁bo‘lganlar": 8104,
      "g`liq": 8105,
      "▁emlash": 8106,
      "▁halokat": 8107,
      "▁boshqalar": 8108,
      "▁juma": 8109,
      "jini": 8110,
      "▁egalik": 8111,
      "▁assotsi": 8112,
      "▁tanlovi": 8113,
      "▁2007": 8114,
      "▁Qa": 8115,
      "▁kiritilishi": 8116,
      "▁tartibida": 8117,
      "▁urug‘": 8118,
      "▁shundaki,": 8119,
      "aba": 8120,
      "▁siyosatini": 8121,
      "kamma": 8122,
      "▁hamkas": 8123,
      "▁mas'ul": 8124,
      "boz": 8125,
      "▁oshirishni": 8126,
      "▁And": 8127,
      "▁texnologiyalarni": 8128,
      "▁razved": 8129,
      "▁qadri": 8130,
      "taga": 8131,
      "▁ortda": 8132,
      "▁ko‘rinishda": 8133,
      "jar": 8134,
      "▁demokratik": 8135,
      "jum": 8136,
      "▁tayan": 8137,
      "▁to‘plami,": 8138,
      "miz»,": 8139,
      "▁sme": 8140,
      "▁qarorlar": 8141,
      "▁ostidagi": 8142,
      "▁soxta": 8143,
      "▁VA": 8144,
      "▁emasligi": 8145,
      "▁zahar": 8146,
      "masining": 8147,
      "▁Nar": 8148,
      "▁Jamg‘arma": 8149,
      "▁tashvi": 8150,
      "▁joyga": 8151,
      "▁yozgan": 8152,
      "▁sizga": 8153,
      "▁Bank": 8154,
      "▁dalolatnoma": 8155,
      "▁kito": 8156,
      "▁inspektori": 8157,
      "▁olindi\n\n": 8158,
      "▁tugatish": 8159,
      "its": 8160,
      "▁rasmiylashtiri": 8161,
      "▁aloqalarni": 8162,
      "▁agentligining": 8163,
      "▁berish,": 8164,
      "▁etishicha,": 8165,
      "▁“Inter": 8166,
      "▁Ben": 8167,
      "▁oz": 8168,
      "▁nafas": 8169,
      "▁garov": 8170,
      "kammal": 8171,
      "▁hisobla": 8172,
      "▁qaytar": 8173,
      "Ukraina": 8174,
      ".\nBu": 8175,
      "▁yetdi.": 8176,
      "▁tanishish": 8177,
      "-kon": 8178,
      "▁markaziga": 8179,
      "▁oshiriladigan": 8180,
      "▁inspektor": 8181,
      "kologiya": 8182,
      "▁ekstre": 8183,
      "ASI": 8184,
      "yet": 8185,
      "▁lib": 8186,
      "rayotgan": 8187,
      "▁ilm": 8188,
      "▁jangovar": 8189,
      "▁tizimidagi": 8190,
      "▁ko‘rsatma": 8191,
      "▁darajasida": 8192,
      "▁ta`kid": 8193,
      "▁Ahmad": 8194,
      "▁al-": 8195,
      "▁zarur.": 8196,
      "▁navbatda": 8197,
      "pidemiologik": 8198,
      "▁xatti-harakat": 8199,
      ".\nP": 8200,
      "o`": 8201,
      "▁filmi": 8202,
      "▁liniya": 8203,
      "▁“Manchester": 8204,
      "▁86": 8205,
      "▁Tay": 8206,
      "▁o‘rga": 8207,
      "suski,": 8208,
      "▁tarqal": 8209,
      "▁qilishlari": 8210,
      "▁52": 8211,
      "▁tasdiqlansin.\n": 8212,
      "▁reali": 8213,
      "▁Mirzo": 8214,
      "▁masalasini": 8215,
      "▁darhol": 8216,
      "o‘ravon": 8217,
      "▁Gi": 8218,
      "▁avariya": 8219,
      "▁idi": 8220,
      "▁qoch": 8221,
      "▁to‘qqi": 8222,
      "▁e’tibori": 8223,
      "▁haftada": 8224,
      "▁boshlandi.": 8225,
      "▁arxi": 8226,
      "▁\n\"": 8227,
      "▁if": 8228,
      "park": 8229,
      "▁ishlovchi": 8230,
      "▁Bol": 8231,
      "nab": 8232,
      "▁Yoshlar": 8233,
      "-bandida": 8234,
      "udlik": 8235,
      "▁kafe": 8236,
      "▁tushuncha": 8237,
      "▁negi": 8238,
      "▁2003": 8239,
      "▁iden": 8240,
      "▁olimlar": 8241,
      "orov": 8242,
      "▁xodimlarning": 8243,
      "▁bloger": 8244,
      "▁yasa": 8245,
      "▁kimyoviy": 8246,
      "▁radi": 8247,
      "▁zararli": 8248,
      "▁to‘lovi": 8249,
      "▁tayinlash": 8250,
      "▁qilingani": 8251,
      "▁(ro‘yxat": 8252,
      "▁Port": 8253,
      "▁nogironligi": 8254,
      "drat": 8255,
      "ual": 8256,
      "▁so‘rab": 8257,
      "▁haqining": 8258,
      "▁2:1": 8259,
      "tletiko": 8260,
      "gunga": 8261,
      "▁“Z": 8262,
      "▁borligini": 8263,
      "▁to‘xtatish": 8264,
      "▁ko‘chasida": 8265,
      "▁shaffof": 8266,
      "mitasi": 8267,
      "▁120": 8268,
      "atini": 8269,
      "▁keladi.\n": 8270,
      "▁beshta": 8271,
      "-to‘g‘ri": 8272,
      "vetsiya": 8273,
      "▁Baho": 8274,
      "Germaniya": 8275,
      "▁alla": 8276,
      "▁Konstitutsiya": 8277,
      "latish": 8278,
      "▁Boshqa": 8279,
      "▁miqdorini": 8280,
      "▁gra": 8281,
      "▁15.": 8282,
      "▁tril": 8283,
      "ogle": 8284,
      "▁inqiroz": 8285,
      "sl": 8286,
      "▁va'da": 8287,
      "▁pasp": 8288,
      "▁sun’iy": 8289,
      "▁kreditlar": 8290,
      "▁O‘sha": 8291,
      "▁ma’naviy": 8292,
      "▁uyiga": 8293,
      "▁quyidagicha": 8294,
      "▁iqtisodiyoti": 8295,
      "Ta'kidlanishicha,": 8296,
      "▁Savdo": 8297,
      "ʻja": 8298,
      "▁ko‘k": 8299,
      "▁Mil": 8300,
      "▁bajaruvchi": 8301,
      "tigi": 8302,
      "▁fuqarolarni": 8303,
      "▁sammi": 8304,
      "demiyasi": 8305,
      "▁natijalarini": 8306,
      "savv": 8307,
      "dorlari": 8308,
      "▁durang": 8309,
      "▁sub'yekt": 8310,
      "▁rivojlantirishning": 8311,
      "▁2005": 8312,
      "▁uzat": 8313,
      "▁tushum": 8314,
      "▁yo‘l-transport": 8315,
      "▁vara": 8316,
      "▁yuklansin.": 8317,
      "jam": 8318,
      "▁Qurolli": 8319,
      "▁ko‘nik": 8320,
      "▁char": 8321,
      "smik": 8322,
      "zish": 8323,
      "▁ko‘rsatishi": 8324,
      "O`": 8325,
      "▁«O‘zbekiston": 8326,
      "▁oshirish;\n": 8327,
      "Le": 8328,
      "▁devor": 8329,
      "▁bo`lishi": 8330,
      "li”": 8331,
      "▁evakuatsiya": 8332,
      "▁navbatida,": 8333,
      "▁Mirziyoyevning": 8334,
      "▁nizomga": 8335,
      "▁Oʻzbekiston": 8336,
      "eyn": 8337,
      "ganda,": 8338,
      "▁velo": 8339,
      "-uy": 8340,
      "▁boshliq": 8341,
      "▁yo‘lovchilar": 8342,
      "▁kompensatsiya": 8343,
      "’ati": 8344,
      "▁taallu": 8345,
      "▁xo‘jaliklari": 8346,
      "ngir": 8347,
      "-sa": 8348,
      "▁ota-onasi": 8349,
      "▁terakt": 8350,
      "▁juft": 8351,
      "▁birining": 8352,
      "▁transporti": 8353,
      "▁oyining": 8354,
      "▁turlarini": 8355,
      "lik”": 8356,
      "▁muddatini": 8357,
      "ziyat": 8358,
      "▁himoyachisi": 8359,
      "ortini": 8360,
      "quvchi": 8361,
      "▁futbolchisi": 8362,
      "qachon": 8363,
      "▁boshqacha": 8364,
      "▁ko‘rinish": 8365,
      "▁yozuv": 8366,
      "LIK": 8367,
      "ef": 8368,
      "▁asosan,": 8369,
      "▁to‘xtat": 8370,
      "▁tutuvchi": 8371,
      "▁Qay": 8372,
      "▁mahkum": 8373,
      "▁rejiss": 8374,
      "shir": 8375,
      "▁Xu": 8376,
      "ilonzor": 8377,
      "▁minglab": 8378,
      "▁izchil": 8379,
      "uters": 8380,
      "▁boshlash": 8381,
      "yn": 8382,
      "rishti": 8383,
      "▁narsani": 8384,
      "xtiyor": 8385,
      "▁yakunida": 8386,
      "▁qozo": 8387,
      "▁o‘rtoq": 8388,
      "ulay": 8389,
      "▁qarorida": 8390,
      "▁hujja": 8391,
      "▁cheklovlar": 8392,
      "eterburg": 8393,
      "zinchi": 8394,
      "▁konferensiya": 8395,
      "xia": 8396,
      "uduq": 8397,
      "▁targ‘ib": 8398,
      "▁turadi.": 8399,
      "▁tomonlar": 8400,
      "▁hiko": 8401,
      "▁etdi,": 8402,
      "ozi": 8403,
      "Mamlakat": 8404,
      "▁o`ta": 8405,
      "▁emas.\n": 8406,
      "▁parlam": 8407,
      "▁“TASS”": 8408,
      "qinlik": 8409,
      "ChL": 8410,
      "▁Br": 8411,
      "linch": 8412,
      "▁senator": 8413,
      "▁munosabatlarni": 8414,
      "mdagi": 8415,
      "lgach,": 8416,
      "▁«Barselona": 8417,
      "GI": 8418,
      "▁quyosh": 8419,
      "▁bo‘lmasligi": 8420,
      "▁a'zolari": 8421,
      "▁pen": 8422,
      "▁boradi.": 8423,
      "▁mukammal": 8424,
      "▁Parij": 8425,
      "lanishga": 8426,
      "striya": 8427,
      "sinf": 8428,
      "lanmoqda.\n": 8429,
      "shlar": 8430,
      "▁qat'iy": 8431,
      "▁konsep": 8432,
      "▁shoxobcha": 8433,
      "▁ishlaydigan": 8434,
      "▁tarqatish": 8435,
      "▁qo'": 8436,
      "Futbol": 8437,
      "abo": 8438,
      "Andijon": 8439,
      "▁miqdordagi": 8440,
      "▁ko‘rsatkichlari": 8441,
      "▁shoshi": 8442,
      "Shavkat": 8443,
      "▁qarorlariga": 8444,
      "▁tashkilotining": 8445,
      "▁kirita": 8446,
      "▁Sport": 8447,
      "▁yarata": 8448,
      "▁kvadrat": 8449,
      "▁Turizm": 8450,
      "▁ver": 8451,
      "▁kubogi": 8452,
      "▁Temur": 8453,
      "▁bit": 8454,
      "yapmiz.": 8455,
      "▁yonida": 8456,
      "diyev": 8457,
      "▁zo‘ravon": 8458,
      "PX": 8459,
      "▁to‘s": 8460,
      "▁maydonda": 8461,
      "rishtianu": 8462,
      "▁homila": 8463,
      "▁chempionatida": 8464,
      "▁fut": 8465,
      "▁o‘quvchilar": 8466,
      "▁taalluqli": 8467,
      "▁tir": 8468,
      "▁Nyu-York": 8469,
      "Ikkinchi": 8470,
      "▁reg": 8471,
      "matsev": 8472,
      "ate": 8473,
      "▁Foto": 8474,
      "▁Yusu": 8475,
      "▁\nS": 8476,
      "▁trillion": 8477,
      "laziz": 8478,
      "va,": 8479,
      "▁koʻp": 8480,
      "▁mahallasida": 8481,
      "▁imkoniyatlar": 8482,
      "▁hisobvara": 8483,
      "▁JCh": 8484,
      "▁ta’minlashga": 8485,
      "▁Por": 8486,
      "rganch": 8487,
      "▁singa": 8488,
      "dlari": 8489,
      "▁obodonlashtirish": 8490,
      "▁undiri": 8491,
      "▁ta’minlash;\n": 8492,
      "munikat": 8493,
      "▁aslida": 8494,
      "▁orol": 8495,
      "▁ishlariga": 8496,
      "▁materiallari": 8497,
      "▁“Daryo”ga": 8498,
      "ps": 8499,
      "enesu": 8500,
      "▁e’tirof": 8501,
      "▁tad": 8502,
      "▁kay": 8503,
      "▁qizil": 8504,
      "▁nazar,": 8505,
      "▁shuning": 8506,
      "ahongir": 8507,
      "magan,": 8508,
      "▁mashq": 8509,
      "erinariya": 8510,
      "▁raqi": 8511,
      "▁darajaga": 8512,
      "▁yaratish,": 8513,
      "▁binosi": 8514,
      "▁Kol": 8515,
      "▁Pi": 8516,
      "▁jangi": 8517,
      "▁ir": 8518,
      "▁koronavirusdan": 8519,
      "▁zudlik": 8520,
      "Agar": 8521,
      "▁Shay": 8522,
      "▁amaliyoti": 8523,
      "▁kunning": 8524,
      "y-harakat": 8525,
      "▁O‘tgan": 8526,
      "Jahon": 8527,
      "▁yotqizil": 8528,
      "pote": 8529,
      "▁tarji": 8530,
      "▁milliondan": 8531,
      "adi": 8532,
      "▁ko‘prik": 8533,
      "▁savolga": 8534,
      "▁qarorini": 8535,
      "▁quruq": 8536,
      "▁uylar": 8537,
      "▁taga": 8538,
      "▁dengi": 8539,
      "▁transfer": 8540,
      "▁Nav": 8541,
      "ldi.": 8542,
      "langanini": 8543,
      "▁Fo": 8544,
      "▁son": 8545,
      "kio": 8546,
      "▁terrorizm": 8547,
      "▁almashtirish": 8548,
      "▁tovarlarni": 8549,
      "mov,": 8550,
      "▁allaqachon": 8551,
      "▁manbalari": 8552,
      "▁hisobni": 8553,
      "▁rahbarlarining": 8554,
      "▁prinsi": 8555,
      "▁suri": 8556,
      "doq": 8557,
      "Qoraqalpog‘iston": 8558,
      "partament": 8559,
      "▁qisman": 8560,
      "▁Elekt": 8561,
      "▁chiqarishga": 8562,
      "▁sabablari": 8563,
      "▁majlisi": 8564,
      "soy": 8565,
      "▁joyidan": 8566,
      "▁o`tgan": 8567,
      "▁ma’muriyati": 8568,
      "▁qonunchiligi": 8569,
      "▁norma": 8570,
      "▁disp": 8571,
      "▁uchuvchi": 8572,
      "▁o‘smir": 8573,
      "▁hujjatlarning": 8574,
      "▁savdosi": 8575,
      "▁oxirigacha": 8576,
      "▁berdi,": 8577,
      "\n\n\n": 8578,
      "▁qotil": 8579,
      "▁62": 8580,
      "▁odamlarni": 8581,
      "▁albatta,": 8582,
      "mimiy": 8583,
      "lot": 8584,
      "▁79": 8585,
      "▁otish": 8586,
      "▁go‘sht": 8587,
      "▁noyob": 8588,
      "▁alomat": 8589,
      "▁oyidan": 8590,
      "▁Tosh": 8591,
      "▁O‘rta": 8592,
      "▁odamlarning": 8593,
      "▁“Sa": 8594,
      "lax": 8595,
      "zing": 8596,
      "▁yoshida": 8597,
      "▁ge": 8598,
      "▁atigi": 8599,
      "bro": 8600,
      "▁oshiruvchi": 8601,
      "▁toʻgʻrisidagi": 8602,
      "▁bo‘lmas": 8603,
      "▁depo": 8604,
      "tirdi.": 8605,
      "tinga": 8606,
      "▁kunidan": 8607,
      "omet": 8608,
      "▁turistik": 8609,
      "▁vitse": 8610,
      "▁bazasida": 8611,
      "▁boshqaruvchi": 8612,
      "pov": 8613,
      "▁kelgusida": 8614,
      "▁dushanba": 8615,
      "giga": 8616,
      "▁rivoji": 8617,
      "▁buyuk": 8618,
      "▁doirasidagi": 8619,
      "▁ta`min": 8620,
      "-9": 8621,
      "▁maz": 8622,
      "-sab": 8623,
      "▁tashuvchi": 8624,
      "▁asosda": 8625,
      "eterinariya": 8626,
      "mizdan": 8627,
      "UZ": 8628,
      "T,": 8629,
      "▁Um": 8630,
      "▁omb": 8631,
      "▁pol": 8632,
      "▁kontrakt": 8633,
      "chin": 8634,
      "orativ": 8635,
      "▁Faqat": 8636,
      "elenskiy": 8637,
      "▁yozilgan": 8638,
      "▁marosim": 8639,
      "▁nafar,": 8640,
      "▁belgilangan.": 8641,
      "chinchi": 8642,
      "manda": 8643,
      "▁minnatdor": 8644,
      "Ta’kidlanishicha,": 8645,
      "ʻyх": 8646,
      "shil": 8647,
      "▁kishidan": 8648,
      "mom": 8649,
      "▁Buni": 8650,
      "▁yo‘qligi": 8651,
      "▁kechgan": 8652,
      "ln": 8653,
      "enesuela": 8654,
      "▁reys": 8655,
      "▁YHXB": 8656,
      "▁muxoli": 8657,
      "▁delegatsiya": 8658,
      "co": 8659,
      "▁ax": 8660,
      "▁badiiy": 8661,
      "▁vazirligida": 8662,
      "o‘g‘an": 8663,
      "▁miqdorining": 8664,
      "▁funk": 8665,
      "▁(u": 8666,
      "o‘nggi": 8667,
      "arak": 8668,
      "sual": 8669,
      "▁ertalab": 8670,
      "▁Mirziyoev": 8671,
      "▁ataladi)": 8672,
      "xonalar": 8673,
      "▁Suv": 8674,
      "▁oso": 8675,
      "kalav": 8676,
      "▁oilasi": 8677,
      "▁etilib,": 8678,
      "▁qaytib": 8679,
      "▁bizni": 8680,
      "▁nazoratini": 8681,
      "▁Futbol": 8682,
      "chilikka": 8683,
      "man”,": 8684,
      "▁namoyon": 8685,
      "▁Sherzod": 8686,
      "Buyuk": 8687,
      "▁qo‘yib": 8688,
      "ill": 8689,
      "▁87": 8690,
      "▁aloqasi": 8691,
      "▁to‘g‘ridan-to‘g‘ri": 8692,
      "saf": 8693,
      "yilgan": 8694,
      "▁ehtimoli": 8695,
      "▁to‘lab": 8696,
      "▁yig‘ilishida": 8697,
      "texnika": 8698,
      "▁jabrlanuvchi": 8699,
      "dli": 8700,
      "▁sahifasi": 8701,
      "▁Fran": 8702,
      "▁ovo": 8703,
      "ubay": 8704,
      "▁o‘tkazishni": 8705,
      "xfiy": 8706,
      "▁narxlar": 8707,
      "▁iltimos": 8708,
      "▁bayonnoma": 8709,
      "o‘jalik": 8710,
      "▁“Me": 8711,
      "▁qo‘shilgan": 8712,
      "▁jazoni": 8713,
      "midan": 8714,
      "▁korporat": 8715,
      "▁aralash": 8716,
      "▁apparati": 8717,
      "derlandiya": 8718,
      "▁oshirgan": 8719,
      "▁Gro": 8720,
      "uloq": 8721,
      "ertol": 8722,
      "Ijtimoiy": 8723,
      "▁pesh": 8724,
      "char": 8725,
      ".uz”": 8726,
      "▁muqo": 8727,
      "di.\nK": 8728,
      "lashishi": 8729,
      "▁zavodi": 8730,
      "▁tender": 8731,
      "▁En": 8732,
      "poteka": 8733,
      "▁infratuzilma": 8734,
      "▁qog‘ozlar": 8735,
      "dorlar": 8736,
      "▁aylandi.": 8737,
      "OM": 8738,
      "▁turishi": 8739,
      "BK": 8740,
      "▁deyish": 8741,
      "eys": 8742,
      "▁vositalar": 8743,
      "\nM": 8744,
      "▁15-20": 8745,
      "savvur": 8746,
      "▁kayfi": 8747,
      "▁“Toshkent": 8748,
      "▁rubl": 8749,
      "▁ma'lumotlarni": 8750,
      "▁holatlarda": 8751,
      "voni": 8752,
      "▁parva": 8753,
      "▁bog‘cha": 8754,
      "▁to‘lovlarni": 8755,
      "▁qoidabuzar": 8756,
      "len": 8757,
      "▁Dar": 8758,
      "▁litsey": 8759,
      "▁Don": 8760,
      "toni": 8761,
      "▁Internet": 8762,
      "▁yorqin": 8763,
      "▁berib,": 8764,
      "▁sohasini": 8765,
      "▁kuzatish": 8766,
      "▁mineral": 8767,
      "▁idoraviy": 8768,
      "▁maksimal": 8769,
      "▁«E": 8770,
      "▁yuritiladi)": 8771,
      "xat": 8772,
      "▁to‘ldirish": 8773,
      "ishloq": 8774,
      "▁tayinlandi.": 8775,
      "▁(F": 8776,
      "▁xolos": 8777,
      "yora": 8778,
      "Ye": 8779,
      "foni": 8780,
      "▁kesib": 8781,
      "▁afzal": 8782,
      "BC": 8783,
      "▁«U": 8784,
      "tellektual": 8785,
      "▁ustiga": 8786,
      "▁qo`lga": 8787,
      "▁ostiga": 8788,
      "Chelsi": 8789,
      "ity": 8790,
      "▁Yunusobod": 8791,
      "▁janu": 8792,
      "layotganini": 8793,
      "▁muddatidan": 8794,
      "▁chaqa": 8795,
      "▁tog‘li": 8796,
      "sulot": 8797,
      "done": 8798,
      "▁qilgan,": 8799,
      "▁monitoringi": 8800,
      "ring": 8801,
      "▁oqil": 8802,
      "kana": 8803,
      "▁istisno": 8804,
      "Oliy": 8805,
      "▁sotuvchi": 8806,
      "▁yo`q": 8807,
      "-S": 8808,
      "feren": 8809,
      "▁turk": 8810,
      "rchiq": 8811,
      "▁oltinchi": 8812,
      "▁jihozlash": 8813,
      "▁Kechasi": 8814,
      "▁lavozimga": 8815,
      "▁Inson": 8816,
      "▁Vazirlik": 8817,
      "▁dviga": 8818,
      "▁Kri": 8819,
      "▁seriya": 8820,
      "lidagi": 8821,
      "▁ko‘rsatki": 8822,
      "▁ikkala": 8823,
      "▁dala": 8824,
      "IB": 8825,
      "ras": 8826,
      "▁chiroy": 8827,
      "ener": 8828,
      "oper": 8829,
      "▁soti": 8830,
      "-po": 8831,
      "▁axbor": 8832,
      "▁oshirilishini": 8833,
      "▁Toshkentga": 8834,
      "▁ilo": 8835,
      "▁tomor": 8836,
      "▁trln": 8837,
      "▁so‘zlarini": 8838,
      "▁identifikatsiya": 8839,
      "▁kunida": 8840,
      "▁tutilgan.": 8841,
      "▁avtomatik": 8842,
      "larimizga": 8843,
      ")ga": 8844,
      "▁talablarini": 8845,
      "▁tushirilgan": 8846,
      "▁berma": 8847,
      "▁g‘oli": 8848,
      "di.\nM": 8849,
      "▁mutlaqo": 8850,
      "▁ram": 8851,
      "▁davlatning": 8852,
      "▁(bundan": 8853,
      "▁kishida": 8854,
      "▁qo‘yilishi": 8855,
      "Chi": 8856,
      "▁bankning": 8857,
      "▁yechim": 8858,
      "▁qoladi.": 8859,
      "▁mexaniz": 8860,
      "▁16.": 8861,
      "▁to‘langan": 8862,
      "▁psixo": 8863,
      "▁Zi": 8864,
      "▁jiha": 8865,
      "▁ekologiya": 8866,
      ".ru”": 8867,
      "kol": 8868,
      "del": 8869,
      "▁zonasi": 8870,
      "zna": 8871,
      "dilar.": 8872,
      "▁bari": 8873,
      "▁texnologiyalarini": 8874,
      "▁ma'qul": 8875,
      "▁tafsi": 8876,
      "▁250": 8877,
      "▁Tar": 8878,
      "▁safa": 8879,
      "▁samimiy": 8880,
      "-o‘rinni": 8881,
      "▁kvo": 8882,
      "▁armiya": 8883,
      "▁aylanib": 8884,
      "-15": 8885,
      "▁Nizomga": 8886,
      "QSH": 8887,
      "uto": 8888,
      "▁oqilona": 8889,
      "▁61": 8890,
      "▁huzurida": 8891,
      "▁qatnashish": 8892,
      "▁buyrug‘i": 8893,
      "spert": 8894,
      "▁tamoyil": 8895,
      "▁qutqa": 8896,
      "samb": 8897,
      "▁kuchi": 8898,
      "▁oldiga": 8899,
      "▁tahriri": 8900,
      "▁shart-sharoitlar": 8901,
      "▁bunyod": 8902,
      "▁umr": 8903,
      "▁yo‘qotish": 8904,
      "▁avtomobili": 8905,
      "▁harbiylar": 8906,
      "▁negizida": 8907,
      "▁17.": 8908,
      "▁Universi": 8909,
      "▁qonunchilikka": 8910,
      "di.\nBundan": 8911,
      "▁istiqbolli": 8912,
      "▁kuzati": 8913,
      "▁ort": 8914,
      "▁bo‘layotgan": 8915,
      "▁hisoblab": 8916,
      "▁jurnalistlar": 8917,
      "storan": 8918,
      "▁mumkin.\n\n": 8919,
      ".ga": 8920,
      "▁muhandislik": 8921,
      "▁mukofoti": 8922,
      "▁arxitektura": 8923,
      "lmaydi.\n": 8924,
      "qulov": 8925,
      "▁ta’minlangan": 8926,
      "▁soniya": 8927,
      "doneziya": 8928,
      "ans": 8929,
      "▁etilgan.\n": 8930,
      "▁urushi": 8931,
      "▁Kam": 8932,
      "▁tomorqa": 8933,
      "▁obyektlarini": 8934,
      "▁borilmoqda.\n": 8935,
      "▁uchib": 8936,
      "▁to‘ldirilsin:\n": 8937,
      "stri": 8938,
      "▁askar": 8939,
      "zara": 8940,
      "▁korrupsiyaga": 8941,
      "uba": 8942,
      "▁Sena": 8943,
      "▁o‘ng": 8944,
      "▁ochilgan": 8945,
      "▁obyektlari": 8946,
      "▁51": 8947,
      "maslikka": 8948,
      "tiz": 8949,
      "▁vakillarining": 8950,
      "-apreldagi": 8951,
      "▁Qaror": 8952,
      "▁tomoshabin": 8953,
      "▁kiyim": 8954,
      "otten": 8955,
      "▁olmas": 8956,
      "▁aksariyat": 8957,
      "ms": 8958,
      "tt": 8959,
      "foga": 8960,
      "Jumladan,": 8961,
      "lang": 8962,
      "▁Krishtianu": 8963,
      "▁asoschisi": 8964,
      "▁Fanlar": 8965,
      "▁kelaja": 8966,
      "▁ekran": 8967,
      "chilik,": 8968,
      "gach": 8969,
      "▁davriga": 8970,
      "▁salohiyati": 8971,
      "lasi": 8972,
      "▁88": 8973,
      "nalga": 8974,
      "▁chiqarishi": 8975,
      "▁seminar": 8976,
      "▁Abdulaziz": 8977,
      "▁Qurilish": 8978,
      "▁foizgacha": 8979,
      "▁Kengashining": 8980,
      "▁quyidagilarni": 8981,
      "-dekabrdagi": 8982,
      "▁800": 8983,
      "kalar": 8984,
      "▁singari": 8985,
      "stratura": 8986,
      "▁pandemiyasi": 8987,
      "▁ta’sis": 8988,
      "▁quti": 8989,
      "▁chempionat": 8990,
      "▁davra": 8991,
      "▁Istanbul": 8992,
      "▁yuqorida": 8993,
      "bayev": 8994,
      "▁o‘sishi": 8995,
      "▁sharti": 8996,
      "▁qadriyat": 8997,
      "▁Yo‘": 8998,
      "▁erishgan": 8999,
      "▁klaster": 9000,
      "d»": 9001,
      "▁eshit": 9002,
      "▁Ulardan": 9003,
      "▁bo‘lmasa,": 9004,
      "▁Gre": 9005,
      "▁asossiz": 9006,
      "▁1000": 9007,
      "▁o‘rinlari": 9008,
      "gan.\n“": 9009,
      "▁takomillashtirish,": 9010,
      "vozab": 9011,
      "-xo": 9012,
      "▁kerakki,": 9013,
      "▁shart.": 9014,
      "▁O‘shanda": 9015,
      "Che": 9016,
      "▁xitoy": 9017,
      "▁qiziqarli": 9018,
      "”:": 9019,
      "mn": 9020,
      "▁aylanishi": 9021,
      "▁to‘rtta": 9022,
      "-tez": 9023,
      "▁yuqumli": 9024,
      "▁noqulay": 9025,
      "▁kli": 9026,
      "▁chiqarish,": 9027,
      "▁Sil": 9028,
      "matsevtika": 9029,
      "g`iston": 9030,
      "\n«": 9031,
      "▁chiqadi": 9032,
      "▁ishbilarmon": 9033,
      "▁bronza": 9034,
      "▁undirish": 9035,
      "Yevropa": 9036,
      "▁topshiriqlar": 9037,
      "nova": 9038,
      "▁yonib": 9039,
      "▁aksariyati": 9040,
      "yuq": 9041,
      "borot": 9042,
      "▁sudining": 9043,
      "▁budje": 9044,
      "▁oshishi": 9045,
      "▁xizmatchi": 9046,
      "▁shimoli": 9047,
      "kiy": 9048,
      "▁kumush": 9049,
      "▁Armaniston": 9050,
      "▁chiqish,": 9051,
      "▁kamroq": 9052,
      "▁Tex": 9053,
      "tiradi": 9054,
      "▁dastlab": 9055,
      "-yili": 9056,
      "AM": 9057,
      "▁axborotni": 9058,
      "▁jamoasining": 9059,
      "▁notijorat": 9060,
      "nologiya": 9061,
      "▁bog‘i": 9062,
      "▁N.": 9063,
      "boli": 9064,
      "▁yoshlarni": 9065,
      "▁Koronavirus": 9066,
      "▁kiritdi.": 9067,
      "▁realizatsiya": 9068,
      "xonada": 9069,
      "▁ixtisoslashgan": 9070,
      "ug‘": 9071,
      "▁ayniqsa": 9072,
      "-0": 9073,
      "Yana": 9074,
      "▁kuy": 9075,
      "▁sinovlari": 9076,
      "▁Mustaqil": 9077,
      "latiga": 9078,
      "gird": 9079,
      "evra": 9080,
      "▁maskan": 9081,
      "rohlik": 9082,
      "▁iflos": 9083,
      "▁agro": 9084,
      "▁89": 9085,
      "laxy": 9086,
      "▁hunar": 9087,
      "kani": 9088,
      "vich,": 9089,
      "▁uchrashuvlar": 9090,
      "gidan": 9091,
      "▁oldi.\n": 9092,
      "▁qahramon": 9093,
      "▁o‘yinida": 9094,
      "▁foiz)": 9095,
      "▁boradagi": 9096,
      "▁Samsung": 9097,
      "tati": 9098,
      "▁qo‘zg‘atilib,": 9099,
      "▁urgan": 9100,
      "▁ruhiy": 9101,
      "▁yuborgan": 9102,
      "miliya": 9103,
      "29": 9104,
      "▁Aziz": 9105,
      "▁qatnov": 9106,
      "▁nomzodlar": 9107,
      "▁tumanlar": 9108,
      "▁yo‘lak": 9109,
      "uliston": 9110,
      "▁joizki,": 9111,
      "▁(19": 9112,
      "▁shaharlar": 9113,
      "▁emasligini": 9114,
      "IR": 9115,
      "▁2016-yil": 9116,
      "▁Axborotnomasi,": 9117,
      "pu": 9118,
      "▁tanlab": 9119,
      "Unga": 9120,
      "▁u.\n": 9121,
      "▁uzr": 9122,
      "▁tadbirda": 9123,
      "▁Samarqand,": 9124,
      "▁Shvey": 9125,
      "lari\n": 9126,
      "▁Rajab": 9127,
      "▁Ma’muriy": 9128,
      "munikatsiyalar": 9129,
      "▁(ta": 9130,
      "▁sohalarda": 9131,
      "▁vazifalarini": 9132,
      "▁qiymatini": 9133,
      "`y": 9134,
      "▁assotsiatsiyasi": 9135,
      "▁to‘sqinlik": 9136,
      "▁zo": 9137,
      "▁mao": 9138,
      "▁agentlik": 9139,
      "Yaponiya": 9140,
      "▁jamoalar": 9141,
      "▁namunaviy": 9142,
      "xay": 9143,
      "▁joylashtiri": 9144,
      "▁yurit": 9145,
      "▁vertol": 9146,
      "▁muallifi": 9147,
      "▁O‘Z": 9148,
      "▁topshirilgan": 9149,
      "▁tekshiruvi": 9150,
      "▁kartochka": 9151,
      "rom": 9152,
      "▁geologiya": 9153,
      "▁Rahmon": 9154,
      "biiy": 9155,
      "▁700": 9156,
      "▁Yi": 9157,
      "▁Rav": 9158,
      "-qidiruv": 9159,
      "▁kuzatilgan": 9160,
      "▁vaqtning": 9161,
      "▁o‘rinbosarlari": 9162,
      "▁dalillar": 9163,
      "▁1-yanvar": 9164,
      "rina": 9165,
      "▁jasa": 9166,
      "▁fotosurat": 9167,
      "▁bahra": 9168,
      "▁madaniyati": 9169,
      "▁Kanada": 9170,
      "-xususiy": 9171,
      "qini": 9172,
      "▁Shtat": 9173,
      "xal": 9174,
      "atori": 9175,
      "▁holatni": 9176,
      "▁inso": 9177,
      "▁xarajatlarini": 9178,
      "▁degani": 9179,
      "▁aytgan.": 9180,
      "Markaziy": 9181,
      "▁“Tosh": 9182,
      "▁2-": 9183,
      "▁Sov": 9184,
      "▁Transport": 9185,
      "tirildi.": 9186,
      "▁FIFA": 9187,
      "hom": 9188,
      "▁islom": 9189,
      "▁qilindi,": 9190,
[...]
