{
  "version": "1.0",
  "truncation": null,
  "padding": null,
  "added_tokens": [
    {
      "id": 0,
      "content": "<unk>",
      "single_word": false,
      "lstrip": false,
      "rstrip": false,
      "normalized": false,
      "special": true
    },
    {
      "id": 1,
      "content": "<s>",
      "single_word": false,
      "lstrip": false,
      "rstrip": false,
      "normalized": false,
      "special": true
    },
    {
      "id": 2,
      "content": "</s>",
      "single_word": false,
      "lstrip": false,
      "rstrip": false,
      "normalized": false,
      "special": true
    },
    {
      "id": 3,
      "content": "<pad>",
      "single_word": false,
      "lstrip": false,
      "rstrip": false,
      "normalized": false,
      "special": true
    }
  ],
  "normalizer": null,
  "pre_tokenizer": {
    "type": "Sequence",
    "pretokenizers": [
      {
        "type": "Split",
        "pattern": {
          "Regex": "(?i:'s|'t|'re|'ve|'m|'ll|'d)|[^\\r\\n\\p{L}\\p{N}]?\\p{L}+|\\p{N}{1,3}| ?[^\\s\\p{L}\\p{N}]+[\\r\\n]*|\\s*[\\r\\n]+|\\s+(?!\\S)|\\s+"
        },
        "behavior": "Isolated",
        "invert": false
      },
      {
        "type": "ByteLevel",
        "add_prefix_space": false,
        "trim_offsets": true,
        "use_regex": false
      }
    ]
  },
  "post_processor": {
    "type": "TemplateProcessing",
    "single": [
      {
        "SpecialToken": {
          "id": "<s>",
          "type_id": 0
        }
      },
      {
        "Sequence": {
          "id": "A",
          "type_id": 0
        }
      }
    ],
    "pair": [
      {
        "SpecialToken": {
          "id": "<s>",
          "type_id": 0
        }
      },
      {
        "Sequence": {
          "id": "A",
          "type_id": 0
        }
      },
      {
        "SpecialToken": {
          "id": "<s>",
          "type_id": 1
        }
      },
      {
        "Sequence": {
          "id": "B",
          "type_id": 1
        }
      }
    ],
    "special_tokens": {
      "<s>": {
        "id": "<s>",
        "ids": [
          1
        ],
        "tokens": [
          "<s>"
        ]
      }
    }
  },
  "decoder": {
    "type": "ByteLevel",
    "add_prefix_space": true,
    "trim_offsets": true,
    "use_regex": true
  },
  "model": {
    "type": "BPE",
    "dropout": null,
    "unk_token": "<unk>",
    "continuing_subword_prefix": null,
    "end_of_word_suffix": null,
    "fuse_unk": false,
    "byte_fallback": false,
    "ignore_merges": false,
    "vocab": {
      "<unk>": 0,
      "<s>": 1,
      "</s>": 2,
      "<pad>": 3,
      "\t": 4,
      "\n": 5,
      "!": 6,
      "\"": 7,
      "#": 8,
      "$": 9,
      "%": 10,
      "&": 11,
      "'": 12,
      "(": 13,
      ")": 14,
      "*": 15,
      "+": 16,
      ",": 17,
      "-": 18,
      ".": 19,
      "/": 20,
      "0": 21,
      "1": 22,
      "2": 23,
      "3": 24,
      "4": 25,
      "5": 26,
      "6": 27,
      "7": 28,
      "8": 29,
      "9": 30,
      ":": 31,
      ";": 32,
      "<": 33,
      "=": 34,
      ">": 35,
      "?": 36,
      "@": 37,
      "A": 38,
      "B": 39,
      "C": 40,
      "D": 41,
      "E": 42,
      "F": 43,
      "G": 44,
      "H": 45,
      "I": 46,
      "J": 47,
      "K": 48,
      "L": 49,
      "M": 50,
      "N": 51,
      "O": 52,
      "P": 53,
      "Q": 54,
      "R": 55,
      "S": 56,
      "T": 57,
      "U": 58,
      "V": 59,
      "W": 60,
      "X": 61,
      "Y": 62,
      "Z": 63,
      "[": 64,
      "\\": 65,
      "]": 66,
      "^": 67,
      "_": 68,
      "`": 69,
      "a": 70,
      "b": 71,
      "c": 72,
      "d": 73,
      "e": 74,
      "f": 75,
      "g": 76,
      "h": 77,
      "i": 78,
      "j": 79,
      "k": 80,
      "l": 81,
      "m": 82,
      "n": 83,
      "o": 84,
      "p": 85,
      "q": 86,
      "r": 87,
      "s": 88,
      "t": 89,
      "u": 90,
      "v": 91,
      "w": 92,
      "x": 93,
      "y": 94,
      "z": 95,
      "{": 96,
      "|": 97,
      "}": 98,
      "~": 99,
      "¡": 100,
      "¢": 101,
      "£": 102,
      "¥": 103,
      "§": 104,
      "©": 105,
      "«": 106,
      "¬": 107,
      "­": 108,
      "®": 109,
      "°": 110,
      "±": 111,
      "·": 112,
      "»": 113,
      "À": 114,
      "Á": 115,
      "Â": 116,
      "Ä": 117,
      "Å": 118,
      "Æ": 119,
      "Ç": 120,
      "É": 121,
      "Í": 122,
      "Î": 123,
      "Ñ": 124,
      "Ó": 125,
      "Ô": 126,
      "Õ": 127,
      "Ö": 128,
      "×": 129,
      "Ø": 130,
      "Ú": 131,
      "Ü": 132,
      "Ý": 133,
      "Þ": 134,
      "ß": 135,
      "à": 136,
      "á": 137,
      "â": 138,
      "ã": 139,
      "ä": 140,
      "å": 141,
      "æ": 142,
      "ç": 143,
      "è": 144,
      "é": 145,
      "ê": 146,
      "ë": 147,
      "ì": 148,
      "í": 149,
      "î": 150,
      "ï": 151,
      "ð": 152,
      "ñ": 153,
      "ò": 154,
      "ó": 155,
      "ô": 156,
      "õ": 157,
      "ö": 158,
      "÷": 159,
      "ø": 160,
      "ù": 161,
      "ú": 162,
      "û": 163,
      "ü": 164,
      "ý": 165,
      "þ": 166,
      "Ā": 167,
      "ā": 168,
      "ă": 169,
      "ą": 170,
      "Ć": 171,
      "ć": 172,
      "Č": 173,
      "č": 174,
      "ď": 175,
      "Đ": 176,
      "đ": 177,
      "Ē": 178,
      "ē": 179,
      "ė": 180,
      "ę": 181,
      "ě": 182,
      "Ğ": 183,
      "ğ": 184,
      "Ġ": 185,
      "ġ": 186,
      "ģ": 187,
      "ħ": 188,
      "ĩ": 189,
      "Ī": 190,
      "ī": 191,
      "ĭ": 192,
      "İ": 193,
      "ı": 194,
      "ļ": 195,
      "Ľ": 196,
      "ľ": 197,
      "Ł": 198,
      "ł": 199,
      "ń": 200,
      "ņ": 201,
      "ň": 202,
      "ŋ": 203,
      "Ō": 204,
      "ō": 205,
      "ŏ": 206,
      "ő": 207,
      "Œ": 208,
      "œ": 209,
      "Ř": 210,
      "ř": 211,
      "Ś": 212,
      "ś": 213,
      "Ş": 214,
      "ş": 215,
      "Š": 216,
      "š": 217,
      "Ţ": 218,
      "ţ": 219,
      "ť": 220,
      "ũ": 221,
      "Ū": 222,
      "ū": 223,
      "ŭ": 224,
      "ů": 225,
      "ű": 226,
      "ų": 227,
      "ź": 228,
      "Ż": 229,
      "ż": 230,
      "Ž": 231,
      "ž": 232,
      "Ə": 233,
      "ơ": 234,
      "ư": 235,
      "ǎ": 236,
      "ǐ": 237,
      "ǒ": 238,
      "ǔ": 239,
      "ǰ": 240,
      "ǵ": 241,
      "ȃ": 242,
      "Ș": 243,
      "ș": 244,
      "ț": 245,
      "ɐ": 246,
      "ɑ": 247,
      "ɒ": 248,
      "ɔ": 249,
      "ɕ": 250,
      "ə": 251,
      "ɛ": 252,
      "ɡ": 253,
      "ɣ": 254,
      "ɦ": 255,
      "ɨ": 256,
      "ɪ": 257,
      "ɫ": 258,
      "ɯ": 259,
      "ɲ": 260,
      "ɾ": 261,
      "ʁ": 262,
      "ʂ": 263,
      "ʃ": 264,
      "ʊ": 265,
      "ʋ": 266,
      "ʌ": 267,
      "ʒ": 268,
      "ʔ": 269,
      "ʕ": 270,
      "ʹ": 271,
      "ʻ": 272,
      "ʼ": 273,
      "ʽ": 274,
      "ʾ": 275,
      "ʿ": 276,
      "ˈ": 277,
      "ˌ": 278,
      "ː": 279,
      "́": 280,
      "̃": 281,
      "̄": 282,
      "̈": 283,
      "̉": 284,
      "̊": 285,
      "̋": 286,
      "̧": 287,
      "̪": 288,
      "̯": 289,
      "̰": 290,
      "̱": 291,
      "̲": 292,
      "͡": 293,
      "Α": 294,
      "Β": 295,
      "Δ": 296,
      "Ε": 297,
      "Κ": 298,
      "Λ": 299,
      "Μ": 300,
      "Ν": 301,
      "Ο": 302,
      "Π": 303,
      "Σ": 304,
      "Τ": 305,
      "Φ": 306,
      "Ω": 307,
      "ά": 308,
      "έ": 309,
      "ή": 310,
      "ί": 311,
      "α": 312,
      "β": 313,
      "γ": 314,
      "δ": 315,
      "ε": 316,
      "ζ": 317,
      "η": 318,
      "θ": 319,
      "ι": 320,
      "κ": 321,
      "λ": 322,
      "μ": 323,
      "ν": 324,
      "ξ": 325,
      "ο": 326,
      "π": 327,
      "ρ": 328,
      "ς": 329,
      "σ": 330,
      "τ": 331,
      "υ": 332,
      "φ": 333,
      "χ": 334,
      "ω": 335,
      "ό": 336,
      "ύ": 337,
      "ώ": 338,
      "Ё": 339,
      "Є": 340,
      "І": 341,
      "Ў": 342,
      "А": 343,
      "Б": 344,
      "В": 345,
      "Г": 346,
      "Д": 347,
      "Е": 348,
      "Ж": 349,
      "З": 350,
      "И": 351,
      "Й": 352,
      "К": 353,
      "Л": 354,
      "М": 355,
      "Н": 356,
      "О": 357,
      "П": 358,
      "Р": 359,
      "С": 360,
      "Т": 361,
      "У": 362,
      "Ф": 363,
      "Х": 364,
      "Ц": 365,
      "Ч": 366,
      "Ш": 367,
      "Щ": 368,
      "Ъ": 369,
      "Ы": 370,
      "Ь": 371,
      "Э": 372,
      "Ю": 373,
      "Я": 374,
      "а": 375,
      "б": 376,
      "в": 377,
      "г": 378,
      "д": 379,
      "е": 380,
      "ж": 381,
      "з": 382,
      "и": 383,
      "й": 384,
      "к": 385,
      "л": 386,
      "м": 387,
      "н": 388,
      "о": 389,
      "п": 390,
      "р": 391,
      "с": 392,
      "т": 393,
      "у": 394,
      "ф": 395,
      "х": 396,
      "ц": 397,
      "ч": 398,
      "ш": 399,
      "щ": 400,
      "ъ": 401,
      "ы": 402,
      "ь": 403,
      "э": 404,
      "ю": 405,
      "я": 406,
      "ѐ": 407,
      "ё": 408,
      "є": 409,
      "і": 410,
      "ї": 411,
      "ј": 412,
      "њ": 413,
      "ћ": 414,
      "ў": 415,
      "ѣ": 416,
      "Ғ": 417,
      "ғ": 418,
      "Қ": 419,
      "қ": 420,
      "ң": 421,
      "ү": 422,
      "ұ": 423,
      "Ҳ": 424,
      "ҳ": 425,
      "Ҷ": 426,
      "ҷ": 427,
      "һ": 428,
      "Ә": 429,
      "ә": 430,
      "ӣ": 431,
      "Ө": 432,
      "ө": 433,
      "ӯ": 434,
      "Ա": 435,
      "Հ": 436,
      "ա": 437,
      "բ": 438,
      "գ": 439,
      "դ": 440,
      "ե": 441,
      "զ": 442,
      "ի": 443,
      "լ": 444,
      "կ": 445,
      "մ": 446,
      "յ": 447,
      "ն": 448,
      "ո": 449,
      "պ": 450,
      "ս": 451,
      "վ": 452,
      "տ": 453,
      "ր": 454,
      "ւ": 455,
      "ք": 456,
      "ַ": 457,
      "ָ": 458,
      "א": 459,
      "ב": 460,
      "ד": 461,
      "ה": 462,
      "ו": 463,
      "ח": 464,
      "ט": 465,
      "י": 466,
      "ל": 467,
      "מ": 468,
      "ן": 469,
      "נ": 470,
      "ס": 471,
      "ע": 472,
      "פ": 473,
      "ק": 474,
      "ר": 475,
      "ש": 476,
      "ת": 477,
      "،": 478,
      "ء": 479,
      "آ": 480,
      "أ": 481,
      "ؤ": 482,
      "إ": 483,
      "ئ": 484,
      "ا": 485,
      "ب": 486,
      "ة": 487,
      "ت": 488,
      "ث": 489,
      "ج": 490,
      "ح": 491,
      "خ": 492,
      "د": 493,
      "ذ": 494,
      "ر": 495,
      "ز": 496,
      "س": 497,
      "ش": 498,
      "ص": 499,
      "ض": 500,
      "ط": 501,
      "ظ": 502,
      "ع": 503,
      "غ": 504,
      "ـ": 505,
      "ف": 506,
      "ق": 507,
      "ك": 508,
      "ل": 509,
      "م": 510,
      "ن": 511,
      "ه": 512,
      "و": 513,
      "ى": 514,
      "ي": 515,
      "ً": 516,
      "ٌ": 517,
      "َ": 518,
      "ُ": 519,
      "ِ": 520,
      "ّ": 521,
      "ْ": 522,
      "٠": 523,
      "١": 524,
      "٢": 525,
      "٨": 526,
      "٩": 527,
      "ٰ": 528,
      "ٱ": 529,
      "ٹ": 530,
      "پ": 531,
      "چ": 532,
      "ڈ": 533,
      "ژ": 534,
      "ک": 535,
      "گ": 536,
      "ں": 537,
      "ھ": 538,
      "ہ": 539,
      "ۋ": 540,
      "ی": 541,
      "ے": 542,
      "ە": 543,
      "۰": 544,
      "۱": 545,
      "۲": 546,
      "۳": 547,
      "۴": 548,
      "۵": 549,
      "۷": 550,
      "۸": 551,
      "۹": 552,
      "އ": 553,
      "ަ": 554,
      "ް": 555,
      "ं": 556,
      "अ": 557,
      "आ": 558,
      "इ": 559,
      "ए": 560,
      "ओ": 561,
      "क": 562,
      "ग": 563,
      "च": 564,
      "ज": 565,
      "झ": 566,
      "ट": 567,
      "ड": 568,
      "ण": 569,
      "त": 570,
      "थ": 571,
      "द": 572,
      "ध": 573,
      "न": 574,
      "प": 575,
      "ब": 576,
      "भ": 577,
      "म": 578,
      "य": 579,
      "र": 580,
      "ल": 581,
      "व": 582,
      "श": 583,
      "स": 584,
      "ह": 585,
      "़": 586,
      "ा": 587,
      "ि": 588,
      "ी": 589,
      "ु": 590,
      "ू": 591,
      "े": 592,
      "ै": 593,
      "ो": 594,
      "्": 595,
      "०": 596,
      "१": 597,
      "२": 598,
      "५": 599,
      "८": 600,
      "९": 601,
      "ক": 602,
      "জ": 603,
      "ত": 604,
      "দ": 605,
      "ন": 606,
      "প": 607,
      "ব": 608,
      "ম": 609,
      "য": 610,
      "র": 611,
      "ল": 612,
      "স": 613,
      "়": 614,
      "া": 615,
      "ি": 616,
      "ী": 617,
      "ু": 618,
      "ে": 619,
      "্": 620,
      "க": 621,
      "ா": 622,
      "ி": 623,
      "்": 624,
      "ക": 625,
      "ത": 626,
      "ാ": 627,
      "്": 628,
      "්": 629,
      "ก": 630,
      "ง": 631,
      "ท": 632,
      "น": 633,
      "พ": 634,
      "ม": 635,
      "ย": 636,
      "ร": 637,
      "ว": 638,
      "อ": 639,
      "ั": 640,
      "า": 641,
      "ิ": 642,
      "เ": 643,
      "າ": 644,
      "་": 645,
      "བ": 646,
      "ར": 647,
      "မ": 648,
      "ာ": 649,
      "း": 650,
      "်": 651,
      "ა": 652,
      "ბ": 653,
      "გ": 654,
      "დ": 655,
      "ე": 656,
      "ვ": 657,
      "თ": 658,
      "ი": 659,
      "კ": 660,
      "ლ": 661,
      "მ": 662,
      "ნ": 663,
      "ო": 664,
      "რ": 665,
      "ს": 666,
      "ტ": 667,
      "უ": 668,
      "ფ": 669,
      "ხ": 670,
      "ḍ": 671,
      "Ḥ": 672,
      "ḥ": 673,
      "Ḩ": 674,
      "ḩ": 675,
      "ḭ": 676,
      "ḵ": 677,
      "ṃ": 678,
      "ṇ": 679,
      "ṛ": 680,
      "Ṣ": 681,
      "ṣ": 682,
      "Ṭ": 683,
      "ṭ": 684,
      "ẓ": 685,
      "ẕ": 686,
      "ẖ": 687,
      "ẗ": 688,
      "ạ": 689,
      "ả": 690,
      "ấ": 691,
      "ầ": 692,
      "ậ": 693,
      "ắ": 694,
      "ế": 695,
      "ề": 696,
      "ể": 697,
      "ễ": 698,
      "ệ": 699,
      "ị": 700,
      "ọ": 701,
      "ố": 702,
      "ồ": 703,
      "ổ": 704,
      "ộ": 705,
      "ớ": 706,
      "ờ": 707,
      "ợ": 708,
      "ụ": 709,
      "ủ": 710,
      "ứ": 711,
      "ử": 712,
      "ữ": 713,
      "ự": 714,
      "ỳ": 715,
      "ỹ": 716,
      "ἀ": 717,
      "Ἀ": 718,
      "ἐ": 719,
      "ῆ": 720,
      "​": 721,
      "‌": 722,
      "‍": 723,
      "‎": 724,
      "‏": 725,
      "‐": 726,
      "‒": 727,
      "–": 728,
      "—": 729,
      "―": 730,
      "‘": 731,
      "’": 732,
      "‛": 733,
      "“": 734,
      "”": 735,
      "„": 736,
      "‟": 737,
      "†": 738,
      "‡": 739,
      "•": 740,
      "‰": 741,
      "′": 742,
      "⁄": 743,
      "₩": 744,
      "€": 745,
      "₹": 746,
      "₺": 747,
      "⃗": 748,
      "←": 749,
      "↑": 750,
      "→": 751,
      "↓": 752,
      "↔": 753,
      "−": 754,
      "∞": 755,
      "≈": 756,
      "≡": 757,
      "≤": 758,
      "≥": 759,
      "⋅": 760,
      "⏓": 761,
      "─": 762,
      "▁": 763,
      "█": 764,
      "■": 765,
      "▪": 766,
      "△": 767,
      "●": 768,
      "☃": 769,
      "♭": 770,
      "⟨": 771,
      "⟩": 772,
      "ⲁ": 773,
      "ⲉ": 774,
      "ⲓ": 775,
      "ⲛ": 776,
      "ⲟ": 777,
      "ⲩ": 778,
      "ⴰ": 779,
      "ⵎ": 780,
      "。": 781,
      "《": 782,
      "》": 783,
      "『": 784,
      "』": 785,
      "あ": 786,
      "い": 787,
      "う": 788,
      "お": 789,
      "か": 790,
      "き": 791,
      "く": 792,
      "こ": 793,
      "し": 794,
      "す": 795,
      "ず": 796,
      "た": 797,
      "ち": 798,
      "で": 799,
      "と": 800,
      "な": 801,
      "に": 802,
      "の": 803,
      "は": 804,
      "も": 805,
      "ら": 806,
      "り": 807,
      "る": 808,
      "わ": 809,
      "ん": 810,
      "ア": 811,
      "イ": 812,
      "エ": 813,
      "オ": 814,
      "カ": 815,
      "キ": 816,
      "ク": 817,
      "サ": 818,
      "シ": 819,
      "ジ": 820,
      "ス": 821,
      "タ": 822,
      "ッ": 823,
      "ト": 824,
      "ド": 825,
      "ニ": 826,
      "ハ": 827,
      "バ": 828,
      "パ": 829,
      "ブ": 830,
      "プ": 831,
      "ム": 832,
      "ャ": 833,
      "ラ": 834,
      "リ": 835,
      "ル": 836,
      "レ": 837,
      "ロ": 838,
      "ン": 839,
      "・": 840,
      "ー": 841,
      "一": 842,
      "三": 843,
      "上": 844,
      "下": 845,
      "世": 846,
      "中": 847,
      "之": 848,
      "二": 849,
      "五": 850,
      "井": 851,
      "京": 852,
      "人": 853,
      "代": 854,
      "会": 855,
      "元": 856,
      "光": 857,
      "公": 858,
      "化": 859,
      "北": 860,
      "十": 861,
      "南": 862,
      "原": 863,
      "古": 864,
      "史": 865,
      "司": 866,
      "合": 867,
      "同": 868,
      "名": 869,
      "和": 870,
      "四": 871,
      "国": 872,
      "國": 873,
      "地": 874,
      "城": 875,
      "大": 876,
      "天": 877,
      "太": 878,
      "女": 879,
      "子": 880,
      "学": 881,
      "安": 882,
      "家": 883,
      "富": 884,
      "小": 885,
      "山": 886,
      "島": 887,
      "川": 888,
      "市": 889,
      "平": 890,
      "年": 891,
      "座": 892,
      "式": 893,
      "張": 894,
      "従": 895,
      "愛": 896,
      "文": 897,
      "新": 898,
      "方": 899,
      "日": 900,
      "明": 901,
      "有": 902,
      "木": 903,
      "本": 904,
      "李": 905,
      "村": 906,
      "来": 907,
      "東": 908,
      "校": 909,
      "株": 910,
      "歌": 911,
      "民": 912,
      "水": 913,
      "江": 914,
      "河": 915,
      "海": 916,
      "物": 917,
      "王": 918,
      "生": 919,
      "田": 920,
      "町": 921,
      "白": 922,
      "的": 923,
      "石": 924,
      "研": 925,
      "社": 926,
      "神": 927,
      "科": 928,
      "究": 929,
      "立": 930,
      "竹": 931,
      "第": 932,
      "等": 933,
      "花": 934,
      "行": 935,
      "語": 936,
      "道": 937,
      "郎": 938,
      "部": 939,
      "野": 940,
      "金": 941,
      "阿": 942,
      "集": 943,
      "馬": 944,
      "高": 945,
      "가": 946,
      "개": 947,
      "공": 948,
      "과": 949,
      "관": 950,
      "구": 951,
      "국": 952,
      "기": 953,
      "김": 954,
      "나": 955,
      "대": 956,
      "도": 957,
      "동": 958,
      "떡": 959,
      "로": 960,
      "리": 961,
      "무": 962,
      "문": 963,
      "미": 964,
      "민": 965,
      "부": 966,
      "비": 967,
      "사": 968,
      "상": 969,
      "서": 970,
      "석": 971,
      "수": 972,
      "시": 973,
      "아": 974,
      "에": 975,
      "연": 976,
      "울": 977,
      "원": 978,
      "은": 979,
      "을": 980,
      "의": 981,
      "이": 982,
      "인": 983,
      "자": 984,
      "장": 985,
      "전": 986,
      "정": 987,
      "제": 988,
      "조": 989,
      "주": 990,
      "지": 991,
      "찌": 992,
      "학": 993,
      "한": 994,
      "호": 995,
      "화": 996,
      "": 997,
      "️": 998,
      "﻿": 999,
      "￼": 1000,
      "�": 1001,
      "𝄆": 1002,
      "𝄇": 1003,
      "la": 1004,
      "an": 1005,
      "in": 1006,
      "sh": 1007,
      "da": 1008,
      "li": 1009,
      "lar": 1010,
      "ar": 1011,
      "▁b": 1012,
      "oʻ": 1013,
      "ch": 1014,
      "di": 1015,
      "il": 1016,
      "si": 1017,
      "▁t": 1018,
      "at": 1019,
      "on": 1020,
      "▁k": 1021,
      "gan": 1022,
      "ga": 1023,
      "▁m": 1024,
      "▁q": 1025,
      "iy": 1026,
      "ing": 1027,
      "or": 1028,
      "ir": 1029,
      "\n\n": 1030,
      "va": 1031,
      "er": 1032,
      "un": 1033,
      "gi": 1034,
      "▁y": 1035,
      "▁va": 1036,
      "ish": 1037,
      "▁o": 1038,
      "ida": 1039,
      "▁a": 1040,
      "di.": 1041,
      "▁s": 1042,
      "ta": 1043,
      "lan": 1044,
      "ur": 1045,
      "lari": 1046,
      "▁h": 1047,
      "dan": 1048,
      "en": 1049,
      "ti": 1050,
      "chi": 1051,
      "am": 1052,
      "om": 1053,
      "ay": 1054,
      "▁u": 1055,
      "▁oʻ": 1056,
      "asi": 1057,
      "-y": 1058,
      "is": 1059,
      "▁e": 1060,
      "-yil": 1061,
      "ol": 1062,
      "▁1": 1063,
      "al": 1064,
      "lik": 1065,
      "▁S": 1066,
      "▁(": 1067,
      "20": 1068,
      "as": 1069,
      "▁A": 1070,
      "ning": 1071,
      "▁j": 1072,
      "oy": 1073,
      "gʻ": 1074,
      "▁boʻ": 1075,
      "um": 1076,
      "▁sh": 1077,
      "ini": 1078,
      "gan.": 1079,
      "ni": 1080,
      "ra": 1081,
      "▁M": 1082,
      "▁B": 1083,
      "▁n": 1084,
      "▁f": 1085,
      "ot": 1086,
      "▁p": 1087,
      "▁ma": 1088,
      "oli": 1089,
      "cha": 1090,
      "▁ta": 1091,
      "ek": 1092,
      "▁bo": 1093,
      "siy": 1094,
      "ki": 1095,
      "alar": 1096,
      "ka": 1097,
      "▁\n": 1098,
      "▁i": 1099,
      "lash": 1100,
      "zi": 1101,
      "▁d": 1102,
      "oq": 1103,
      "os": 1104,
      "ining": 1105,
      "ov": 1106,
      "ah": 1107,
      "ab": 1108,
      "▁bi": 1109,
      "▁20": 1110,
      "▁K": 1111,
      "▁T": 1112,
      "ri": 1113,
      "iya": 1114,
      "et": 1115,
      "ati": 1116,
      "ul": 1117,
      "el": 1118,
      "ma": 1119,
      "▁—": 1120,
      "▁da": 1121,
      "▁bilan": 1122,
      "shi": 1123,
      "▁bir": 1124,
      "av": 1125,
      "st": 1126,
      "▁O": 1127,
      "▁x": 1128,
      "dagi": 1129,
      "ub": 1130,
      ".\n\n": 1131,
      "▁U": 1132,
      "ob": 1133,
      "▁uch": 1134,
      "oni": 1135,
      "di.\n\n": 1136,
      "▁I": 1137,
      "▁19": 1138,
      "ilgan": 1139,
      "it": 1140,
      "▁R": 1141,
      "▁r": 1142,
      "ak": 1143,
      "ey": 1144,
      "ut": 1145,
      "▁koʻ": 1146,
      "uv": 1147,
      "es": 1148,
      "holi": 1149,
      "▁P": 1150,
      "▁\n\n": 1151,
      "▁G": 1152,
      "▁mu": 1153,
      "▁„": 1154,
      "em": 1155,
      "▁N": 1156,
      "▁boʻl": 1157,
      "▁D": 1158,
      "ash": 1159,
      "19": 1160,
      "oz": 1161,
      "og": 1162,
      "▁bosh": 1163,
      "im": 1164,
      "-yilda": 1165,
      "ali": 1166,
      "▁C": 1167,
      "▁F": 1168,
      "▁qi": 1169,
      "anb": 1170,
      "aq": 1171,
      "tir": 1172,
      "lib": 1173,
      "▁tar": 1174,
      "▁tu": 1175,
      "▁as": 1176,
      "dir": 1177,
      "lab": 1178,
      "ud": 1179,
      "iga": 1180,
      "▁2": 1181,
      "▁uchun": 1182,
      "▁ish": 1183,
      "anbalar": 1184,
      "▁Y": 1185,
      "af": 1186,
      "▁joy": 1187,
      "▁et": 1188,
      "Manbalar": 1189,
      "qar": 1190,
      "ro": 1191,
      "▁L": 1192,
      "ton": 1193,
      "gan.\n\n": 1194,
      "▁shah": 1195,
      "ligi": 1196,
      "▁V": 1197,
      "▁yo": 1198,
      "▁un": 1199,
      "▁v": 1200,
      "▁g": 1201,
      "▁ch": 1202,
      "us": 1203,
      "inchi": 1204,
      "▁Sh": 1205,
      "idagi": 1206,
      "▁ol": 1207,
      "ik": 1208,
      "▁H": 1209,
      "liy": 1210,
      "▁qoʻ": 1211,
      "ev": 1212,
      "lish": 1213,
      "ani": 1214,
      "aning": 1215,
      "ok": 1216,
      "▁aholi": 1217,
      "ola": 1218,
      "▁joylash": 1219,
      "▁oʻr": 1220,
      "od": 1221,
      "uq": 1222,
      "▁de": 1223,
      "▁J": 1224,
      "ishi": 1225,
      "▁dav": 1226,
      "ent": 1227,
      "▁E": 1228,
      "ib": 1229,
      "▁ham": 1230,
      "▁Q": 1231,
      "ladi": 1232,
      "▁qil": 1233,
      "iz": 1234,
      "adi": 1235,
      "▁kir": 1236,
      "▁qar": 1237,
      "yi": 1238,
      "iston": 1239,
      "iyasi": 1240,
      "siya": 1241,
      "▁chi": 1242,
      "adi.": 1243,
      "▁201": 1244,
      "▁3": 1245,
      "sa": 1246,
      "oh": 1247,
      "▁tash": 1248,
      "▁oʻz": 1249,
      "ayd": 1250,
      "▁or": 1251,
      "▁tur": 1252,
      "asida": 1253,
      "▁jam": 1254,
      "az": 1255,
      "kt": 1256,
      "eng": 1257,
      "larda": 1258,
      "ori": 1259,
      "▁oʻy": 1260,
      "qa": 1261,
      "osh": 1262,
      "▁X": 1263,
      "ax": 1264,
      "▁ay": 1265,
      "diy": 1266,
      "▁toʻ": 1267,
      "▁tum": 1268,
      "00": 1269,
      "▁bu": 1270,
      "atida": 1271,
      "▁si": 1272,
      "▁shahar": 1273,
      "op": 1274,
      "id": 1275,
      "ladi.": 1276,
      "▁tom": 1277,
      "loq": 1278,
      "larning": 1279,
      "▁yil": 1280,
      "yicha": 1281,
      "ran": 1282,
      "uz": 1283,
      "mi": 1284,
      "▁kom": 1285,
      "▁jamo": 1286,
      "larni": 1287,
      "▁km": 1288,
      "uk": 1289,
      "▁is": 1290,
      "biy": 1291,
      "eri": 1292,
      "ari": 1293,
      "▁boʻlgan": 1294,
      "▁–": 1295,
      "osi": 1296,
      "▁har": 1297,
      "▁boʻyicha": 1298,
      "lat": 1299,
      "▁oʻt": 1300,
      "art": 1301,
      "ng": 1302,
      "ad": 1303,
      "raf": 1304,
      "▁in": 1305,
      "▁200": 1306,
      "ada": 1307,
      "ekt": 1308,
      "o'": 1309,
      "▁naf": 1310,
      "dir.": 1311,
      "bek": 1312,
      "uvchi": 1313,
      "▁4": 1314,
      "▁qish": 1315,
      "langan": 1316,
      "▁z": 1317,
      "▁mav": 1318,
      "re": 1319,
      "▁\"": 1320,
      "lar\n": 1321,
      "of": 1322,
      "▁joylashgan": 1323,
      "ilm": 1324,
      "▁ik": 1325,
      "man": 1326,
      "bol": 1327,
      "oti": 1328,
      "qi": 1329,
      "▁Oʻ": 1330,
      "ograf": 1331,
      "▁(19": 1332,
      "oliy": 1333,
      "▁mar": 1334,
      "pi": 1335,
      "201": 1336,
      "ang": 1337,
      "▁boʻlib": 1338,
      "lub": 1339,
      "▁nafar": 1340,
      "te": 1341,
      "▁ber": 1342,
      "▁tomoni": 1343,
      "tiq": 1344,
      "kib": 1345,
      "▁nom": 1346,
      "lif": 1347,
      "ʼl": 1348,
      "larini": 1349,
      "▁his": 1350,
      "kil": 1351,
      "di,": 1352,
      "▁tomonidan": 1353,
      "le": 1354,
      "▁ra": 1355,
      "▁tarkib": 1356,
      "▁Ch": 1357,
      "kaz": 1358,
      "ili": 1359,
      "▁ke": 1360,
      "larga": 1361,
      "angi": 1362,
      "▁pun": 1363,
      "lim": 1364,
      "larida": 1365,
      "▁ega": 1366,
      "ogʻ": 1367,
      "),": 1368,
      "utbol": 1369,
      "▁5": 1370,
      "▁qishloq": 1371,
      "zbek": 1372,
      "▁sif": 1373,
      "Sh": 1374,
      "bor": 1375,
      "bu": 1376,
      "▁deb": 1377,
      "kin": 1378,
      "mon": 1379,
      "▁ba": 1380,
      "lari\n": 1381,
      "iloy": 1382,
      "▁km2": 1383,
      "ort": 1384,
      "▁oʻrta": 1385,
      ".\n\nManbalar": 1386,
      "▁Bu": 1387,
      "lay": 1388,
      "uh": 1389,
      "▁te": 1390,
      "▁punkt": 1391,
      "rida": 1392,
      "▁ga": 1393,
      "▁viloy": 1394,
      "ush": 1395,
      "bo": 1396,
      "mun": 1397,
      "▁qur": 1398,
      "gar": 1399,
      "▁hisob": 1400,
      "ilgan.": 1401,
      "ap": 1402,
      "▁bor": 1403,
      "▁sifatida": 1404,
      "▁tashkil": 1405,
      "son": 1406,
      "adi.\n\n": 1407,
      "▁kat": 1408,
      "▁qis": 1409,
      "▁soʻ": 1410,
      "▁eng": 1411,
      "▁o'": 1412,
      "▁futbol": 1413,
      "▁me": 1414,
      "tab": 1415,
      "zbekiston": 1416,
      "▁yoʻ": 1417,
      "ografiyasi": 1418,
      ").": 1419,
      "aydoni": 1420,
      "▁yoki": 1421,
      "ron": 1422,
      "iyat": 1423,
      "▁birinchi": 1424,
      "idan": 1425,
      "▁chiq": 1426,
      "▁oy": 1427,
      "abr": 1428,
      "▁tugʻ": 1429,
      "▁koʻp": 1430,
      "▁oʻyin": 1431,
      "oj": 1432,
      "lariga": 1433,
      "dek": 1434,
      "xon": 1435,
      "olalar": 1436,
      "▁koʻr": 1437,
      "ed": 1438,
      "200": 1439,
      "ʼlum": 1440,
      "eyin": 1441,
      "▁am": 1442,
      "▁mil": 1443,
      "▁kishi": 1444,
      "▁punktlari": 1445,
      "and": 1446,
      "uning": 1447,
      "▁taʼ": 1448,
      "▁kun": 1449,
      "rat": 1450,
      "▁tuman": 1451,
      "ana": 1452,
      "▁qilin": 1453,
      "▁W": 1454,
      "▁6": 1455,
      "▁uning": 1456,
      "sti": 1457,
      "holisi": 1458,
      "lishi": 1459,
      "▁qilish": 1460,
      "▁tarkibiga": 1461,
      "▁fa": 1462,
      "siyasi": 1463,
      "▁kommun": 1464,
      "▁ar": 1465,
      "\n\nH": 1466,
      "omat": 1467,
      "▁|": 1468,
      "mat": 1469,
      "sk": 1470,
      "per": 1471,
      "▁im": 1472,
      "iq": 1473,
      "izi": 1474,
      "asining": 1475,
      "▁199": 1476,
      "arq": 1477,
      "avolalar": 1478,
      "ru": 1479,
      "lar,": 1480,
      "ina": 1481,
      "mo": 1482,
      "▁uni": 1483,
      "ver": 1484,
      "▁18": 1485,
      "tib": 1486,
      "▁av": 1487,
      "iyaning": 1488,
      "shir": 1489,
      "▁qay": 1490,
      "gacha": 1491,
      "▁er": 1492,
      "empi": 1493,
      "▁kommuna": 1494,
      "▁qiladi": 1495,
      "mas": 1496,
      "▁ikki": 1497,
      "pan": 1498,
      "land": 1499,
      "dam": 1500,
      "▁||": 1501,
      ")\n": 1502,
      "▁ur": 1503,
      "lak": 1504,
      "▁haq": 1505,
      "▁tan": 1506,
      "lardan": 1507,
      "-yilgi": 1508,
      "lifbo": 1509,
      "▁al": 1510,
      "na": 1511,
      "taq": 1512,
      "shbu": 1513,
      "▁l": 1514,
      "GC": 1515,
      "▁tugʻilgan": 1516,
      "▁at": 1517,
      "▁7": 1518,
      "▁-": 1519,
      "▁gʻ": 1520,
      "▁min": 1521,
      "▁tumani": 1522,
      "din": 1523,
      "▁istiq": 1524,
      "Alifbo": 1525,
      "▁esa": 1526,
      "▁kel": 1527,
      "likda": 1528,
      "▁bo'": 1529,
      "▁yer": 1530,
      "▁istiqomat": 1531,
      "osiy": 1532,
      "▁qoʻl": 1533,
      "▁um": 1534,
      "eografiyasi": 1535,
      "ʼlumot": 1536,
      "▁om": 1537,
      "tat": 1538,
      "lig": 1539,
      "▁mum": 1540,
      "▁say": 1541,
      "sat": 1542,
      "▁klub": 1543,
      "▁chempi": 1544,
      "uy": 1545,
      "▁yar": 1546,
      "▁chiqar": 1547,
      "da,": 1548,
      "▁mumkin": 1549,
      "lanish": 1550,
      "▁Al": 1551,
      "tirish": 1552,
      "▁mas": 1553,
      "jud": 1554,
      "uningdek": 1555,
      "▁yosh": 1556,
      "ila": 1557,
      "ag": 1558,
      "▁keyin": 1559,
      "▁qarshi": 1560,
      "▁boshqa": 1561,
      "▁qat": 1562,
      "▁edi.": 1563,
      "▁boʻlib,": 1564,
      "▁NGC": 1565,
      "yo": 1566,
      "▁faoliy": 1567,
      "▁yoz": 1568,
      "uch": 1569,
      "qaro": 1570,
      "\n\nHavolalar": 1571,
      "laridan": 1572,
      "he": 1573,
      "▁hud": 1574,
      "▁davlat": 1575,
      "umiy": 1576,
      "lov": 1577,
      "▁ij": 1578,
      "o‘": 1579,
      "▁shaharlari": 1580,
      "tet": 1581,
      "▁soʻng": 1582,
      "asini": 1583,
      "roq": 1584,
      "▁ayol": 1585,
      "larining": 1586,
      "esp": 1587,
      "tasi": 1588,
      "▁ter": 1589,
      "▁muh": 1590,
      "engi": 1591,
      "▁mavjud": 1592,
      "Aholisi": 1593,
      "yor": 1594,
      "urk": 1595,
      "▁mun": 1596,
      "par": 1597,
      "etr": 1598,
      "▁Z": 1599,
      "▁kirit": 1600,
      "min": 1601,
      "▁Oʻzbekiston": 1602,
      "ter": 1603,
      "▁nash": 1604,
      "olog": 1605,
      "rof": 1606,
      "ublik": 1607,
      "▁8": 1608,
      "ix": 1609,
      ".\n\nG": 1610,
      "espublik": 1611,
      "ogi": 1612,
      "▁chempion": 1613,
      "▁Fran": 1614,
      "▁jamoasi": 1615,
      "▁mah": 1616,
      "otgan": 1617,
      "tan": 1618,
      "udi": 1619,
      "▁re": 1620,
      "▁san": 1621,
      "▁ob": 1622,
      "miy": 1623,
      "▁di": 1624,
      "aga": 1625,
      "▁dar": 1626,
      "liq": 1627,
      "▁bar": 1628,
      "▁oyida": 1629,
      "▁futbolchi": 1630,
      "uningdek,": 1631,
      "▁mus": 1632,
      "▁xal": 1633,
      "▁ok": 1634,
      "sum": 1635,
      ".\n": 1636,
      "oyda": 1637,
      "arb": 1638,
      "\n\nManbalar": 1639,
      "▁film": 1640,
      "-m": 1641,
      "▁hay": 1642,
      "▁uz": 1643,
      "▁km2.": 1644,
      "▁davom": 1645,
      "▁umumiy": 1646,
      "ram": 1647,
      "▁viloyati": 1648,
      "engiz": 1649,
      "ladi.\n\n": 1650,
      "rt": 1651,
      "var": 1652,
      "▁9": 1653,
      "▁\nM": 1654,
      "▁olish": 1655,
      ".\n\nGeografiyasi": 1656,
      "▁o‘": 1657,
      "▁Am": 1658,
      "siz": 1659,
      "▁asos": 1660,
      "enti": 1661,
      "▁koʻra": 1662,
      "▁maq": 1663,
      "i,": 1664,
      "pa": 1665,
      "▁katta": 1666,
      "▁yax": 1667,
      "tik": 1668,
      "versi": 1669,
      "tam": 1670,
      "▁Bir": 1671,
      "gan.\n\nManbalar": 1672,
      "▁Ger": 1673,
      "ich": 1674,
      "ozi": 1675,
      "liya": 1676,
      "▁An": 1677,
      "oda": 1678,
      "▁mintaq": 1679,
      "▁mak": 1680,
      "dor": 1681,
      "sida": 1682,
      "kinchi": 1683,
      "21": 1684,
      "▁ishlab": 1685,
      "▁olib": 1686,
      "ast": 1687,
      "▁Mar": 1688,
      "ahon": 1689,
      "port": 1690,
      "uj": 1691,
      "lam": 1692,
      "lari,": 1693,
      "0-yil": 1694,
      "▁olin": 1695,
      "▁mavsum": 1696,
      "▁Is": 1697,
      "▁foyda": 1698,
      "lanadi.": 1699,
      "▁baland": 1700,
      "oʻy": 1701,
      "▁yaxshi": 1702,
      "ara": 1703,
      "▁vaq": 1704,
      "18": 1705,
      "▁yor": 1706,
      "ez": 1707,
      "QSh": 1708,
      "▁pr": 1709,
      "day": 1710,
      "odi": 1711,
      "ig": 1712,
      "kazi": 1713,
      "abi": 1714,
      "▁10": 1715,
      "▁Respublik": 1716,
      "Oʻ": 1717,
      "chilik": 1718,
      "▁kon": 1719,
      "liga": 1720,
      "ildi.": 1721,
      "▁\n\nAlifbo": 1722,
      "anub": 1723,
      "aviy": 1724,
      "▁boshqar": 1725,
      "▁top": 1726,
      "nom": 1727,
      "▁Ar": 1728,
      "▁an": 1729,
      "erika": 1730,
      "ligini": 1731,
      "ishga": 1732,
      "ks": 1733,
      "▁shu": 1734,
      "oya": 1735,
      "ona": 1736,
      "▁yangi": 1737,
      "2-yil": 1738,
      "langan.": 1739,
      "▁uy": 1740,
      "▁qol": 1741,
      "ff": 1742,
      "▁el": 1743,
      "yekt": 1744,
      "▁mash": 1745,
      "atga": 1746,
      "▁ri": 1747,
      "diya": 1748,
      "ath": 1749,
      "▁suv": 1750,
      "ris": 1751,
      "▁198": 1752,
      "g'": 1753,
      "▁tay": 1754,
      "kent": 1755,
      "tal": 1756,
      "▁(201": 1757,
      "▁kam": 1758,
      "▁maktab": 1759,
      "▁tarix": 1760,
      "▁koʻrsat": 1761,
      "▁dara": 1762,
      "ne": 1763,
      "aqin": 1764,
      "▁(200": 1765,
      "uruh": 1766,
      "▁maʼlumot": 1767,
      "ih": 1768,
      "▁xiz": 1769,
      "nat": 1770,
      "▁Ros": 1771,
      "▁haqida": 1772,
      "ust": 1773,
      "▁vaqt": 1774,
      "rin": 1775,
      "siyaning": 1776,
      "▁tas": 1777,
      "▁okru": 1778,
      "▁ne": 1779,
      "gan,": 1780,
      "▁In": 1781,
      "▁oʻtkaz": 1782,
      "▁kiradi.\n\n": 1783,
      "▁Yangi": 1784,
      "▁universi": 1785,
      "ard": 1786,
      "ja": 1787,
      "▁15": 1788,
      "-s": 1789,
      "▁il": 1790,
      "tar": 1791,
      "8-yil": 1792,
      "▁qoʻshi": 1793,
      "7-yil": 1794,
      "▁ko'": 1795,
      "▁asosiy": 1796,
      "▁terma": 1797,
      "▁milliy": 1798,
      "▁yash": 1799,
      "▁dast": 1800,
      "▁kuch": 1801,
      "▁Turk": 1802,
      "xt": 1803,
      "▁kuni": 1804,
      "oshkent": 1805,
      "kor": 1806,
      "6-yil": 1807,
      "▁biri": 1808,
      "bi": 1809,
      "sion": 1810,
      "▁German": 1811,
      "bur": 1812,
      "sha": 1813,
      "ʼz": 1814,
      "▁qism": 1815,
      "▁0": 1816,
      "ino": 1817,
      "4-yil": 1818,
      "▁tush": 1819,
      "chisi": 1820,
      "odiy": 1821,
      "▁yaqin": 1822,
      "5-yil": 1823,
      "gʻri": 1824,
      "▁huk": 1825,
      "▁qoʻsh": 1826,
      "▁zi": 1827,
      "undan": 1828,
      "biyot": 1829,
      "ty": 1830,
      "▁AQSh": 1831,
      "asmiy": 1832,
      "amlak": 1833,
      "▁roʻy": 1834,
      "aniq": 1835,
      "partam": 1836,
      "▁\nMaydoni": 1837,
      "asiga": 1838,
      "▁guruh": 1839,
      "3-yil": 1840,
      "orat": 1841,
      "qali": 1842,
      "▁kommunadir.": 1843,
      "dat": 1844,
      "▁bogʻ": 1845,
      "▁shart": 1846,
      "▁departam": 1847,
      "ala": 1848,
      "▁etgan": 1849,
      "ayt": 1850,
      "lib,": 1851,
      "▁17": 1852,
      "▁Ab": 1853,
      "▁shuningdek,": 1854,
      "▁okrugi": 1855,
      "▁kabi": 1856,
      "magan": 1857,
      "uquq": 1858,
      "▁yuq": 1859,
      "▁xizmat": 1860,
      "▁ishtir": 1861,
      "▁qayta": 1862,
      "▁197": 1863,
      "▁oʻq": 1864,
      "▁ikkinchi": 1865,
      "▁gol": 1866,
      "▁madan": 1867,
      "tis": 1868,
      "if": 1869,
      "▁qab": 1870,
      "-iy": 1871,
      "▁roʻyx": 1872,
      "lav": 1873,
      "▁ombor": 1874,
      "▁kiradi.\n\nAholisi": 1875,
      "evro": 1876,
      "▁oʻrtacha": 1877,
      "▁us": 1878,
      "ayotgan": 1879,
      "lashtir": 1880,
      "atsiya": 1881,
      "ometr": 1882,
      "vad": 1883,
      "▁viloyat": 1884,
      "esh": 1885,
      "ozir": 1886,
      "adigan": 1887,
      "aj": 1888,
      "▁ishtirok": 1889,
      "▁riv": 1890,
      "amlakat": 1891,
      "eg": 1892,
      "uda": 1893,
      "▁huj": 1894,
      "▁yoʻl": 1895,
      "▁sath": 1896,
      "▁boʻlgan.": 1897,
      "rda": 1898,
      "lar.": 1899,
      "▁12": 1900,
      "ishda": 1901,
      "▁taq": 1902,
      "▁Uning": 1903,
      "kak": 1904,
      "erg": 1905,
      "▁16": 1906,
      "▁vaf": 1907,
      "▁omborida": 1908,
      "▁harak": 1909,
      "▁mintaqasida": 1910,
      "▁balandlikda": 1911,
      "val": 1912,
      "▁asl": 1913,
      "alari": 1914,
      "enga": 1915,
      "sidagi": 1916,
      "▁Toshkent": 1917,
      "▁kil": 1918,
      "moq": 1919,
      "ft": 1920,
      "▁.": 1921,
      "jon": 1922,
      "▁muk": 1923,
      "xir": 1924,
      "▁huquq": 1925,
      "ologiya": 1926,
      "▁sab": 1927,
      "▁Dengiz": 1928,
      "▁ular": 1929,
      "▁shak": 1930,
      "tika": 1931,
      "▁bo‘": 1932,
      "▁sathidan": 1933,
      "lagan": 1934,
      "▁Av": 1935,
      "ladigan": 1936,
      "ral": 1937,
      "ston": 1938,
      "▁kiradi.": 1939,
      "▁inson": 1940,
      "▁vaz": 1941,
      "▁(199": 1942,
      "▁yordam": 1943,
      "▁zich": 1944,
      "rans": 1945,
      "chalik": 1946,
      "yut": 1947,
      "gor": 1948,
      "▁yur": 1949,
      "▁obyekt": 1950,
      "▁egal": 1951,
      "▁IC": 1952,
      "▁koʻra,": 1953,
      "ilgan.\n\n": 1954,
      "▁ibor": 1955,
      "▁kvad": 1956,
      "ant": 1957,
      "▁kilometr": 1958,
      "qiq": 1959,
      "▁qan": 1960,
      "▁11": 1961,
      "▁cha": 1962,
      "alog": 1963,
      "ers": 1964,
      "ck": 1965,
      "1-yil": 1966,
      "▁kvadrat": 1967,
      "▁shartnom": 1968,
      "ess": 1969,
      "▁oʻrin": 1970,
      "▁birga": 1971,
      "▁kas": 1972,
      "aydon": 1973,
      "▁rivoj": 1974,
      "▁akt": 1975,
      "▁qilgan": 1976,
      "▁13": 1977,
      "oir": 1978,
      "sip": 1979,
      "▁amal": 1980,
      "▁14": 1981,
      "▁ket": 1982,
      "▁faoliyat": 1983,
      "kon": 1984,
      "est": 1985,
      "\n|": 1986,
      "bar": 1987,
      "▁mukof": 1988,
      "▁tili": 1989,
      "▁aylan": 1990,
      "stit": 1991,
      "▁196": 1992,
      "▁him": 1993,
      "ly": 1994,
      "▁hududi": 1995,
      "bat": 1996,
      "▁orqali": 1997,
      "alab": 1998,
      "ova": 1999,
      "eh": 2000,
      "▁yuqori": 2001,
      "▁oshir": 2002,
      "▁mamlakat": 2003,
      "▁oq": 2004,
      "anvar": 2005,
      "▁par": 2006,
      "▁soh": 2007,
      "▁maydon": 2008,
      "och": 2009,
      "▁mahal": 2010,
      "▁iborat": 2011,
      "masi": 2012,
      "▁kishi.\n\nGeografiyasi": 2013,
      "▁tad": 2014,
      "▁zichligi": 2015,
      "▁Vi": 2016,
      "▁siy": 2017,
      "▁nati": 2018,
      "nali": 2019,
      "von": 2020,
      "sim": 2021,
      "ugʻ": 2022,
      "ingi": 2023,
      "▁ah": 2024,
      "lom": 2025,
      "▁ayollar": 2026,
      "▁Aholi": 2027,
      "ovin": 2028,
      "▁daraj": 2029,
      "▁oxir": 2030,
      "▁aʼz": 2031,
      "199": 2032,
      "▁oila": 2033,
      "▁katalog": 2034,
      "▁tizi": 2035,
      "▁Ushbu": 2036,
      "▁yet": 2037,
      "▁nashrida": 2038,
      "ep": 2039,
      "▁(1": 2040,
      "eb": 2041,
      "▁bo'l": 2042,
      "▁Fransiyaning": 2043,
      "▁shahrida": 2044,
      "▁marta": 2045,
      "nash": 2046,
      "▁Rossiya": 2047,
      "▁vafot": 2048,
      "abrda": 2049,
      "▁mur": 2050,
      "▁“": 2051,
      "aʼ": 2052,
      "gust": 2053,
      "mad": 2054,
      "▁turli": 2055,
      "hur": 2056,
      "▁Respublikasi": 2057,
      "▁man": 2058,
      "▁tumanidagi": 2059,
      "kan": 2060,
      "▁markazi": 2061,
      "▁aj": 2062,
      "ip": 2063,
      "▁rol": 2064,
      "lagan.": 2065,
      "a,": 2066,
      "may": 2067,
      "ass": 2068,
      "ib,": 2069,
      "ichi": 2070,
      "iyati": 2071,
      "▁himoya": 2072,
      "▁qon": 2073,
      "▁Mil": 2074,
      "▁eta": 2075,
      "▁naz": 2076,
      "▁saq": 2077,
      "▁turk": 2078,
      "▁qarash": 2079,
      "▁Yevro": 2080,
      "▁yarat": 2081,
      "▁maʼ": 2082,
      "chilar": 2083,
      "▁yerda": 2084,
      "▁tel": 2085,
      "dabiyot": 2086,
      "ce": 2087,
      "vat": 2088,
      "den": 2089,
      "▁kilometrga": 2090,
      "▁buy": 2091,
      "“,": 2092,
      "don": 2093,
      "▁qir": 2094,
      "▁nomi": 2095,
      "lik,": 2096,
      "▁tugʻilganlar\n": 2097,
      "ekin": 2098,
      "▁hamda": 2099,
      "uld": 2100,
      "▁shax": 2101,
      "▁ich": 2102,
      "▁Maydoni": 2103,
      "9-yil": 2104,
      "▁asr": 2105,
      "sipali": 2106,
      "▁aniq": 2107,
      "do": 2108,
      "▁bos": 2109,
      "▁oʻzining": 2110,
      "liklar": 2111,
      "dir.\n\n": 2112,
      "▁prof": 2113,
      "▁payt": 2114,
      "ora": 2115,
      "▁toʻp": 2116,
      "aro": 2117,
      "▁of": 2118,
      "▁dan": 2119,
      "22": 2120,
      "SR": 2121,
      "▁qismi": 2122,
      "▁davomida": 2123,
      "▁oʻzgar": 2124,
      "▁provin": 2125,
      "-1": 2126,
      "ishni": 2127,
      "▁departamenti": 2128,
      "▁harakat": 2129,
      "▁til": 2130,
      "▁jar": 2131,
      "▁sabab": 2132,
      "for": 2133,
      "▁mod": 2134,
      "▁ni": 2135,
      "-as": 2136,
      "▁kur": 2137,
      "▁etilgan": 2138,
      "▁mat": 2139,
      "all": 2140,
      "rezi": 2141,
      "▁bel": 2142,
      "teti": 2143,
      "itob": 2144,
      "digan": 2145,
      "gʻi": 2146,
      "▁mul": 2147,
      "voz": 2148,
      "▁barcha": 2149,
      "ji": 2150,
      "▁yak": 2151,
      "▁iq": 2152,
      "▁tak": 2153,
      "▁()": 2154,
      "eta": 2155,
      "xi": 2156,
      "adi,": 2157,
      "▁tashqar": 2158,
      "bn": 2159,
      "sining": 2160,
      "b,": 2161,
      "Oʻzbekiston": 2162,
      "▁nam": 2163,
      "▁oʻyinda": 2164,
      "II": 2165,
      "apon": 2166,
      ",5": 2167,
      "▁ammo": 2168,
      "ba": 2169,
      "oor": 2170,
      "▁qoʻlga": 2171,
      "▁faoliyati": 2172,
      "ist": 2173,
      "7-yilda": 2174,
      "▁qoz": 2175,
      "unday": 2176,
      "oat": 2177,
      "5-yilda": 2178,
      "▁toʻgʻri": 2179,
      "000": 2180,
      "▁milli": 2181,
      "kra": 2182,
      "▁tez": 2183,
      "ts": 2184,
      "▁hola": 2185,
      "4-yilda": 2186,
      "tin": 2187,
      "▁qarashli": 2188,
      "liz": 2189,
      "▁erkak": 2190,
      "lati": 2191,
      "▁tuz": 2192,
      "▁xalqaro": 2193,
      "ou": 2194,
      "8-yilda": 2195,
      "▁kompan": 2196,
      "g‘": 2197,
      "▁boʻldi.": 2198,
      "▁joylashgan.": 2199,
      "6-yilda": 2200,
      "itoy": 2201,
      "vir": 2202,
      "▁janub": 2203,
      "oki": 2204,
      "▁195": 2205,
      "aqat": 2206,
      "arbiy": 2207,
      "▁mashhur": 2208,
      "▁meda": 2209,
      "rezid": 2210,
      "▁och": 2211,
      "riy": 2212,
      "indi": 2213,
      "▁keng": 2214,
      "irik": 2215,
      "▁kub": 2216,
      "rel": 2217,
      "▁qabul": 2218,
      "▁qildi.": 2219,
      "lanishi": 2220,
      "ya": 2221,
      "ulduz": 2222,
      "▁194": 2223,
      "▁ilm": 2224,
      "▁asar": 2225,
      "▁avt": 2226,
      "ichik": 2227,
      "ziq": 2228,
      "▁markaz": 2229,
      "mir": 2230,
      "▁tek": 2231,
      "bir": 2232,
      "▁sht": 2233,
      "ler": 2234,
      "sipalitet": 2235,
      "▁sar": 2236,
      "dar": 2237,
      "sir": 2238,
      "▁sur": 2239,
      "▁hudud": 2240,
      "dem": 2241,
      "▁ker": 2242,
      "▁belgi": 2243,
      "3-yilda": 2244,
      "▁25": 2245,
      "lida": 2246,
      "▁liga": 2247,
      "umla": 2248,
      "▁Osiy": 2249,
      "ex": 2250,
      "▁saf": 2251,
      "▁shim": 2252,
      "▁Germaniya": 2253,
      ";\n": 2254,
      "▁Af": 2255,
      "▁odam": 2256,
      "▁hol": 2257,
      "kov": 2258,
      "tisodiy": 2259,
      "▁dun": 2260,
      "utun": 2261,
      "▁2019": 2262,
      "ind": 2263,
      "▁Kar": 2264,
      "▁talab": 2265,
      "▁en": 2266,
      "▁xalq": 2267,
      "yu": 2268,
      "▁natij": 2269,
      "tor": 2270,
      "osida": 2271,
      "▁kor": 2272,
      "▁sov": 2273,
      "▁kasal": 2274,
      "9-yilda": 2275,
      "qiqot": 2276,
      "0)": 2277,
      "▁kerak": 2278,
      "usu": 2279,
      "avo": 2280,
      "▁Ma": 2281,
      "▁toʻrt": 2282,
      "▁amalga": 2283,
      "▁raq": 2284,
      "▁oʻrtasidagi": 2285,
      "str": 2286,
      "ko": 2287,
      "siyalar": 2288,
      "▁Viki": 2289,
      "▁fin": 2290,
      "chiga": 2291,
      "ayli": 2292,
      "lo": 2293,
      "▁vazir": 2294,
      "dinat": 2295,
      "skiy": 2296,
      "▁tomon": 2297,
      "▁ularning": 2298,
      "aydo": 2299,
      "umladan": 2300,
      "an,": 2301,
      "ux": 2302,
      "▁jahon": 2303,
      "rta": 2304,
      "\n\nManbalar\n\nHavolalar": 2305,
      "oordinat": 2306,
      "▁beri": 2307,
      "▁madaniy": 2308,
      "ech": 2309,
      "▁(20": 2310,
      "oʻl": 2311,
      "atiga": 2312,
      "FA": 2313,
      "za": 2314,
      "▁klubi": 2315,
      "▁universitet": 2316,
      "▁mumkin.": 2317,
      "end": 2318,
      "▁30": 2319,
      "ladi,": 2320,
      "▁qiladi.": 2321,
      "ildi": 2322,
      "▁bah": 2323,
      "▁paydo": 2324,
      "-ok": 2325,
      "▁boʻy": 2326,
      "▁Bri": 2327,
      "▁provinsiyasi": 2328,
      "▁boʻlishi": 2329,
      "▁qo'": 2330,
      "▁fan": 2331,
      "▁qilingan": 2332,
      "▁imz": 2333,
      "2-yilda": 2334,
      "▁tayyor": 2335,
      "▁kitob": 2336,
      "▁zar": 2337,
      "▁gʻalab": 2338,
      "▁yod": 2339,
      "▁oʻl": 2340,
      "ci": 2341,
      "▁yana": 2342,
      "▁bola": 2343,
      "ologi": 2344,
      "▁instit": 2345,
      "▁tax": 2346,
      "obil": 2347,
      "onlar": 2348,
      "-asr": 2349,
      "▁olgan": 2350,
      "▁Sa": 2351,
      "limi": 2352,
      "▁sav": 2353,
      "▁shahri": 2354,
      "▁tuf": 2355,
      "ong": 2356,
      "▁juda": 2357,
      "▁emas": 2358,
      "▁193": 2359,
      "1-yilda": 2360,
      "ew": 2361,
      "▁sayti": 2362,
      "-A": 2363,
      "▁joylashgan.\n\nManbalar": 2364,
      "Yash": 2365,
      "▁musi": 2366,
      "ida,": 2367,
      "▁ibn": 2368,
      "abbiy": 2369,
      "de": 2370,
      "sa,": 2371,
      "▁tufayli": 2372,
      "▁xil": 2373,
      ".,": 2374,
      "▁sport": 2375,
      "iss": 2376,
      "▁ikkita": 2377,
      "oordinatalar": 2378,
      "kadem": 2379,
      "tif": 2380,
      "▁Rasmiy": 2381,
      "▁oldin": 2382,
      "▁Yevropa": 2383,
      "▁dastur": 2384,
      "▁oʻyn": 2385,
      "▁etib": 2386,
      "atik": 2387,
      "▁yulduz": 2388,
      "-f": 2389,
      "▁tasvir": 2390,
      "▁As": 2391,
      "qat": 2392,
      "▁Sam": 2393,
      "▁jamoa": 2394,
      "▁kichik": 2395,
      "▁ilmiy": 2396,
      "ert": 2397,
      "yin": 2398,
      "▁yoʻq": 2399,
      "▁elekt": 2400,
      "▁mer": 2401,
      "-q": 2402,
      "▁kol": 2403,
      "vaff": 2404,
      "evral": 2405,
      "gʻon": 2406,
      "maʼlumot": 2407,
      "▁quy": 2408,
      "vaffaq": 2409,
      "▁yodgor": 2410,
      "▁bosqi": 2411,
      "▁hukum": 2412,
      "ogʻiston": 2413,
      "erikalik": 2414,
      "▁qilgan.": 2415,
      "Yashayotgan": 2416,
      ",0": 2417,
      "▁Vikimaʼlumot": 2418,
      "li,": 2419,
      "▁sin": 2420,
      "eyingi": 2421,
      "gun": 2422,
      "▁Vikimaʼlumotlarda": 2423,
      "Koordinatalar": 2424,
      "sional": 2425,
      "rab": 2426,
      "uham": 2427,
      "▁ijro": 2428,
      "▁tizim": 2429,
      "nik": 2430,
      "▁Abd": 2431,
      "▁yillik": 2432,
      "▁tex": 2433,
      "malar": 2434,
      "▁maydoni": 2435,
      "▁jumladan": 2436,
      "▁21": 2437,
      "▁debyut": 2438,
      "atsiyasi": 2439,
      "▁Qoʻ": 2440,
      "▁yarim": 2441,
      "Ch": 2442,
      "▁edi.\n\n": 2443,
      "▁ming": 2444,
      "▁Gʻ": 2445,
      "rash": 2446,
      "▁soʻng,": 2447,
      "▁muz": 2448,
      "▁etish": 2449,
      "▁24": 2450,
      "▁Dav": 2451,
      "▁oʻyna": 2452,
      "▁muvaffaq": 2453,
      "unda": 2454,
      "▁qoʻy": 2455,
      "▁oʻzi": 2456,
      "lanadi.\n\n": 2457,
      "▁St": 2458,
      "▁aholisi": 2459,
      "▁Osiyo": 2460,
      "0-yilda": 2461,
      "nir": 2462,
      "▁eʼl": 2463,
      "▁tadqiqot": 2464,
      "-n": 2465,
      "-av": 2466,
      "▁harbiy": 2467,
      "▁eʼlon": 2468,
      "ildi.\n\n": 2469,
      "kam": 2470,
      "▁kenga": 2471,
      "lin": 2472,
      "▁ushbu": 2473,
      "rom": 2474,
      "▁munit": 2475,
      "▁/": 2476,
      "osk": 2477,
      "▁koʻch": 2478,
      "ow": 2479,
      "▁joylashgan.\n\n": 2480,
      "▁yuz": 2481,
      "BA": 2482,
      "▁shartnoma": 2483,
      "▁23": 2484,
      "▁rav": 2485,
      "▁maj": 2486,
      "oq,": 2487,
      "arqiy": 2488,
      "Tari": 2489,
      "gʻir": 2490,
      "▁ortiq": 2491,
      "osab": 2492,
      "▁Jahon": 2493,
      "zarb": 2494,
      "▁Su": 2495,
      "ozirgi": 2496,
      "▁Ita": 2497,
      "qalar": 2498,
      "sul": 2499,
      "▁yub": 2500,
      "mur": 2501,
      "▁Amerika": 2502,
      "▁hisobida": 2503,
      "▁San": 2504,
      "▁munosab": 2505,
      "▁faqat": 2506,
      "asidagi": 2507,
      "▁Aholisi": 2508,
      "ij": 2509,
      "▁o'z": 2510,
      "▁shtat": 2511,
      "ushi": 2512,
      "▁yirik": 2513,
      "ell": 2514,
      "▁murabbiy": 2515,
      "▁kelib": 2516,
      "rik": 2517,
      "indiston": 2518,
      "Adabiyot": 2519,
      "eks": 2520,
      "▁hisoblanadi.": 2521,
      "▁million": 2522,
      "landi.": 2523,
      "rif": 2524,
      "eder": 2525,
      "las": 2526,
      "▁imkon": 2527,
      "likka": 2528,
      "-yanvar": 2529,
      "▁asosida": 2530,
      "▁iy": 2531,
      "▁Shim": 2532,
      "▁2000": 2533,
      "▁uzoq": 2534,
      "▁shakl": 2535,
      "ologik": 2536,
      "yan": 2537,
      "▁qiz": 2538,
      "▁The": 2539,
      "ususiy": 2540,
      "▁futbolchilari\n": 2541,
      "otsi": 2542,
      "-avgust": 2543,
      "stida": 2544,
      "landiya": 2545,
      "▁soni": 2546,
      "▁Ispan": 2547,
      "▁loy": 2548,
      ",3": 2549,
      "▁oid": 2550,
      "uhammad": 2551,
      "▁qonun": 2552,
      "ahar": 2553,
      "▁muhim": 2554,
      ":\n\n": 2555,
      "qin": 2556,
      "▁„M": 2557,
      "▁insonlar\n": 2558,
      "tic": 2559,
      "▁qator": 2560,
      "▁qishloq.": 2561,
      "alqaro": 2562,
      "▁rah": 2563,
      "ayjon": 2564,
      "fer": 2565,
      "▁kubogi": 2566,
      "burg": 2567,
      "▁gaz": 2568,
      "▁yakun": 2569,
      "ollar": 2570,
      "▁qozon": 2571,
      "ug": 2572,
      "▁gi": 2573,
      "▁sanʼ": 2574,
      "▁foydalan": 2575,
      "▁quruq": 2576,
      "incha": 2577,
      "obiq": 2578,
      "▁AQShning": 2579,
      "oriy": 2580,
      "▁Ay": 2581,
      "perat": 2582,
      "▁shahr": 2583,
      "amon": 2584,
      "zarbayjon": 2585,
      "uli": 2586,
      "lashtirish": 2587,
      "▁oʻtgan": 2588,
      "▁taʼlim": 2589,
      "ank": 2590,
      "▁unga": 2591,
      "ras": 2592,
      "▁„A": 2593,
      "alan": 2594,
      "▁bogʻliq": 2595,
      "uti": 2596,
      "▁shahardir.": 2597,
      "-may": 2598,
      "olib": 2599,
      "▁Olim": 2600,
      "198": 2601,
      ".\n\nManbalar\n\nHavolalar": 2602,
      "▁davrida": 2603,
      "oning": 2604,
      "atlar": 2605,
      ",6": 2606,
      "▁jur": 2607,
      "obaq": 2608,
      "ayon": 2609,
      "und": 2610,
      "tifoq": 2611,
      "ura": 2612,
      "▁orasida": 2613,
      "▁kar": 2614,
      "▁Shundan": 2615,
      ",1": 2616,
      "▁tah": 2617,
      ",2": 2618,
      "▁:": 2619,
      "▁yili": 2620,
      "▁Pr": 2621,
      "jali": 2622,
      "▁„B": 2623,
      "ishini": 2624,
      "dim": 2625,
      "▁Keyin": 2626,
      "IC": 2627,
      "ic": 2628,
      "zod": 2629,
      "▁,": 2630,
      "liyaning": 2631,
      "▁Birinchi": 2632,
      "▁etdi.": 2633,
      "▁universiteti": 2634,
      "oʻr": 2635,
      "chib": 2636,
      "▁togʻ": 2637,
      "▁dastlab": 2638,
      "▁magʻ": 2639,
      "iya,": 2640,
      "ch,": 2641,
      ",4": 2642,
      "ley": 2643,
      "emir": 2644,
      "▁2020": 2645,
      "osil": 2646,
      "▁besh": 2647,
      "▁ahol": 2648,
      "▁A.": 2649,
      "▁olingan": 2650,
      "ket": 2651,
      "▁st": 2652,
      "▁butun": 2653,
      "▁taklif": 2654,
      "-M": 2655,
      "▁poy": 2656,
      "▁„S": 2657,
      "▁taxmin": 2658,
      "laydi.": 2659,
      "▁boshqalar": 2660,
      "ota": 2661,
      "▁aloq": 2662,
      "▁yilda": 2663,
      "▁nis": 2664,
      "▁Britan": 2665,
      "▁22": 2666,
      ",8": 2667,
      "jid": 2668,
      "▁magʻlub": 2669,
      "essional": 2670,
      "▁koʻplab": 2671,
      "▁xoʻ": 2672,
      "anada": 2673,
      "rim": 2674,
      "▁xususiy": 2675,
      "▁2021": 2676,
      "▁nashr": 2677,
      "ern": 2678,
      "▁ichiga": 2679,
      "-sh": 2680,
      "tim": 2681,
      "▁on": 2682,
      "anda": 2683,
      "to": 2684,
      "▁tekshir": 2685,
      "▁hukm": 2686,
      "anubiy": 2687,
      ",7": 2688,
      "▁26": 2689,
      "timo": 2690,
      "▁qoʻshiq": 2691,
      "▁obyektlari": 2692,
      "ishloq": 2693,
      "▁Xitoy": 2694,
      "iyada": 2695,
      "Ushbu": 2696,
      "▁oʻgʻ": 2697,
      "istik": 2698,
      "▁turnir": 2699,
      "usi": 2700,
      "tadi": 2701,
      "▁sam": 2702,
      "timoiy": 2703,
      "SA": 2704,
      "ttifoq": 2705,
      "▁meros": 2706,
      "▁Qoz": 2707,
      "▁ravishda": 2708,
      "▁avtom": 2709,
      "ord": 2710,
      "▁hujum": 2711,
      "▁gʻalaba": 2712,
      "-mart": 2713,
      "ama": 2714,
      "▁shtatida": 2715,
      "▁chiqq": 2716,
      "▁28": 2717,
      "▁soʻz": 2718,
      "▁to'": 2719,
      "▁boʻladi.": 2720,
      "pe": 2721,
      "▁necha": 2722,
      "▁mukofoti": 2723,
      "▁jang": 2724,
      "oro": 2725,
      "▁akadem": 2726,
      "▁la": 2727,
      "▁ser": 2728,
      "▁davr": 2729,
      "▁musobaq": 2730,
      "likni": 2731,
      "▁Ik": 2732,
      "▁shar": 2733,
      "▁oʻrgan": 2734,
      "▁Koʻ": 2735,
      "▁qatnash": 2736,
      "enty": 2737,
      "▁Muhammad": 2738,
      "sus": 2739,
      "▁rej": 2740,
      ").\n\n": 2741,
      "erial": 2742,
      "otlar": 2743,
      "SSR": 2744,
      "▁27": 2745,
      "rib": 2746,
      "▁far": 2747,
      "▁lav": 2748,
      "▁yubor": 2749,
      "-oʻ": 2750,
      "▁qal": 2751,
      "▁Me": 2752,
      "▁viloyatining": 2753,
      "avf": 2754,
      "ry": 2755,
      "enn": 2756,
      "▁yon": 2757,
      "▁atrof": 2758,
      "▁hosil": 2759,
      "▁qada": 2760,
      "pir": 2761,
      "▁mud": 2762,
      "ahram": 2763,
      "▁the": 2764,
      "▁loyih": 2765,
      "andi": 2766,
      "ef": 2767,
      "▁davri": 2768,
      "obi": 2769,
      "▁iqtisodiy": 2770,
      "arli": 2771,
      "ork": 2772,
      "liklari": 2773,
      "kasi": 2774,
      "ozim": 2775,
      "▁202": 2776,
      "▁chempionati": 2777,
      "10": 2778,
      "egar": 2779,
      "atlari": 2780,
      "aydi.": 2781,
      "yuk": 2782,
      "▁chempionatida": 2783,
      "ild": 2784,
      "qir": 2785,
      "▁Ol": 2786,
      "stra": 2787,
      ",9": 2788,
      "▁qiy": 2789,
      "qon": 2790,
      "▁hal": 2791,
      "▁jin": 2792,
      "▁(2010)": 2793,
      "▁qanday": 2794,
      "▁Le": 2795,
      "up": 2796,
      "loh": 2797,
      "unki": 2798,
      "▁||.": 2799,
      "▁Shimoliy": 2800,
      "▁Par": 2801,
      "ayn": 2802,
      "-dek": 2803,
      "▁Mah": 2804,
      "-iyul": 2805,
      "▁trans": 2806,
      "iv": 2807,
      "▁dunyo": 2808,
      "ill": 2809,
      "▁jih": 2810,
      "▁Bosh": 2811,
      "▁imzola": 2812,
      "gʻul": 2813,
      "▁miq": 2814,
      "▁mahalliy": 2815,
      "▁turkum": 2816,
      "-ap": 2817,
      "ish,": 2818,
      "ons": 2819,
      "razi": 2820,
      "xe": 2821,
      "siga": 2822,
      "▁dengiz": 2823,
      "▁munitsipalitet": 2824,
      "qal": 2825,
      "▁teng": 2826,
      "viy": 2827,
      "▁fu": 2828,
      "▁past": 2829,
      "▁edi": 2830,
      "▁may": 2831,
      "▁Bar": 2832,
      "ovet": 2833,
      "▁qaror": 2834,
      "▁Uni": 2835,
      "alarni": 2836,
      "▁lekin": 2837,
      "-noy": 2838,
      "▁boʻlish": 2839,
      "Dem": 2840,
      "odir": 2841,
      "tiv": 2842,
      "▁meh": 2843,
      "▁do": 2844,
      "▁„T": 2845,
      "▁aʼzosi": 2846,
      "▁sobiq": 2847,
      "▁xon": 2848,
      "▁Mas": 2849,
      "'l": 2850,
      "▁qishl": 2851,
      "▁bo‘l": 2852,
      "▁M.": 2853,
      "gat": 2854,
      "▁odat": 2855,
      "fa": 2856,
      "▁ko‘": 2857,
      "▁teat": 2858,
      "kl": 2859,
      "▁urush": 2860,
      "osita": 2861,
      "▁Ang": 2862,
      "▁Yapon": 2863,
      "▁taʼsir": 2864,
      "▁max": 2865,
      "ox": 2866,
      "▁tip": 2867,
      "moqda": 2868,
      "▁fo": 2869,
      "▁NA": 2870,
      "Adabiyotlar": 2871,
      "▁chegar": 2872,
      "nes": 2873,
      "uni": 2874,
      "taqil": 2875,
      "▁siyos": 2876,
      "▁foydalanish": 2877,
      "▁keltir": 2878,
      "▁to": 2879,
      "▁Eron": 2880,
      "▁qolgan": 2881,
      "▁son": 2882,
      "tiga": 2883,
      "▁part": 2884,
      "tax": 2885,
      "▁qarang": 2886,
      "▁kuz": 2887,
      "▁nar": 2888,
      "rop": 2889,
      "▁xos": 2890,
      "ʼm": 2891,
      "50": 2892,
      "kraina": 2893,
      "adim": 2894,
      "▁tayin": 2895,
      "chiq": 2896,
      "▁Kor": 2897,
      "ens": 2898,
      "▁ilk": 2899,
      "▁etilgan.": 2900,
      "▁bosqich": 2901,
      "▁oldi": 2902,
      "zm": 2903,
      "diq": 2904,
      "▁professional": 2905,
      "▁Hindiston": 2906,
      "▁ekan": 2907,
      "▁rus": 2908,
      "▁holat": 2909,
      "alarini": 2910,
      "▁mulk": 2911,
      "uman": 2912,
      "▁tumaniga": 2913,
      "▁yi": 2914,
      "ingliz": 2915,
      "cha,": 2916,
      "▁bit": 2917,
      "xona": 2918,
      "uvvat": 2919,
      "asi,": 2920,
      "langan.\n\n": 2921,
      "▁aks": 2922,
      "ge": 2923,
      "eys": 2924,
      "ha": 2925,
      "-t": 2926,
      "iyalik": 2927,
      "▁dey": 2928,
      "yer": 2929,
      "▁rang": 2930,
      "ros": 2931,
      "udiy": 2932,
      "iladi.": 2933,
      "▁orden": 2934,
      "▁Ob": 2935,
      "▁Milliy": 2936,
      "ira": 2937,
      "-19": 2938,
      "▁Janubiy": 2939,
      "▁hayot": 2940,
      "▁final": 2941,
      "▁mavjud.": 2942,
      "▁Davlat": 2943,
      "▁oʻn": 2944,
      "oskva": 2945,
      "▁chiqarish": 2946,
      "▁29": 2947,
      "uvi": 2948,
      "▁Co": 2949,
      "▁maydonga": 2950,
      "Demografiyasi": 2951,
      "ligida": 2952,
      "▁urushi": 2953,
      "▁mahalla": 2954,
      "lardagi": 2955,
      "▁(18": 2956,
      "▁aktyor": 2957,
      "oly": 2958,
      "▁\nA": 2959,
      "▁din": 2960,
      "▁stan": 2961,
      "▁chek": 2962,
      "=\"": 2963,
      "izm": 2964,
      "▁Ah": 2965,
      "▁nisbat": 2966,
      "ilish": 2967,
      "ogʻi": 2968,
      "▁nazar": 2969,
      "▁uchta": 2970,
      "▁tugʻilgan)": 2971,
      "▁keyingi": 2972,
      "▁bor.": 2973,
      "▁qadar": 2974,
      "ula": 2975,
      "▁medal": 2976,
      "gn": 2977,
      "▁192": 2978,
      "-aprel": 2979,
      "▁chiqqan": 2980,
      "▁for": 2981,
      "iyaga": 2982,
      "▁xavf": 2983,
      "▁mahsul": 2984,
      "iyasining": 2985,
      "uvchilar": 2986,
      "▁tik": 2987,
      "lashgan": 2988,
      "-S": 2989,
      "▁komp": 2990,
      "gach,": 2991,
      "ren": 2992,
      "▁El": 2993,
      "kar": 2994,
      "▁chunki": 2995,
      "▁roʻyxatga": 2996,
      "▁100": 2997,
      "▁ust": 2998,
      "▁boʻlin": 2999,
      "▁ijtimoiy": 3000,
      "▁Turkiyaning": 3001,
      "▁rasmiy": 3002,
      "ki,": 3003,
      "▁osh": 3004,
      "xsh": 3005,
      "▁Man": 3006,
      "▁berish": 3007,
      "oʻz": 3008,
      "ine": 3009,
      "IM": 3010,
      "lovchi": 3011,
      "allif": 3012,
      "▁holda": 3013,
      "▁aktris": 3014,
      "eral": 3015,
      "otlari": 3016,
      "▁namoy": 3017,
      "shun": 3018,
      "▁boshlab": 3019,
      "▁(198": 3020,
      "▁prezid": 3021,
      "▁dary": 3022,
      "▁\nB": 3023,
      "▁erish": 3024,
      "▁aholini": 3025,
      "ojik": 3026,
      "▁ek": 3027,
      "▁km2.\n\nManbalar": 3028,
      "▁faoliyatini": 3029,
      "-fevral": 3030,
      "shli": 3031,
      "▁Bux": 3032,
      "▁hoki": 3033,
      "▁taʼmin": 3034,
      "▁ostida": 3035,
      "▁bal": 3036,
      "abar": 3037,
      "▁es": 3038,
      "▁w": 3039,
      "our": 3040,
      "▁muvaffaqiyat": 3041,
      "▁tabi": 3042,
      "ue": 3043,
      "▁galak": 3044,
      "▁bino": 3045,
      "▁haqidagi": 3046,
      "alarida": 3047,
      "ilgan,": 3048,
      "ativ": 3049,
      "ase": 3050,
      "Yana": 3051,
      "▁ul": 3052,
      "tadi.": 3053,
      "kal": 3054,
      "▁Germaniyaning": 3055,
      "azov": 3056,
      "▁ot": 3057,
      "▁kelgan": 3058,
      "9).": 3059,
      "▁eʼ": 3060,
      "▁maqola": 3061,
      "▁organ": 3062,
      "▁Oʻz": 3063,
      "lama": 3064,
      "oyat": 3065,
      "▁oʻrnat": 3066,
      "-P": 3067,
      "▁shaxs": 3068,
      "kaziy": 3069,
      "gina": 3070,
      "raga": 3071,
      "▁asosan": 3072,
      "sil": 3073,
      "▁lavozim": 3074,
      "ligiga": 3075,
      "▁Har": 3076,
      "17": 3077,
      "ilishi": 3078,
      "▁mos": 3079,
      "▁li": 3080,
      "-L": 3081,
      "ec": 3082,
      "oqe": 3083,
      "▁(A": 3084,
      "▁farq": 3085,
      "dori": 3086,
      "▁Kon": 3087,
      "▁maʼlum": 3088,
      "▁La": 3089,
      "▁kim": 3090,
      "Tarixi": 3091,
      "eli": 3092,
      "▁oldi.": 3093,
      "▁ov": 3094,
      "▁kech": 3095,
      "▁Qozogʻiston": 3096,
      "▁Ular": 3097,
      "▁yerida": 3098,
      "▁avval": 3099,
      "12": 3100,
      "▁ayt": 3101,
      "▁aʼzo": 3102,
      "▁2019-yil": 3103,
      "otib": 3104,
      "ost": 3105,
      "▁natijasida": 3106,
      "▁qayt": 3107,
      "▁nisbatan": 3108,
      "amb": 3109,
      "▁bur": 3110,
      "▁maxsus": 3111,
      "Havolalar": 3112,
      "tabrda": 3113,
      "▁keyinchalik": 3114,
      "▁qiladi.\n\n": 3115,
      "▁oʻrtasida": 3116,
      "▁uchinchi": 3117,
      "▁eti": 3118,
      "▁etgan.": 3119,
      "arqand": 3120,
      "chak": 3121,
      "▁iz": 3122,
      "van": 3123,
      "gent": 3124,
      "▁galaktika": 3125,
      "uf": 3126,
      "▁old": 3127,
      "▁hamkor": 3128,
      "ation": 3129,
      "▁Ozarbayjon": 3130,
      "shunos": 3131,
      "▁o't": 3132,
      "amonaviy": 3133,
      "ca": 3134,
      "ishiga": 3135,
      "▁doim": 3136,
      "qiy": 3137,
      "▁qam": 3138,
      "sen": 3139,
      "okk": 3140,
      "▁koʻrin": 3141,
      "▁NASA": 3142,
      "ov,": 3143,
      "▁Dat": 3144,
      "▁jamoasiga": 3145,
      "sis": 3146,
      "▁sanʼat": 3147,
      "▁oʻs": 3148,
      "▁S.": 3149,
      "30": 3150,
      "mash": 3151,
      "▁Buyuk": 3152,
      "▁kommunalari": 3153,
      "bori": 3154,
      "▁ap": 3155,
      "▁Mak": 3156,
      "jar": 3157,
      "▁oʻyinchi": 3158,
      "▁qu": 3159,
      ")\n\n": 3160,
      "eya": 3161,
      "▁af": 3162,
      "▁etgan.\n\n": 3163,
      "▁000": 3164,
      "▁olim": 3165,
      "jaligi": 3166,
      "▁c": 3167,
      "▁usti": 3168,
      "ach": 3169,
      "▁taqdim": 3170,
      "▁kurash": 3171,
      "▁kan": 3172,
      "▁avtomobil": 3173,
      "▁uchrash": 3174,
      "▁Er": 3175,
      "ovich": 3176,
      "▁taxminan": 3177,
      "agan": 3178,
      "oman": 3179,
      "15": 3180,
      "▁ingliz": 3181,
      "▁boʻlgan.\n\n": 3182,
      "▁mustaqil": 3183,
      "▁and": 3184,
      "bos": 3185,
      "▁Moskva": 3186,
      "aya": 3187,
      "ene": 3188,
      "▁oʻzbek": 3189,
      "lac": 3190,
      "inch": 3191,
      "azovor": 3192,
      "chta": 3193,
      "atdan": 3194,
      "▁ombori": 3195,
      "▁sul": 3196,
      "▁siyosiy": 3197,
      "▁oʻsha": 3198,
      "▁jurnali": 3199,
      "ududi": 3200,
      "▁Be": 3201,
      "▁Shv": 3202,
      "alan,": 3203,
      "▁jamoasida": 3204,
      "▁sazovor": 3205,
      "eʼ": 3206,
      "▁Qir": 3207,
      "▁fuqaro": 3208,
      "-oʻrin": 3209,
      "▁radi": 3210,
      "zor": 3211,
      "▁tarqal": 3212,
      "Turk": 3213,
      "xonasi": 3214,
      "▁tam": 3215,
      "▁muzey": 3216,
      "ht": 3217,
      "▁Shuningdek,": 3218,
      "▁Abdul": 3219,
      "▁Fransiya": 3220,
      "▁tartib": 3221,
      "16": 3222,
      "▁Liga": 3223,
      "▁mavsumda": 3224,
      "oniga": 3225,
      "lor": 3226,
      "shma": 3227,
      "▁joylashgan.\n\nDemografiyasi": 3228,
      "uvchisi": 3229,
      "amo": 3230,
      "▁quyidagi": 3231,
      "▁tegi": 3232,
      "-h": 3233,
      "nal": 3234,
      "▁Mon": 3235,
      "▁Pol": 3236,
      "▁dir": 3237,
      "▁sp": 3238,
      "izil": 3239,
      "e,": 3240,
      "▁sah": 3241,
      "mush": 3242,
      "▁boʻlsa": 3243,
      "▁bo'lgan": 3244,
      "▁yoʻnali": 3245,
      "▁toʻq": 3246,
      "▁tushun": 3247,
      "▁uzun": 3248,
      "197": 3249,
      "ʼzi": 3250,
      "▁(1999).": 3251,
      "alarda": 3252,
      "ser": 3253,
      "▁(197": 3254,
      "▁stat": 3255,
      "▁50": 3256,
      "▁En": 3257,
      "▁Far": 3258,
      "▁nechta": 3259,
      "kid": 3260,
      "▁Tur": 3261,
      "\n\nHududi": 3262,
      "▁qo‘": 3263,
      "▁masjid": 3264,
      "▁tib": 3265,
      "14": 3266,
      "▁ordeni": 3267,
      "omi": 3268,
      "▁tumanida": 3269,
      "▁baʼzi": 3270,
      "ulmon": 3271,
      "▁kut": 3272,
      "▁musiqa": 3273,
      ".\n\nGeografiyasi\n\nHududi": 3274,
      "adimgi": 3275,
      "▁Vikimaʼlumotlarda\n": 3276,
      "\",": 3277,
      "ide": 3278,
      "sib": 3279,
      "▁Markaziy": 3280,
      "▁rek": 3281,
      "▁ishlati": 3282,
      "tsiya": 3283,
      "stem": 3284,
      "▁rivojlan": 3285,
      "▁paytida": 3286,
      "▁quruqlik,": 3287,
      "▁FI": 3288,
      "▁ax": 3289,
      "muriy": 3290,
      "▁oper": 3291,
      "▁Gr": 3292,
      "▁boʻylab": 3293,
      "▁bay": 3294,
      "▁oltin": 3295,
      "smon": 3296,
      "▁ichida": 3297,
      "tabr": 3298,
      "▁energ": 3299,
      "▁tashqari,": 3300,
      "▁hech": 3301,
      "orti": 3302,
      "atli": 3303,
      "▁Bur": 3304,
      "illi": 3305,
      "eyt": 3306,
      "iyadagi": 3307,
      "▁al-": 3308,
      "kur": 3309,
      "ening": 3310,
      "▁boshlan": 3311,
      "▁Sovet": 3312,
      "▁turkumidagi": 3313,
      "umb": 3314,
      "fi": 3315,
      "▁shimoli": 3316,
      "▁kash": 3317,
      "oviy": 3318,
      "▁kolle": 3319,
      "gʻiz": 3320,
      "eda": 3321,
      "obod": 3322,
      "abase": 3323,
      "▁Ext": 3324,
      "▁%": 3325,
      "ohat": 3326,
      "▁dol": 3327,
      "ia": 3328,
      "▁Shu": 3329,
      "mar": 3330,
      "▁temir": 3331,
      "▁muallif": 3332,
      "▁\n\nKoordinatalar": 3333,
      "▁Database": 3334,
      "▁vosita": 3335,
      "▁tarixi": 3336,
      "mcha": 3337,
      "▁jarayon": 3338,
      "okkey": 3339,
      "stik": 3340,
      "▁institut": 3341,
      "niga": 3342,
      "▁fik": 3343,
      "se": 3344,
      "▁SSSR": 3345,
      "▁ta'": 3346,
      "asidan": 3347,
      "▁Kom": 3348,
      "▁chiqish": 3349,
      "▁ko'p": 3350,
      "di.\n\nManbalar": 3351,
      "▁Shtat": 3352,
      "▁tekshirilgan": 3353,
      "▁SIM": 3354,
      "▁Ba": 3355,
      "▁bin": 3356,
      "▁mis": 3357,
      "▁nav": 3358,
      "dilar.": 3359,
      "▁nuq": 3360,
      "▁qo": 3361,
      "▁„K": 3362,
      "▁mukofot": 3363,
      "▁tegishli": 3364,
      "ektor": 3365,
      "▁eks": 3366,
      "▁shahridagi": 3367,
      "▁biz": 3368,
      "▁ichki": 3369,
      "▁tipli": 3370,
      "▁dek": 3371,
      "▁Vizi": 3372,
      "lactic": 3373,
      "23": 3374,
      "-quvvat": 3375,
      "ragalactic": 3376,
      "▁iste": 3377,
      "▁Extragalactic": 3378,
      "BAD": 3379,
      "▁rahbar": 3380,
      "▁SIMBAD": 3381,
      "/IC": 3382,
      "▁Bel": 3383,
      "▁Vizier": 3384,
      "▁NGC/IC": 3385,
      "lab-quvvat": 3386,
      "iyalar": 3387,
      "▁oʻsim": 3388,
      "▁if": 3389,
      "▁faol": 3390,
      "..": 3391,
      "▁yoshgacha": 3392,
      "▁savdo": 3393,
      "▁turmush": 3394,
      "▁40": 3395,
      "lashga": 3396,
      "▁bitta": 3397,
      "▁undan": 3398,
      "▁Min": 3399,
      "▁elektr": 3400,
      "▁safida": 3401,
      "▁otasi": 3402,
      "emis": 3403,
      "▁almash": 3404,
      "\n\nM": 3405,
      "▁\n\nA": 3406,
      "▁roli": 3407,
      "▁etganlar\n": 3408,
      "6)": 3409,
      "▁ata": 3410,
      "ami": 3411,
      "▁.\n\n": 3412,
      "▁fak": 3413,
      "▁etadi.": 3414,
      "▁sing": 3415,
      "▁fil": 3416,
      "▁Bol": 3417,
      "esti": 3418,
      "▁ras": 3419,
      "▁oʻrinni": 3420,
      "▁Kat": 3421,
      "▁geografiyasi": 3422,
      "ohida": 3423,
      "▁buyur": 3424,
      "rad": 3425,
      "▁sak": 3426,
      "▁yogʻ": 3427,
      "▁ning": 3428,
      "lanadi": 3429,
      "lashtirilgan": 3430,
      "▁Oʻrta": 3431,
      "▁majbur": 3432,
      "▁usul": 3433,
      "▁chala": 3434,
      "▁daryo": 3435,
      "▁boshqaruv": 3436,
      "uft": 3437,
      "▁sol": 3438,
      "13": 3439,
      "▁orol": 3440,
      "sini": 3441,
      "tak": 3442,
      "▁Mus": 3443,
      "pp": 3444,
      "ilma": 3445,
      "lagan.\n\n": 3446,
      "▁2000-yil": 3447,
      "ets": 3448,
      "bon": 3449,
      "bob": 3450,
      "▁Samarqand": 3451,
      "▁ak": 3452,
      "▁ettir": 3453,
      "rak": 3454,
      "▁qayd": 3455,
      "erm": 3456,
      "zo": 3457,
      "▁Biroq,": 3458,
      "▁Keyinchalik": 3459,
      "▁Sur": 3460,
      "▁muam": 3461,
      "▁xoʻjaligi": 3462,
      "isi": 3463,
      "niq": 3464,
      "▁Mir": 3465,
      "▁tugʻilganlar": 3466,
      "▁kmdir.": 3467,
      "siq": 3468,
      "no": 3469,
      "▁)": 3470,
      "▁doir": 3471,
      "int": 3472,
      "alash": 3473,
      "▁yoshida": 3474,
      "chilari": 3475,
      "▁Il": 3476,
      "mu": 3477,
      "▁(„": 3478,
      "24": 3479,
      "▁chor": 3480,
      "▁hayoti": 3481,
      "▁doʻ": 3482,
      "▁kelish": 3483,
      "▁sot": 3484,
      "▁At": 3485,
      "▁ama": 3486,
      "▁uslub": 3487,
      "▁qilib,": 3488,
      "▁\n201": 3489,
      "▁sistem": 3490,
      "rika": 3491,
      "unga": 3492,
      "▁boʻlmagan": 3493,
      "▁kuchli": 3494,
      "▁yanvar": 3495,
      "▁Ham": 3496,
      "▁qahram": 3497,
      "▁xodi": 3498,
      "layotgan": 3499,
      "-k": 3500,
      "ografiya": 3501,
      "likning": 3502,
      "▁olti": 3503,
      "▁II": 3504,
      "ung": 3505,
      "ena": 3506,
      "di.\n\n201": 3507,
      "▁Mis": 3508,
      "▁degan": 3509,
      "▁Re": 3510,
      "▁oʻxsh": 3511,
      "▁Aleks": 3512,
      ".0": 3513,
      "▁(196": 3514,
      "▁Britaniya": 3515,
      "▁xabar": 3516,
      "▁amerikalik": 3517,
      "▁Qu": 3518,
      "8-": 3519,
      "chiligi": 3520,
      "▁And": 3521,
      "▁chet": 3522,
      "▁Super": 3523,
      "25": 3524,
      "▁mans": 3525,
      "▁vazi": 3526,
      "olish": 3527,
      "▁kirish": 3528,
      "sad": 3529,
      "rid": 3530,
      "res": 3531,
      "▁boy": 3532,
      "▁tosh": 3533,
      "eva": 3534,
      "▁koʻchib": 3535,
      "-senty": 3536,
      "▁ver": 3537,
      "▁oxirida": 3538,
      "adan": 3539,
      "▁Ukraina": 3540,
      "ektori": 3541,
      "▁ovoz": 3542,
      "agona": 3543,
      "▁choʻ": 3544,
      "▁Nor": 3545,
      "ст": 3546,
      "irlar": 3547,
      "▁toʻliq": 3548,
      "11": 3549,
      "aoliy": 3550,
      "▁tugat": 3551,
      "▁mad": 3552,
      "▁maʼlumotlariga": 3553,
      "▁suratga": 3554,
      "▁V.": 3555,
      "left": 3556,
      "▁ota": 3557,
      "\n\nT": 3558,
      "▁Ber": 3559,
      "og'": 3560,
      "dosh": 3561,
      "▁shunday": 3562,
      "▁instituti": 3563,
      "ement": 3564,
      "ligining": 3565,
      "▁punktlari\n": 3566,
      "▁Th": 3567,
      "\n\nAlifbo": 3568,
      "▁qaram": 3569,
      "▁oʻgʻli": 3570,
      "▁aer": 3571,
      "▁tashqari": 3572,
      "piya": 3573,
      "▁qisqa": 3574,
      "▁Buxoro": 3575,
      "▁qor": 3576,
      "▁xot": 3577,
      "▁hisoblanadi.\n\n": 3578,
      "▁yigʻ": 3579,
      "▁Avstr": 3580,
      "iylar": 3581,
      "▁markaziy": 3582,
      "com": 3583,
      "▁Ha": 3584,
      "▁tarixiy": 3585,
      "yn": 3586,
      "▁pas": 3587,
      "▁fun": 3588,
      "▁telev": 3589,
      "▁joylashgan.\n\nDemografiyasi\n\nManbalar\n\nHavolalar": 3590,
      "goh": 3591,
      "▁(M": 3592,
      "▁siyosat": 3593,
      "▁omma": 3594,
      "▁edi,": 3595,
      "▁ge": 3596,
      "▁filmida": 3597,
      "▁hayvon": 3598,
      "anj": 3599,
      "▁odatda": 3600,
      "▁bez": 3601,
      "▁tilida": 3602,
      "▁yuk": 3603,
      "EFA": 3604,
      "ith": 3605,
      "mati": 3606,
      "▁metr": 3607,
      "-iyun": 3608,
      "▁Ser": 3609,
      "▁tashqi": 3610,
      "8)": 3611,
      "-B": 3612,
      "▁kashf": 3613,
      "▁sal": 3614,
      "▁oladi.": 3615,
      "eni": 3616,
      "▁Or": 3617,
      "194": 3618,
      "▁qilib": 3619,
      "▁Abu": 3620,
      "s,": 3621,
      "▁Di": 3622,
      "▁alb": 3623,
      "196": 3624,
      "me": 3625,
      "▁Ittifoq": 3626,
      "▁jild": 3627,
      "▁bas": 3628,
      "▁oʻtkazi": 3629,
      "▁hozirgi": 3630,
      "piada": 3631,
      "In": 3632,
      "▁ega.": 3633,
      "▁ang": 3634,
      "▁geografiyasiga": 3635,
      "▁Ispaniya": 3636,
      "Xalqaro": 3637,
      "▁dastlabki": 3638,
      "o,": 3639,
      "aliq": 3640,
      "▁Obyekt": 3641,
      "▁kiy": 3642,
      "ator": 3643,
      "▁Nyu": 3644,
      "ddiy": 3645,
      "ojikiston": 3646,
      "▁dev": 3647,
      "▁qoʻshin": 3648,
      "lah": 3649,
      "▁koʻproq": 3650,
      "▁musulmon": 3651,
      "▁so'": 3652,
      "▁(h": 3653,
      "mli": 3654,
      "▁Qur": 3655,
      "-R": 3656,
      "▁tarkibida": 3657,
      "xeologiya": 3658,
      "▁oʻqit": 3659,
      "ai": 3660,
      "ofaz": 3661,
      "▁texn": 3662,
      "▁jav": 3663,
      "-Y": 3664,
      "▁medali": 3665,
      "▁(2010).\n\nGeografiyasi\n\nHududi": 3666,
      "lon": 3667,
      "▁yeta": 3668,
      "▁[": 3669,
      "▁Respublikasining": 3670,
      "▁\nS": 3671,
      "▁taqdir": 3672,
      "iyatga": 3673,
      "-okty": 3674,
      "▁(S": 3675,
      "▁De": 3676,
      "▁departament": 3677,
      "tibor": 3678,
      "▁Sar": 3679,
      "uga": 3680,
      "ual": 3681,
      "▁31": 3682,
      "chan": 3683,
      "ariya": 3684,
      "eter": 3685,
      "borot": 3686,
      "▁yut": 3687,
      "▁New": 3688,
      "▁Turkiya": 3689,
      "▁Mad": 3690,
      "▁Feder": 3691,
      "▁xokkey": 3692,
      "alida": 3693,
      "▁darvoz": 3694,
      "▁noy": 3695,
      "▁Oliy": 3696,
      "▁boshladi.": 3697,
      "▁qildi": 3698,
      "▁gacha": 3699,
      "▁yagona": 3700,
      "▁arab": 3701,
      "▁alohida": 3702,
      "lanib": 3703,
      "uzi": 3704,
      "kala": 3705,
      "▁sotib": 3706,
      "▁uyush": 3707,
      "▁qop": 3708,
      "▁sanoat": 3709,
      "vi": 3710,
      "▁chempionat": 3711,
      "▁suy": 3712,
      "▁qismida": 3713,
      "▁kompaniyasi": 3714,
      "▁olgan.": 3715,
      "▁uchr": 3716,
      "-da,": 3717,
      "▁hujj": 3718,
      "berg": 3719,
      "chasi": 3720,
      "▁hozir": 3721,
      "▁soʻnggi": 3722,
      "▁tugʻilgan.": 3723,
      "▁imper": 3724,
      "etsiya": 3725,
      "olat": 3726,
      "ay,": 3727,
      "▁vazif": 3728,
      "umush": 3729,
      "▁anʼ": 3730,
      "▁muhofaz": 3731,
      "in,": 3732,
      "▁qizi": 3733,
      "▁„O": 3734,
      "▁ularni": 3735,
      "lis": 3736,
      "▁o'r": 3737,
      "▁modda": 3738,
      "▁Ak": 3739,
      "▁tark": 3740,
      "-da": 3741,
      "▁hukumat": 3742,
      "▁nomli": 3743,
      "siyasining": 3744,
      "-yanvarda": 3745,
      "▁190": 3746,
      "▁ir": 3747,
      "ов": 3748,
      "tirilgan": 3749,
      "mal": 3750,
      "dia": 3751,
      "▁unda": 3752,
      "▁sohib": 3753,
      "sadi": 3754,
      "ан": 3755,
      "tern": 3756,
      "▁ifoda": 3757,
      "▁ustidan": 3758,
      "erkov": 3759,
      "▁tizimi": 3760,
      "uly": 3761,
      "▁Coun": 3762,
      "i.": 3763,
      "▁sodir": 3764,
      "▁\nK": 3765,
      "▁ada": 3766,
      "▁daryosi": 3767,
      "▁zamonaviy": 3768,
      "uddi": 3769,
      "daryo": 3770,
      "rir": 3771,
      "▁port": 3772,
      "ten": 3773,
      "▁Un": 3774,
      "kiz": 3775,
      "▁chaqir": 3776,
      "40": 3777,
      "▁mumkin.\n\n": 3778,
      "▁koʻtar": 3779,
      "ganidan": 3780,
      "▁Toshkent,": 3781,
      "60": 3782,
      "si,": 3783,
      "▁taʼkid": 3784,
      "▁kiritilgan": 3785,
      "Faoliy": 3786,
      "▁Qor": 3787,
      "▁„D": 3788,
      "▁fon": 3789,
      "▁voqe": 3790,
      "▁Xor": 3791,
      "▁moliy": 3792,
      "▁beradi.": 3793,
      "▁\n\nN": 3794,
      "▁oʻziga": 3795,
      "lab,": 3796,
      "aʼni": 3797,
      "▁Brazi": 3798,
      "▁Ali": 3799,
      "▁rolini": 3800,
      "▁Ikkinchi": 3801,
      "▁gʻolib": 3802,
      "olash": 3803,
      "gen": 3804,
      "▁qilingan.": 3805,
      "▁maqsadi": 3806,
      "tall": 3807,
      "eti": 3808,
      "aman": 3809,
      "nit": 3810,
      "▁boʻlim": 3811,
      "▁hokim": 3812,
      "ossiya": 3813,
      "▁ishlat": 3814,
      "0-yillarda": 3815,
      "▁fakul": 3816,
      "▁qabila": 3817,
      "Shax": 3818,
      "▁tav": 3819,
      "ransuz": 3820,
      "▁bajar": 3821,
      "▁qishloq.\n\nManbalar": 3822,
      "tib,": 3823,
      "33": 3824,
      "▁35": 3825,
      "▁kiritdi.": 3826,
      "▁mansub": 3827,
      "\n\nK": 3828,
      "Am": 3829,
      "▁sud": 3830,
      "▁berdi.": 3831,
      "▁Li": 3832,
      "ofa": 3833,
      "▁FIFA": 3834,
      "▁qoʻllab-quvvat": 3835,
      "▁ochiq": 3836,
      "che": 3837,
      "▁Kol": 3838,
      "▁Sul": 3839,
      "▁havo": 3840,
      "▁masala": 3841,
      "▁muddat": 3842,
      "▁Qoʻshma": 3843,
      "ligi,": 3844,
      "arak": 3845,
      "80": 3846,
      "▁tashkilot": 3847,
      "▁Br": 3848,
      "▁javob": 3849,
      "ham": 3850,
      "jima": 3851,
      "▁juft": 3852,
      "ildi,": 3853,
      "▁hududida": 3854,
      "▁munosabat": 3855,
      "ava": 3856,
      "▁Vaz": 3857,
      "▁hik": 3858,
      "riya": 3859,
      "▁Per": 3860,
      "▁birgalikda": 3861,
      "atan": 3862,
      "▁bek": 3863,
      "▁yoʻnalish": 3864,
      "▁galaktikadir.\n\n": 3865,
      "▁shoir": 3866,
      "langan,": 3867,
      "▁bolalar": 3868,
      "▁Ge": 3869,
      "▁For": 3870,
      "▁ko'r": 3871,
      "▁kengay": 3872,
      "▁Italiyaning": 3873,
      "rod": 3874,
      "▁Arab": 3875,
      "alarga": 3876,
      "ster": 3877,
      "ans": 3878,
      "7-": 3879,
      "▁zav": 3880,
      "yur": 3881,
      "▁hukmron": 3882,
      "▁boʻldi.\n\n": 3883,
      "der": 3884,
      "▁UEFA": 3885,
      "▁rejiss": 3886,
      "▁jamoat": 3887,
      "▁klubiga": 3888,
      "2020": 3889,
      "tah": 3890,
      "ity": 3891,
      "▁dram": 3892,
      "siyasida": 3893,
      "yon": 3894,
      "▁Avstra": 3895,
      "six": 3896,
      "▁Gol": 3897,
      "▁mon": 3898,
      "▁mart": 3899,
      "▁Gran": 3900,
      "▁model": 3901,
      "▁nazorat": 3902,
      "ologiyasi": 3903,
      "▁fizi": 3904,
      "▁gen": 3905,
      "▁kunda": 3906,
      "▁(B": 3907,
      "▁nur": 3908,
      "ondon": 3909,
      "▁„P": 3910,
      "▁to‘": 3911,
      "▁Ad": 3912,
      "▁Bundan": 3913,
      "-iyulda": 3914,
      "▁nemis": 3915,
      "▁maʼmuriy": 3916,
      "sik": 3917,
      "unon": 3918,
      "dan,": 3919,
      "▁iyul": 3920,
      "aralash": 3921,
      "▁aham": 3922,
      "▁qurol": 3923,
      "▁pre": 3924,
      "lu": 3925,
      "▁tasdiq": 3926,
      "▁taj": 3927,
      "'lum": 3928,
      "als": 3929,
      "▁(195": 3930,
      "▁yillarda": 3931,
      "▁yildan": 3932,
      "adiiy": 3933,
      "aniya": 3934,
      ").\n\nManbalar": 3935,
      "lar.\n\n": 3936,
      "▁oʻta": 3937,
      "▁tashrif": 3938,
      "▁toʻl": 3939,
      "▁yoshlar": 3940,
      "▁saroy": 3941,
      "▁cherkov": 3942,
      "▁ishlash": 3943,
      "99": 3944,
      "▁uzat": 3945,
      "▁doimiy": 3946,
      "th": 3947,
      "▁2020-yil": 3948,
      "i-": 3949,
      "▁SSR": 3950,
      "▁nomidagi": 3951,
      "-oktabrda": 3952,
      "gari": 3953,
      "ziga": 3954,
      "▁madaniyat": 3955,
      "▁ishlari": 3956,
      "▁tov": 3957,
      "▁maʼn": 3958,
      "ac": 3959,
      "▁boshqarmasi": 3960,
      "omon": 3961,
      "▁paytda": 3962,
      "▁jumladan,": 3963,
      "ma-": 3964,
      "▁teatr": 3965,
      "▁Nik": 3966,
      "▁topshir": 3967,
      "▁poli": 3968,
      "rav": 3969,
      "▁(s": 3970,
      "▁Shahar": 3971,
      "27": 3972,
      "andr": 3973,
      "▁oʻrniga": 3974,
      "qu": 3975,
      "sizlik": 3976,
      "▁Sharqiy": 3977,
      "▁bank": 3978,
      "ph": 3979,
      "▁I.": 3980,
      "▁nor": 3981,
      "osim": 3982,
      "▁statistik": 3983,
      "eyn": 3984,
      "ск": 3985,
      "▁oziq": 3986,
      "▁maqsad": 3987,
      "▁County": 3988,
      "▁pul": 3989,
      "▁filmlari\n": 3990,
      "▁hukumati": 3991,
      "-avgustda": 3992,
      "▁shugʻul": 3993,
      "align": 3994,
      "▁jis": 3995,
      "▁erkin": 3996,
      "2019": 3997,
      "▁muammo": 3998,
      "oga": 3999,
      "▁haj": 4000,
      "▁sheʼ": 4001,
      "arl": 4002,
      "-p": 4003,
      "▁sty": 4004,
      "-yili": 4005,
      "▁Jon": 4006,
      "▁oliy": 4007,
      "▁Islom": 4008,
      "Is": 4009,
      "le=\"": 4010,
      "2)": 4011,
      "▁\nT": 4012,
      "▁adabiyot": 4013,
      "▁chempioni": 4014,
      "▁ye": 4015,
      "▁tor": 4016,
      "▁kollej": 4017,
      "▁yilning": 4018,
      "sht": 4019,
      "▁2021-yil": 4020,
      "▁soat": 4021,
      "▁namoyish": 4022,
      "▁mahsulot": 4023,
      "▁saylov": 4024,
      "▁keladi.": 4025,
      "6-yilgi": 4026,
      "▁\nQ": 4027,
      "akka": 4028,
      "▁qoʻmi": 4029,
      "▁oqim": 4030,
      "▁qilindi.": 4031,
      "▁ajra": 4032,
      "▁Mat": 4033,
      "▁Bay": 4034,
      "▁sababli": 4035,
      "▁meʼm": 4036,
      "▁kos": 4037,
      "ure": 4038,
      "iye": 4039,
      "▁Xalqaro": 4040,
      "▁rass": 4041,
      "on,": 4042,
      "▁axborot": 4043,
      "-dekabrda": 4044,
      "▁aerop": 4045,
      "▁mavz": 4046,
      "▁bahs": 4047,
      "“ga": 4048,
      "▁guruhi": 4049,
      "▁Prezid": 4050,
      "stitut": 4051,
      "qil": 4052,
      "anaviy": 4053,
      "tlar": 4054,
      "▁avvalgi": 4055,
      "▁ishlagan.": 4056,
      "▁chiqdi.": 4057,
      "tr": 4058,
      "▁tamom": 4059,
      "▁koʻpincha": 4060,
      "-aprelda": 4061,
      "▁„Y": 4062,
      "maniston": 4063,
      "▁met": 4064,
      "alarning": 4065,
      "ka,": 4066,
      "vo": 4067,
      ":1": 4068,
      "▁kumush": 4069,
      "▁2009": 4070,
      "▁profess": 4071,
      "▁saqlash": 4072,
      "▁\n\nB": 4073,
      "▁qadimgi": 4074,
      ":0": 4075,
      "▁qilgan.\n\n": 4076,
      "▁(y": 4077,
      "atar": 4078,
      "roh": 4079,
      "▁Qishloq": 4080,
      ".com": 4081,
      "▁qancha": 4082,
      "ra,": 4083,
      "▁o‘t": 4084,
      "▁yozuv": 4085,
      "▁ochko": 4086,
      "195": 4087,
      "▁tadbir": 4088,
      "orlar": 4089,
      "ektur": 4090,
      "▁Yaponiya": 4091,
      "ga,": 4092,
      "▁Rob": 4093,
      "▁muv": 4094,
      "28": 4095,
      "▁Kanada": 4096,
      "▁33": 4097,
      "▁qildi.\n\n": 4098,
      "▁maydonidir.": 4099,
      "▁yetak": 4100,
      "▁191": 4101,
      "▁deyarli": 4102,
      "▁maktabi": 4103,
      "alq": 4104,
      "▁balki": 4105,
      "ME": 4106,
      ".\n\nT": 4107,
      "▁2017-yil": 4108,
      "▁Tojikiston": 4109,
      "▁darajada": 4110,
      "▁2018-yil": 4111,
      "ahudiy": 4112,
      "alar,": 4113,
      "▁respublik": 4114,
      "diri": 4115,
      "▁Qizil": 4116,
      "dik": 4117,
      "▁ishon": 4118,
      "odda": 4119,
      "▁Eng": 4120,
      "qiqa": 4121,
      "▁avgust": 4122,
      "▁foiz": 4123,
      "laydi": 4124,
      "▁gul": 4125,
      "sga": 4126,
      "▁nomzod": 4127,
      "▁o‘z": 4128,
      "mer": 4129,
      "26": 4130,
      "-\n|": 4131,
      "▁material": 4132,
      "▁kamay": 4133,
      "▁adabiy": 4134,
      "algan": 4135,
      "▁„R": 4136,
      "▁=": 4137,
      "▁amaliy": 4138,
      "-noyabrda": 4139,
      "▁qurilgan": 4140,
      "▁himoyachi": 4141,
      "▁akademiyasi": 4142,
      "▁fransuz": 4143,
      "▁haf": 4144,
      "siyasini": 4145,
      "▁oʻtdi.": 4146,
      "▁K.": 4147,
      "▁Afrika": 4148,
      "▁qarat": 4149,
      "▁qoʻshimcha": 4150,
      "2021": 4151,
      "▁(t": 4152,
      "▁iyun": 4153,
      "▁miqdor": 4154,
      "▁bron": 4155,
      "▁roʻyxatiga": 4156,
      "▁rivojlanish": 4157,
      "adr": 4158,
      "▁Italiya": 4159,
      "▁darom": 4160,
      "▁departamentida": 4161,
      "▁haqiq": 4162,
      "▁Tash": 4163,
      "▁ishlar": 4164,
      "▁189": 4165,
      "▁diz": 4166,
      "▁„N": 4167,
      "▁London": 4168,
      "▁tushir": 4169,
      "simon": 4170,
      "▁islom": 4171,
      "▁Yer": 4172,
      "▁boʻlimi": 4173,
      "▁Alb": 4174,
      "shiq": 4175,
      "text": 4176,
      "▁yordamida": 4177,
      "▁kaf": 4178,
      "-York": 4179,
      "ezi": 4180,
      "▁sovrin": 4181,
      "▁Pa": 4182,
      "ted": 4183,
      "▁34": 4184,
      "▁Val": 4185,
      "▁chiqarilgan": 4186,
      "▁nish": 4187,
      "▁Toʻ": 4188,
      "gani": 4189,
      "29": 4190,
      "▁xodim": 4191,
      "▁tuga": 4192,
      "▁(194": 4193,
      "5)": 4194,
      "▁2014-yil": 4195,
      "▁shaxsiy": 4196,
      "▁qirol": 4197,
      "iy,": 4198,
      "-align": 4199,
      "ner": 4200,
      "▁ogʻir": 4201,
      "-align:": 4202,
      "▁roʻyxati": 4203,
      "▁toʻx": 4204,
      "▁boʻlsa,": 4205,
      "▁sanoq": 4206,
      "-fevralda": 4207,
      "atib": 4208,
      "▁Jam": 4209,
      "iti": 4210,
      "lil": 4211,
      "text-align:": 4212,
      "▁holatiga": 4213,
      "▁huquqi": 4214,
      "▁kutub": 4215,
      "▁kin": 4216,
      "▁reja": 4217,
      "ington": 4218,
      "ор": 4219,
      "▁kuzat": 4220,
      "▁Dar": 4221,
      "gʻoniston": 4222,
      "▁oʻyinlari": 4223,
      "▁Mor": 4224,
      "▁dok": 4225,
      "\"|": 4226,
      "—201": 4227,
      "▁style=\"": 4228,
      "▁2015-yil": 4229,
      "▁qiluvchi": 4230,
      "▁aktrisa": 4231,
      "▁2016-yil": 4232,
      "▁//": 4233,
      "▁\nU": 4234,
      "ishlar": 4235,
      "▁\n\nM": 4236,
      "▁Gar": 4237,
      "▁188": 4238,
      "iden": 4239,
      "ily": 4240,
      "▁yas": 4241,
      "▁eʼtibor": 4242,
      "ti.": 4243,
      "▁muni": 4244,
      "iladigan": 4245,
      "▁Se": 4246,
      "▁yoʻli": 4247,
      "▁Olimpiada": 4248,
      "▁qarori": 4249,
      "▁(T": 4250,
      "▁Lu": 4251,
      "▁qishloqlar": 4252,
      "▁(2000": 4253,
      "▁madras": 4254,
      "▁duny": 4255,
      "▁Im": 4256,
      "▁jild.": 4257,
      "▁ruh": 4258,
      "▁Usmon": 4259,
      "▁(m": 4260,
      "▁(K": 4261,
      "uqur": 4262,
      "▁qirgʻ": 4263,
      "▁Sal": 4264,
      "▁boshlagan.": 4265,
      "▁jan": 4266,
      "▁Sin": 4267,
      "zib": 4268,
      "▁60": 4269,
      "▁koʻz": 4270,
      "▁kasallik": 4271,
      "▁Bal": 4272,
      "▁bo'lib,": 4273,
      "▁tanlov": 4274,
      "perator": 4275,
      "▁sharq": 4276,
      "ini,": 4277,
      "▁keldi.": 4278,
      "▁N.": 4279,
      "▁May": 4280,
      "▁debyutini": 4281,
      "dir.\n\nManbalar": 4282,
      "▁oʻyinida": 4283,
      "▁deh": 4284,
      "▁tabiiy": 4285,
      "iyani": 4286,
      "▁yoq": 4287,
      "sotsi": 4288,
      "-D": 4289,
      "▁Vazirlar": 4290,
      ".\n\nM": 4291,
      "70": 4292,
      "▁„L": 4293,
      "▁qora": 4294,
      "▁turi": 4295,
      "▁oʻyinlarida": 4296,
      "▁direktori": 4297,
      "\n\nB": 4298,
      "▁2018": 4299,
      "▁saralash": 4300,
      "▁shtatidagi": 4301,
      "▁yaʼni": 4302,
      "▁taʼsi": 4303,
      "zgʻ": 4304,
      "▁sistemasida": 4305,
      "lar)": 4306,
      "jal": 4307,
      "▁jihatdan": 4308,
      "qid": 4309,
      "▁Olimpiya": 4310,
      "▁uchrashuv": 4311,
      "vay": 4312,
      "▁36": 4313,
      "axta": 4314,
      "SB": 4315,
      "▁ishga": 4316,
      "▁boʻldi": 4317,
      "▁nuqta": 4318,
      "5-": 4319,
      "▁toif": 4320,
      "oc": 4321,
      "▁ku": 4322,
      "gʻish": 4323,
      "▁2011": 4324,
      "lob": 4325,
      "pen": 4326,
      "▁mex": 4327,
      "▁roman": 4328,
      "ope": 4329,
      "mik": 4330,
      "▁oddiy": 4331,
      "pr": 4332,
      "▁bozor": 4333,
      "aniqli": 4334,
      "▁\nAholisi": 4335,
      "▁hav": 4336,
      "▁sayt": 4337,
      "▁xat": 4338,
      "lanadigan": 4339,
      "▁Um": 4340,
      "▁farz": 4341,
      "▁Mod": 4342,
      "ayra": 4343,
      "▁Gu": 4344,
      "▁2014": 4345,
      "malari": 4346,
      "ror": 4347,
      "-mayda": 4348,
      "lashi": 4349,
      "▁sharo": 4350,
      "sin": 4351,
      "▁aylandi.": 4352,
      "▁oʻzaro": 4353,
      "▁jamiyat": 4354,
      "▁samoly": 4355,
      "▁sakkiz": 4356,
      "“)": 4357,
      "▁Joh": 4358,
      "▁qattiq": 4359,
      "▁emas,": 4360,
      "illa": 4361,
      "anlar": 4362,
      "ariq": 4363,
      "▁(k": 4364,
      "▁T.": 4365,
      "onning": 4366,
      "laydigan": 4367,
      "urt": 4368,
      "▁0,0": 4369,
      "iyasini": 4370,
      "zal": 4371,
      "▁qismini": 4372,
      "▁raqam": 4373,
      "▁2012": 4374,
      "lami": 4375,
      "▁Kenga": 4376,
      "\n\nAdabiyotlar": 4377,
      "▁ayniq": 4378,
      "▁stadi": 4379,
      "▁\n\nOʻzbekiston": 4380,
      "▁qizil": 4381,
      "off": 4382,
      "▁onasi": 4383,
      "riga": 4384,
      "▁Com": 4385,
      "▁boshida": 4386,
      "riq": 4387,
      "▁sm": 4388,
      "▁B.": 4389,
      "▁odamlar": 4390,
      "nika": 4391,
      "▁qaramay,": 4392,
      "▁sayti\n\nAlifbo": 4393,
      "ford": 4394,
      "▁o'yin": 4395,
      "ber": 4396,
      "▁ommaviy": 4397,
      "▁uchra": 4398,
      "▁Fin": 4399,
      "oʻgʻri": 4400,
      "▁P.": 4401,
      "▁tarz": 4402,
      "▁ayb": 4403,
      "▁Kam": 4404,
      "▁bil": 4405,
      "▁viloyati,": 4406,
      "▁Sch": 4407,
      "▁Mu": 4408,
      "-sen": 4409,
      "▁ziy": 4410,
      "▁2011-yil": 4411,
      "▁2013-yil": 4412,
      "▁kishini": 4413,
      "vig": 4414,
      "▁boʻlgan,": 4415,
      "▁tort": 4416,
      "-martda": 4417,
      "▁aprel": 4418,
      "▁manb": 4419,
      "ен": 4420,
      "zilishi": 4421,
      "▁Sharq": 4422,
      "▁prezidenti": 4423,
      "Shaxsiy": 4424,
      "ger": 4425,
      "▁mm": 4426,
      "▁45": 4427,
      "▁ix": 4428,
      "▁rux": 4429,
      "▁iborat.": 4430,
      "▁oʻynagan.": 4431,
      "sho": 4432,
      "▁raisi": 4433,
      "▁„E": 4434,
      "▁ligasi": 4435,
      "▁fikr": 4436,
      "▁Aleksandr": 4437,
      "▁Prem": 4438,
      "▁vaziri": 4439,
      "▁style=\"text-align:": 4440,
      "▁munisipalitet": 4441,
      "▁texnik": 4442,
      "▁muhandi": 4443,
      "▁Mi": 4444,
      "▁Angliya": 4445,
      "▁vakil": 4446,
      "▁shaharcha": 4447,
      "▁punk": 4448,
      "▁chuqur": 4449,
      "-d": 4450,
      "ра": 4451,
      "▁hind": 4452,
      "▁2010": 4453,
      "▁Rim": 4454,
      "▁Gʻarbiy": 4455,
      "ann": 4456,
      "▁yo'": 4457,
      "pur": 4458,
      "taz": 4459,
      "▁avl": 4460,
      "ishdan": 4461,
      "ME.": 4462,
      "▁Ver": 4463,
      "gon": 4464,
      "xit": 4465,
      "▁(sh": 4466,
      "▁2017": 4467,
      "old": 4468,
      "▁oz": 4469,
      "▁Meh": 4470,
      "assas": 4471,
      "▁Universi": 4472,
      "kali": 4473,
      "chi,": 4474,
      "▁ozod": 4475,
      "azm": 4476,
      "▁tarmoq": 4477,
      "▁rassom": 4478,
      "▁OʻzME.": 4479,
      "-G": 4480,
      "▁2012-yil": 4481,
      "193": 4482,
      "▁chiqishi": 4483,
      "ovqat": 4484,
      "▁shtati": 4485,
      "landiy": 4486,
      "▁veb": 4487,
      "ketbol": 4488,
      "au": 4489,
      "▁kengashi": 4490,
      "▁arm": 4491,
      "▁filmi": 4492,
      "▁fot": 4493,
      "▁vide": 4494,
      "▁del": 4495,
      "▁oʻxshash": 4496,
      "▁viloyatidagi": 4497,
      "▁tibbiyot": 4498,
      "▁maqolalar\n": 4499,
      "olik": 4500,
      "tari": 4501,
      "Hay": 4502,
      "▁tarjima": 4503,
      "▁Es": 4504,
      "▁ep": 4505,
      "▁mavjud.\n\nManbalar\n\nHavolalar": 4506,
      "▁qurilish": 4507,
      "▁ad": 4508,
      "evich": 4509,
      "moqda.": 4510,
      "left;": 4511,
      "erik": 4512,
      ".\n\nB": 4513,
      "▁Nyu-York": 4514,
      "▁\n\nYashayotgan": 4515,
      "▁Mahkam": 4516,
      "▁jamoasining": 4517,
      "gʻich": 4518,
      "▁bronza": 4519,
      "▁ma'lum": 4520,
      "lanma": 4521,
      "otin": 4522,
      "III": 4523,
      "▁bergan": 4524,
      "▁yahudiy": 4525,
      "▁shtatining": 4526,
      "-K": 4527,
      "▁No": 4528,
      "▁2015": 4529,
      "▁halok": 4530,
      "▁badiiy": 4531,
      "▁Ne": 4532,
      "gich": 4533,
      "▁ittifoq": 4534,
      "▁eshi": 4535,
      "▁mux": 4536,
      "▁Ed": 4537,
      "SH": 4538,
      "▁toʻrtta": 4539,
      "▁Oʻsha": 4540,
      "oe": 4541,
      "sel": 4542,
      "▁statistikasi": 4543,
      "▁etdi": 4544,
      "▁Koʻp": 4545,
      "▁\n\nNGC": 4546,
      "▁oʻzgartir": 4547,
      "Er": 4548,
      "▁oʻqi": 4549,
      "▁qoʻzgʻ": 4550,
      "▁„Q": 4551,
      "▁«": 4552,
      "shib": 4553,
      "▁mintaqasi": 4554,
      "bari": 4555,
      "▁muassas": 4556,
      "▁ekanligini": 4557,
      "▁diniy": 4558,
      "di.\n\nK": 4559,
      "▁Sulton": 4560,
      "▁2013": 4561,
      "▁kis": 4562,
      "▁prezident": 4563,
      "po": 4564,
      "▁Tom": 4565,
      "\n|-\n|": 4566,
      "▁shif": 4567,
      "tasida": 4568,
      "-T": 4569,
      "▁qobi": 4570,
      "▁Yoz": 4571,
      "4)": 4572,
      "▁Ur": 4573,
      "▁oʻquv": 4574,
      "▁(b": 4575,
      "35": 4576,
      "▁37": 4577,
      "yek": 4578,
      "rist": 4579,
      "▁qav": 4580,
      "▁maz": 4581,
      "▁kino": 4582,
      "▁golini": 4583,
      "▁qarab": 4584,
      "co": 4585,
      "cham": 4586,
      "emor": 4587,
      "▁aralash": 4588,
      "biya": 4589,
      "▁Kub": 4590,
      "▁unvon": 4591,
      "vin": 4592,
      "▁Bor": 4593,
      "orij": 4594,
      "bosari": 4595,
      "sif": 4596,
      "yuter": 4597,
      "les": 4598,
      "▁2010-yil": 4599,
      "▁G.": 4600,
      "nam": 4601,
      "ale": 4602,
      "▁davrda": 4603,
      "ester": 4604,
      "▁mol": 4605,
      "▁\n\nK": 4606,
      "len": 4607,
      "izion": 4608,
      "▁vaki": 4609,
      "▁tekis": 4610,
      "\n\nV": 4611,
      "▁Port": 4612,
      "yx": 4613,
      "-V": 4614,
      "▁2022-yil": 4615,
      "▁Ahmad": 4616,
      "▁ajrat": 4617,
      "AQSh": 4618,
      "▁issiq": 4619,
      "▁prot": 4620,
      "на": 4621,
      "ve": 4622,
      "laridagi": 4623,
      "urg": 4624,
      "eld": 4625,
      "▁qahramon": 4626,
      "▁pol": 4627,
      "▁unv": 4628,
      "qiz": 4629,
      "-bir": 4630,
      "ʼiy": 4631,
      "Eron": 4632,
      "▁chop": 4633,
      "Amerikalik": 4634,
      "maydi.": 4635,
      "oddan": 4636,
      "▁rivojlantirish": 4637,
      "rov": 4638,
      "▁mulki": 4639,
      "▁yodgorlik": 4640,
      "▁\n\nT": 4641,
      "-dekabr": 4642,
      "▁foizi": 4643,
      "ille": 4644,
      "ean": 4645,
      "▁psix": 4646,
      "▁Ir": 4647,
      "▁38": 4648,
      "▁boshli": 4649,
      "sish": 4650,
      "▁oʻtkazilgan": 4651,
      "ney": 4652,
      "▁Hay": 4653,
      "ww": 4654,
      "▁Tim": 4655,
      "▁dip": 4656,
      "▁elektron": 4657,
      "ous": 4658,
      "kty": 4659,
      "▁korxon": 4660,
      "gandan": 4661,
      "▁natija": 4662,
      "▁ga,": 4663,
      "div": 4664,
      "rey": 4665,
      "tori": 4666,
      "▁haykal": 4667,
      "▁Tar": 4668,
      "▁oilasi": 4669,
      "evi": 4670,
      "▁2006-yil": 4671,
      "▁sharaf": 4672,
      "▁rahbari": 4673,
      "-iyunda": 4674,
      "▁Ra": 4675,
      "▁o‘yin": 4676,
      "▁oldingi": 4677,
      "▁Afgʻoniston": 4678,
      "lisi": 4679,
      "▁g'": 4680,
      "-oʻrinni": 4681,
      "▁1.": 4682,
      "▁olma": 4683,
      "▁Ammo": 4684,
      "ste": 4685,
      "▁sil": 4686,
      "▁inf": 4687,
      "▁Chempi": 4688,
      "▁qo'l": 4689,
      "niy": 4690,
      "▁oqib": 4691,
      "ografik": 4692,
      "▁erkaklar": 4693,
      "ental": 4694,
      "▁samar": 4695,
      "qul": 4696,
      "▁oʻzini": 4697,
      "ps": 4698,
      "ovchi": 4699,
      "▁sharoit": 4700,
      "Film": 4701,
      "-ovqat": 4702,
      "t,": 4703,
      "202": 4704,
      ".\n\nAholisi": 4705,
      "uber": 4706,
      "▁koʻrsatgan": 4707,
      "yoviy": 4708,
      "▁п": 4709,
      "▁„G": 4710,
      "▁dep": 4711,
      "-sharq": 4712,
      "▁fevral": 4713,
      "▁qishlogʻ": 4714,
      "▁Kas": 4715,
      "▁yetish": 4716,
      "▁universitetida": 4717,
      "▁shakli": 4718,
      "▁oʻrn": 4719,
      "▁mehmon": 4720,
      "▁aylantir": 4721,
      "▁boʻlsa-da,": 4722,
      "▁в": 4723,
      "SBN": 4724,
      "▁so‘": 4725,
      "▁(N": 4726,
      "-noyabr": 4727,
      "▁Ri": 4728,
      "▁Ispaniyaning": 4729,
      "iyasida": 4730,
      "▁Film": 4731,
      "di.\n\nM": 4732,
      "left;\"|": 4733,
      "▁bosib": 4734,
      "por": 4735,
      "esk": 4736,
      "▁fanlari": 4737,
      "-b": 4738,
      "▁(2010": 4739,
      "▁janubiy": 4740,
      "▁etib,": 4741,
      "okiston": 4742,
      "atsion": 4743,
      "ment": 4744,
      "▁oʻsimlik": 4745,
      "▁Vol": 4746,
      "▁maqsadida": 4747,
      "▁zarb": 4748,
      "▁ham,": 4749,
      "▁tanqid": 4750,
      "34": 4751,
      "▁yozuvchi": 4752,
      "▁sun": 4753,
      "di:": 4754,
      "▁muvaffaqiyatli": 4755,
      "eksi": 4756,
      "▁kompaniya": 4757,
      "▁vakili": 4758,
      "▁ustun": 4759,
      "▁b.": 4760,
      "\n\nA": 4761,
      "▁etilgan.\n\n": 4762,
      "▁so'ng": 4763,
      "likdagi": 4764,
      "▁daf": 4765,
      "vigat": 4766,
      "ling": 4767,
      "▁City": 4768,
      "▁tumani,": 4769,
      "obiy": 4770,
      "▁Avstriya": 4771,
      "▁39": 4772,
      "arij": 4773,
      "▁kelishi": 4774,
      "▁D.": 4775,
      "▁shuning": 4776,
      "▁orqa": 4777,
      "ofiq": 4778,
      "▁albom": 4779,
      "▁qishloqlari": 4780,
      "taxas": 4781,
      "▁qoida": 4782,
      "▁2022": 4783,
      "▁hokimiyat": 4784,
      "▁John": 4785,
      "miz": 4786,
      "▁&": 4787,
      "▁milliard": 4788,
      "shunoslik": 4789,
      "▁moʻl": 4790,
      "▁asoslangan": 4791,
      "▁Mur": 4792,
      "sar": 4793,
      "▁hodi": 4794,
      "Tarix": 4795,
      "ano": 4796,
      "tahkam": 4797,
      "lash,": 4798,
      "▁sano": 4799,
      "ont": 4800,
      "▁chiziq": 4801,
      "ukof": 4802,
      "▁tr": 4803,
      "-et": 4804,
      "lini": 4805,
      "▁kuchay": 4806,
      "-F": 4807,
      "▁zax": 4808,
      "3)": 4809,
      "usus": 4810,
      "▁vaqtda": 4811,
      "▁(P": 4812,
      "moniy": 4813,
      "▁oshirish": 4814,
      "7)": 4815,
      "▁toʻgʻrisida": 4816,
      "og‘": 4817,
      "▁hafta": 4818,
      "▁Oʻzbekistondagi": 4819,
      "▁partiyasi": 4820,
      "2-": 4821,
      "▁70": 4822,
      "enz": 4823,
      "atini": 4824,
      "▁yodgorligi": 4825,
      "di.\n\nB": 4826,
      "▁Kal": 4827,
      "avoiy": 4828,
      "alsaf": 4829,
      "ett": 4830,
      "oja": 4831,
      "lantir": 4832,
      "▁и": 4833,
      "laj": 4834,
      "ood": 4835,
      "▁majmu": 4836,
      "▁osti": 4837,
      "▁Ularning": 4838,
      "▁agent": 4839,
      "mos": 4840,
      "▁masji": 4841,
      "▁atrofida": 4842,
      "ld": 4843,
      "▁saqlab": 4844,
      "▁44": 4845,
      "▁devor": 4846,
      "oniy": 4847,
      "orati": 4848,
      "▁hujayra": 4849,
      "▁element": 4850,
      "▁qolish": 4851,
      "▁daraja": 4852,
      "▁tup": 4853,
      "lar\nKoordinatalar": 4854,
      "▁maqolalar": 4855,
      "▁qilishga": 4856,
      "▁(;": 4857,
      "▁telek": 4858,
      "ayev": 4859,
      "▁bog'": 4860,
      "aydigan": 4861,
      "ия": 4862,
      "▁reak": 4863,
      "▁mustahkam": 4864,
      "▁inter": 4865,
      "▁style=\"text-align:left;\"|": 4866,
      "▁dekabr": 4867,
      "39": 4868,
      ".\n\nHavolalar": 4869,
      "▁O‘": 4870,
      "▁bir-bir": 4871,
      "▁qishlogʻi": 4872,
      "axriy": 4873,
      "▁ruxsat": 4874,
      "ata": 4875,
      "▁boshi": 4876,
      "36": 4877,
      "▁qobiliy": 4878,
      "hi": 4879,
      "mit": 4880,
      "tez": 4881,
      "Rossiya": 4882,
      "roil": 4883,
      "▁kuy": 4884,
      "zon": 4885,
      "er,": 4886,
      "bodat": 4887,
      "▁ikkala": 4888,
      "▁obyektni": 4889,
      "▁oʻynagan": 4890,
      "▁imkoniyat": 4891,
      "▁sheʼr": 4892,
      "▁masof": 4893,
      "▁sovet": 4894,
      "▁with": 4895,
      "▁mashin": 4896,
      "ер": 4897,
      "▁pref": 4898,
      "\n\nY": 4899,
      "▁bo'yicha": 4900,
      "▁hamkorlik": 4901,
      "▁Bob": 4902,
      "▁bagʻish": 4903,
      "▁olingan.": 4904,
      "▁vodiy": 4905,
      "-j": 4906,
      "▁\n\nS": 4907,
      "▁zarar": 4908,
      "▁Bos": 4909,
      "tad": 4910,
      "▁moʻljal": 4911,
      "▁maslah": 4912,
      ").\n": 4913,
      "araf": 4914,
      "▁baliq": 4915,
      "▁ajralib": 4916,
      "▁2009-yil": 4917,
      "▁nas": 4918,
      "▁Gen": 4919,
      "oyib": 4920,
      "▁187": 4921,
      "engil": 4922,
      "▁oʻldir": 4923,
      "▁aloqa": 4924,
      "▁Avstraliya": 4925,
      "irin": 4926,
      "sun": 4927,
      "ania": 4928,
      "ult": 4929,
      "ishlari": 4930,
      "▁quyi": 4931,
      "Turkiya": 4932,
      "▁Ist": 4933,
      "▁tut": 4934,
      "▁Mer": 4935,
      "▁etgan.\n\nUshbu": 4936,
      "▁tilidagi": 4937,
      "▁namun": 4938,
      "▁qola": 4939,
      "▁taniqli": 4940,
      "ар": 4941,
      "▁yodgorliklari": 4942,
      "▁186": 4943,
      "▁yozilgan": 4944,
      "▁maʼlumotlar": 4945,
      "▁dollar": 4946,
      "▁jami": 4947,
      "▁Misr": 4948,
      "ligidan": 4949,
      "▁dis": 4950,
      "▁sulola": 4951,
      "jim": 4952,
      "▁qabr": 4953,
      "alp": 4954,
      "▁Shveys": 4955,
      "▁(2006)": 4956,
      "▁qisqar": 4957,
      "▁sayohat": 4958,
      "▁kes": 4959,
      "▁egalladi.": 4960,
      "ruz": 4961,
      "▁neft": 4962,
      "tsiyasi": 4963,
      "▁oʻrmon": 4964,
      "▁(mas": 4965,
      "zoda": 4966,
      "▁mehnat": 4967,
      "▁noyabr": 4968,
      "▁qa": 4969,
      "▁zarur": 4970,
      "▁Car": 4971,
      "▁boshlarida": 4972,
      "▁biznes": 4973,
      "▁с": 4974,
      "▁ancha": 4975,
      "▁qaytar": 4976,
      "▁Ul": 4977,
      "▁koʻchmas": 4978,
      "▁He": 4979,
      "go": 4980,
      "▁berilgan": 4981,
      "▁yillar": 4982,
      "▁mutaxas": 4983,
      "gʻona": 4984,
      "gʻiziston": 4985,
      "▁ISBN": 4986,
      "▁angla": 4987,
      "▁qilishi": 4988,
      "ón": 4989,
      "▁Si": 4990,
      "a“": 4991,
      "▁obyek": 4992,
      "▁kons": 4993,
      "▁„H": 4994,
      "▁manbalar": 4995,
      "oqda": 4996,
      "▁qoʻmon": 4997,
      "▁Chex": 4998,
      "▁birik": 4999,
      "▁div": 5000,
      "▁yasha": 5001,
      "75": 5002,
      "▁muvofiq": 5003,
      "▁tinch": 5004,
      "▁hali": 5005,
      "▁Te": 5006,
      "▁sir": 5007,
      "▁So": 5008,
      "onda": 5009,
      "gaz": 5010,
      "▁tarqalgan": 5011,
      "rang": 5012,
      "▁yakka": 5013,
      "1)": 5014,
      "liyalik": 5015,
      "oyi": 5016,
      "▁\nH": 5017,
      "▁sub": 5018,
      "ktyabr": 5019,
      "▁oyi": 5020,
      "▁reyt": 5021,
      "▁qiziq": 5022,
      "▁Tr": 5023,
      "uri": 5024,
      "▁feder": 5025,
      "78": 5026,
      "▁sezi": 5027,
      "▁Bas": 5028,
      "▁tahsil": 5029,
      "▁dars": 5030,
      "▁mik": 5031,
      "osining": 5032,
      "▁Amir": 5033,
      "38": 5034,
      "▁yunon": 5035,
      "▁turlari": 5036,
      "utb": 5037,
      "▁nishon": 5038,
      "illiam": 5039,
      "“.": 5040,
      "shoh": 5041,
      "kir": 5042,
      "era": 5043,
      "▁Don": 5044,
      "rit": 5045,
      "alifor": 5046,
      "▁hom": 5047,
      "▁\"M": 5048,
      "▁Mal": 5049,
      "krain": 5050,
      "gungi": 5051,
      "▁Mahkamasining": 5052,
      "adro": 5053,
      "▁Dev": 5054,
      "rug": 5055,
      "Faoliyati": 5056,
      "ône": 5057,
      "chen": 5058,
      "▁chap": 5059,
      "▁\nG": 5060,
      "▁marosim": 5061,
      "▁muhandis": 5062,
      "ita": 5063,
      "▁aniqlash": 5064,
      "▁XV": 5065,
      "stir": 5066,
      "▁ro'": 5067,
      "erman": 5068,
      "▁tayyorlash": 5069,
      "ingiz": 5070,
      "ʼzan": 5071,
      "▁qal’": 5072,
      "▁sinf": 5073,
      "▁masjidi": 5074,
      "ny": 5075,
      "▁bunday": 5076,
      "▁dvigat": 5077,
      "oshi": 5078,
      "-liga": 5079,
      "▁inqil": 5080,
      "lanib,": 5081,
      "-C": 5082,
      "ovning": 5083,
      "▁urugʻ": 5084,
      "▁Ittifoqi": 5085,
      "mand": 5086,
      "▁veb-s": 5087,
      "▁ibodat": 5088,
      "els": 5089,
      "▁tarkibidagi": 5090,
      "45": 5091,
      "gir": 5092,
      "▁murabbiyi": 5093,
      "▁dafn": 5094,
      "▁Mart": 5095,
      "ilmagan": 5096,
      "▁Parij": 5097,
      "tazam": 5098,
      "rok": 5099,
      "▁anʼanaviy": 5100,
      "▁Rus": 5101,
      "▁oʻsmir": 5102,
      "▁2008": 5103,
      "▁hozirda": 5104,
      "▁ko": 5105,
      "▁Ev": 5106,
      "▁2016": 5107,
      "kich": 5108,
      "▁kelgan.": 5109,
      "▁oxirgi": 5110,
      "▁Col": 5111,
      "▁askar": 5112,
      "▁basketbol": 5113,
      "▁xorij": 5114,
      "▁Tor": 5115,
      "▁shaxmat": 5116,
      "atto": 5117,
      "▁senty": 5118,
      "▁2008-yil": 5119,
      "▁yaratish": 5120,
      "niya": 5121,
      "HL": 5122,
      "▁oʻrinbosari": 5123,
      "ins": 5124,
      "lanuvchi": 5125,
      "▁Jan": 5126,
      "▁asbob": 5127,
      "▁etildi.": 5128,
      "▁(2004": 5129,
      "▁savd": 5130,
      "▁manzi": 5131,
      "anch": 5132,
      "▁„F": 5133,
      "▁qaragan": 5134,
      "▁o‘r": 5135,
      "▁Bah": 5136,
      "3-": 5137,
      "▁sev": 5138,
      "▁bo‘lgan": 5139,
      "usx": 5140,
      "uvchan": 5141,
      "▁sim": 5142,
      "one": 5143,
      "▁quv": 5144,
      "▁aksar": 5145,
      "▁\nD": 5146,
      "▁prefektur": 5147,
      "likdan": 5148,
      "▁toʻxtat": 5149,
      "▁toʻgʻrisidagi": 5150,
      "uc": 5151,
      "▁Ro": 5152,
      "umin": 5153,
      "▁yaqinida": 5154,
      "▁Tex": 5155,
      "astlab": 5156,
      "1-": 5157,
      "▁Eronning": 5158,
      "▁rasm": 5159,
      "▁Qirol": 5160,
      "-oktyabrda": 5161,
      "▁futbolchisi": 5162,
      "▁daqiqa": 5163,
      "▁taraf": 5164,
      "▁asosan,": 5165,
      "dart": 5166,
      "alardan": 5167,
      "▁tajrib": 5168,
      "tion": 5169,
      "▁qilinadi.": 5170,
      "▁imperiyasi": 5171,
      "inning": 5172,
      "▁davlati": 5173,
      "▁On": 5174,
      "▁maktabida": 5175,
      "▁galaktikadir.\n\nUshbu": 5176,
      "ke": 5177,
      "▁(\"": 5178,
      "▁shimoliy": 5179,
      "▁\n\nO": 5180,
      "ved": 5181,
      "dijon": 5182,
      "—200": 5183,
      "▁oʻynash": 5184,
      "▁65": 5185,
      "▁ilgari": 5186,
      "amp": 5187,
      "alb": 5188,
      "▁oziq-ovqat": 5189,
      "▁televiden": 5190,
      "▁(G": 5191,
      "▁ort": 5192,
      "▁Oʻzbekistonda": 5193,
      "▁bosqichida": 5194,
      "▁rekord": 5195,
      "qtisodiy": 5196,
      "QSH": 5197,
      "igacha": 5198,
      "alistik": 5199,
      "0-yillarning": 5200,
      "▁bekor": 5201,
      "oma": 5202,
      "▁ayrim": 5203,
      "▁imzoladi.": 5204,
      "di.\n\nT": 5205,
      "ott": 5206,
      "▁yashash": 5207,
      "▁insho": 5208,
      "akkab": 5209,
      "udiya": 5210,
      "▁koʻrish": 5211,
      "▁1-": 5212,
      "▁Ste": 5213,
      "▁avi": 5214,
      "▁С": 5215,
      "90": 5216,
      "fiy": 5217,
      "mak": 5218,
      "▁nomlangan": 5219,
      "▁ro'yx": 5220,
      "▁kal": 5221,
      ".5": 5222,
      "emur": 5223,
      "▁Em": 5224,
      "▁Say": 5225,
      "zatsiya": 5226,
      "▁kem": 5227,
      "kada": 5228,
      "▁(2005": 5229,
      "▁transport": 5230,
      "emok": 5231,
      "▁Koreya": 5232,
      "▁professor": 5233,
      "anbul": 5234,
      "▁saqlanib": 5235,
      "tepa": 5236,
      "▁Oq": 5237,
      "▁metall": 5238,
      "larli": 5239,
      "▁biroq": 5240,
      "▁Uch": 5241,
      "Ar": 5242,
      "▁birlash": 5243,
      "-J": 5244,
      "dod": 5245,
      "org": 5246,
      "▁jaz": 5247,
      "▁kafed": 5248,
      "oqlik": 5249,
      "▁operativ": 5250,
      "▁sogʻ": 5251,
      "tiy": 5252,
      "▁jurnal": 5253,
      "▁Ph": 5254,
      "illar": 5255,
      "laning": 5256,
      "▁maslahat": 5257,
      "▁Ka": 5258,
      "▁oʻrganish": 5259,
      "▁mavzu": 5260,
      "umi": 5261,
      "▁xay": 5262,
      "▁kelib,": 5263,
      "▁yetti": 5264,
      "37": 5265,
      "▁А": 5266,
      "ashington": 5267,
      "FC": 5268,
      "▁doirasida": 5269,
      "lanadi,": 5270,
      "-sentyabrda": 5271,
      "▁(,": 5272,
      "▁baz": 5273,
      "▁manzili": 5274,
      "urs": 5275,
      "▁tarzda": 5276,
      "▁48": 5277,
      "▁80": 5278,
      "qaror": 5279,
      "▁gar": 5280,
      "vor": 5281,
      "▁kuchlari": 5282,
      "▁nusx": 5283,
      "▁yurit": 5284,
      "▁Bo": 5285,
      "▁tomosh": 5286,
      "rip": 5287,
      "BC": 5288,
      "taxti": 5289,
      "▁Ter": 5290,
      "Shahar": 5291,
      "▁„U": 5292,
      "ogen": 5293,
      "▁buz": 5294,
      "▁ball": 5295,
      "▁birlashtir": 5296,
      "▁assotsi": 5297,
      "▁XI": 5298,
      "lantirish": 5299,
      "▁koʻpay": 5300,
      "▁tuproq": 5301,
      "▁York": 5302,
      "▁daromad": 5303,
      "ma-ket": 5304,
      "▁46": 5305,
      "▁\"B": 5306,
      "▁O'": 5307,
      "▁olingan.\n\nManbalar": 5308,
      "▁bildir": 5309,
      "sikl": 5310,
      "▁Intern": 5311,
      "▁no": 5312,
      "▁tarm": 5313,
      "yl": 5314,
      "lari:": 5315,
      "▁ko'rsat": 5316,
      "▁ram": 5317,
      "▁qoʻmitasi": 5318,
      "▁yig": 5319,
      "▁ulardan": 5320,
      "▁2007-yil": 5321,
      "▁ml": 5322,
      "ubernat": 5323,
      "ль": 5324,
      "▁qoldir": 5325,
      "▁avlod": 5326,
      "▁Ta": 5327,
      "ли": 5328,
      "▁turadi.": 5329,
      "das": 5330,
      "latlar": 5331,
      "dan-t": 5332,
      "▁William": 5333,
      "▁yanada": 5334,
      "▁qurilgan.": 5335,
      "▁eva": 5336,
      "▁J.": 5337,
      "atur": 5338,
      "kash": 5339,
      "44": 5340,
      "ʼmol": 5341,
      "▁gazeta": 5342,
      "▁\"T": 5343,
      "▁mavsumida": 5344,
      "ilgan.\n\nManbalar": 5345,
      "atlarini": 5346,
      "▁viloyatida": 5347,
      "▁mutaxassis": 5348,
      "▁funk": 5349,
      "-e": 5350,
      "udo": 5351,
      "▁Moddiy": 5352,
      "▁sezilarli": 5353,
      "▁shuningdek": 5354,
      "▁mumkin,": 5355,
      "▁qurish": 5356,
      "▁yapon": 5357,
      "emati": 5358,
      "rot": 5359,
      "▁2007": 5360,
      "lit": 5361,
      "elle": 5362,
      "▁muhofazasiga": 5363,
      "ariy": 5364,
      "▁etdi.\n\n": 5365,
      "Yosh": 5366,
      "▁\nP": 5367,
      "e“": 5368,
      "siyani": 5369,
      "▁km,": 5370,
      "▁eh": 5371,
      "ua": 5372,
      "▁kul": 5373,
      "▁Koʻch": 5374,
      "▁sen": 5375,
      "▁ota-": 5376,
      "▁(I": 5377,
      "▁kompyuter": 5378,
      "aliga": 5379,
      "▁nomin": 5380,
      "FY": 5381,
      "oʻst": 5382,
      "▁muhar": 5383,
      "▁(2022": 5384,
      "▁lin": 5385,
      "▁dizayn": 5386,
      "▁falsaf": 5387,
      "▁kg": 5388,
      "lament": 5389,
      "larda,": 5390,
      "▁uzunligi": 5391,
      "▁kome": 5392,
      "CA": 5393,
      "stron": 5394,
      "▁parcha": 5395,
      "ute": 5396,
      "aʼzi": 5397,
      "▁F.": 5398,
      "▁jaray": 5399,
      "▁jins": 5400,
      "-x": 5401,
      "▁klubida": 5402,
      "▁plat": 5403,
      "▁davolash": 5404,
      "ат": 5405,
      "asan": 5406,
      "/s": 5407,
      "▁Kir": 5408,
      "▁bilim": 5409,
      "landi": 5410,
      "▁merosning": 5411,
      "▁goʻ": 5412,
      "iki": 5413,
      "▁qul": 5414,
      "▁Sak": 5415,
      "▁gʻarb": 5416,
      "▁Uz": 5417,
      "ome": 5418,
      "▁Ish": 5419,
      "immat": 5420,
      "▁yop": 5421,
      "▁Xalq": 5422,
      "Al": 5423,
      "aydi": 5424,
      "▁tanilgan": 5425,
      "unar": 5426,
      "▁korp": 5427,
      "tidan": 5428,
      "han": 5429,
      "▁Na": 5430,
      "▁ketma-ket": 5431,
      "▁buyum": 5432,
      "▁Pokiston": 5433,
      "oʻp": 5434,
      "tash": 5435,
      "▁deput": 5436,
      "▁Ib": 5437,
      "▁rejissyor": 5438,
      "oza": 5439,
      "ovar": 5440,
      "▁(2010).": 5441,
      "▁oʻynadi.": 5442,
      "▁solin": 5443,
      "76": 5444,
      "ore": 5445,
      "▁Art": 5446,
      "ususan,": 5447,
      "94": 5448,
      "▁tub": 5449,
      "▁qoʻr": 5450,
      "▁koʻchir": 5451,
      "2.": 5452,
      "▁Polsha": 5453,
      "yod": 5454,
      "ret": 5455,
      "▁\"S": 5456,
      "▁imkonini": 5457,
      "▁Nikola": 5458,
      "lagan,": 5459,
      "▁boshlagan": 5460,
      "▁yo‘": 5461,
      "▁oʻtish": 5462,
      "▁by": 5463,
      "gʻu": 5464,
      "▁„Sh": 5465,
      "▁isloh": 5466,
      "▁ularga": 5467,
      "alarining": 5468,
      "▁masalan,": 5469,
      "▁su": 5470,
      "▁nomini": 5471,
      "sidan": 5472,
      "atsiyalar": 5473,
      "a.": 5474,
      "▁Pat": 5475,
      "⁄2": 5476,
      "▁\nO": 5477,
      "lar“": 5478,
      "▁yengil": 5479,
      "▁vazirligi": 5480,
      "atda": 5481,
      "abrida": 5482,
      "▁navbat": 5483,
      "▁arxeologiya": 5484,
      "-An": 5485,
      "▁Vladi": 5486,
      "▁Kos": 5487,
      "ol,": 5488,
      "▁Sk": 5489,
      "▁orali": 5490,
      "▁tug'": 5491,
      "▁davri:": 5492,
      "▁\n200": 5493,
      "mani": 5494,
      "▁Fanlar": 5495,
      "▁manzili:": 5496,
      "▁2004": 5497,
      "istika": 5498,
      "▁R.": 5499,
      "s“": 5500,
      "▁bl": 5501,
      "lad": 5502,
      "uan": 5503,
      "▁„V": 5504,
      "▁darajasi": 5505,
      "▁yol": 5506,
      "▁samolyot": 5507,
      "▁Prezident": 5508,
      "ador": 5509,
      "▁kishi.\n\nManbalar": 5510,
      "adagi": 5511,
      "▁oilasida": 5512,
      "▁boʻsh": 5513,
      "▁Flor": 5514,
      "▁90": 5515,
      "Ik": 5516,
      "chining": 5517,
      "▁Tay": 5518,
      "31": 5519,
      "abin": 5520,
      "▁uzoqlikda": 5521,
      "tay": 5522,
      "▁imperator": 5523,
      "▁asarlari": 5524,
      "▁faxriy": 5525,
      "raz": 5526,
      "-H": 5527,
      "onim": 5528,
      "▁be": 5529,
      "feren": 5530,
      "▁imzo": 5531,
      "▁III": 5532,
      "sit": 5533,
      "▁Tel": 5534,
      "▁sinov": 5535,
      "▁qildi,": 5536,
      "▁eski": 5537,
      "//": 5538,
      "▁oʻrt": 5539,
      "Erkak": 5540,
      "▁Go": 5541,
      "▁boshqarish": 5542,
      "▁XX": 5543,
      "▁jismoniy": 5544,
      "▁safar": 5545,
      "▁boʻldi,": 5546,
      "▁mush": 5547,
      "▁toʻrtinchi": 5548,
      "▁ijar": 5549,
      "▁nashriy": 5550,
      "chim": 5551,
      "▁mulkka": 5552,
      "▁kiyim": 5553,
      "▁muharrir": 5554,
      "larida,": 5555,
      "lajak": 5556,
      "▁yaratilgan": 5557,
      "▁finalda": 5558,
      "▁oʻng": 5559,
      "taqa": 5560,
      "▁rad": 5561,
      "▁qanot": 5562,
      "▁xuddi": 5563,
      "▁ash": 5564,
      "▁diplom": 5565,
      "▁partiya": 5566,
      "▁almashtir": 5567,
      "▁Rossiyaning": 5568,
      "▁medalni": 5569,
      "▁naq": 5570,
      "dlar": 5571,
      "▁Con": 5572,
      "▁daʼ": 5573,
      "agi": 5574,
      "oslav": 5575,
      "▁L.": 5576,
      "▁futbolchilar\n": 5577,
      "ofaa": 5578,
      "ishi,": 5579,
      "qich": 5580,
      "ti,": 5581,
      "▁ka": 5582,
      "▁oktyabr": 5583,
      "▁boshlangan": 5584,
      "▁Saint": 5585,
      "gʻida": 5586,
      "▁sharqiy": 5587,
      "▁universitetining": 5588,
      "▁haqiqiy": 5589,
      "lot": 5590,
      "▁Pi": 5591,
      "▁tomonlama": 5592,
      "6-": 5593,
      "▁qiladi.\n\nManbalar": 5594,
      "ratik": 5595,
      "▁uchraydi.": 5596,
      "▁tem": 5597,
      "▁gʻarbiy": 5598,
      "▁nars": 5599,
      "▁ochi": 5600,
      "▁Navoiy": 5601,
      "aqqiy": 5602,
      "risti": 5603,
      "▁Tan": 5604,
      "▁qiladi,": 5605,
      "▁bemor": 5606,
      "▁standart": 5607,
      "▁(f": 5608,
      "▁Nur": 5609,
      "redi": 5610,
      "oʻn": 5611,
      "▁Cent": 5612,
      "ogir": 5613,
      "▁yilgi": 5614,
      "▁Katta": 5615,
      "ayx": 5616,
      "g'ri": 5617,
      "▁Mari": 5618,
      "▁97": 5619,
      "2020-yil": 5620,
      "e\n": 5621,
      "▁bo'lib": 5622,
      "olon": 5623,
      "▁beshta": 5624,
      "gini": 5625,
      "▁fakultet": 5626,
      "paniya": 5627,
      "ega": 5628,
      "▁operat": 5629,
      "▁Qirgʻiziston": 5630,
      "▁yetakchi": 5631,
      "▁pod": 5632,
      "▁atam": 5633,
      "▁meva": 5634,
      "▁mag": 5635,
      "▁ismli": 5636,
      "irt": 5637,
      "▁AQSH": 5638,
      "▁qilishni": 5639,
      "▁toʻplam": 5640,
      "tav": 5641,
      "▁boshlangʻich": 5642,
      "cha:": 5643,
      "▁sababli,": 5644,
      "▁(C": 5645,
      "▁4-oktabrda": 5646,
      "▁yuzaga": 5647,
      "MT": 5648,
      "▁dur": 5649,
      "▁o'y": 5650,
      "▁tarbiya": 5651,
      "edag": 5652,
      "▁Robert": 5653,
      "▁Ben": 5654,
      "▁soli": 5655,
      "▁egallagan": 5656,
      "siklope": 5657,
      "▁amir": 5658,
      "▁yodgorligi.": 5659,
      "▁500": 5660,
      "▁taʼrif": 5661,
      "▁kanal": 5662,
      "▁Gre": 5663,
      "▁pasay": 5664,
      "▁Butun": 5665,
      "2021-yil": 5666,
      "-asrda": 5667,
      "▁hatto": 5668,
      "▁ishlagan": 5669,
      "▁2-": 5670,
      "▁Iroq": 5671,
      "▁tibbiy": 5672,
      "▁Keyingi": 5673,
      "▁oʻlim": 5674,
      "tt": 5675,
      "3.": 5676,
      "▁ovqat": 5677,
      "▁jamiyati": 5678,
      "▁ijod": 5679,
      "▁boʻladi.\n\n": 5680,
      "▁jon": 5681,
      "donez": 5682,
      "ary": 5683,
      "-N": 5684,
      "▁joriy": 5685,
      "▁oladi": 5686,
      "▁vaqtida": 5687,
      "alla": 5688,
      "▁daraxt": 5689,
      "aqalp": 5690,
      "▁aeroport": 5691,
      "▁qaytib": 5692,
      "▁munisipalitetdir.": 5693,
      "://": 5694,
      "alt": 5695,
      "stin": 5696,
      "▁tux": 5697,
      "▁Chempionlar": 5698,
      "▁qoch": 5699,
      "▁op": 5700,
      "▁Cor": 5701,
      "▁pat": 5702,
      "ational": 5703,
      "▁obyekti.": 5704,
      "ald": 5705,
      "▁Ven": 5706,
      "veg": 5707,
      ".\n\nK": 5708,
      "▁Ikki": 5709,
      "▁Koʻchmas": 5710,
      "▁(F": 5711,
      "tas": 5712,
      "▁narsa": 5713,
      "\n\nS": 5714,
      "▁(q": 5715,
      "▁oʻynay": 5716,
      "▁Braziliyaning": 5717,
      "▁mulki.": 5718,
      "▁pay": 5719,
      "mish": 5720,
      "etnam": 5721,
      "▁32": 5722,
      "uvchilari": 5723,
      "▁hikoy": 5724,
      "asi\n": 5725,
      "▁per": 5726,
      "▁Quyi": 5727,
      "▁Kan": 5728,
      "▁\nR": 5729,
      "▁huquq:": 5730,
      "landi.\n\n": 5731,
      "shib,": 5732,
      "▁ustida": 5733,
      "▁Maj": 5734,
      "▁;": 5735,
      ":\n": 5736,
      "▁qishloqlari\n": 5737,
      "▁murakkab": 5738,
      "ond": 5739,
      "▁Sp": 5740,
      "▁darajasini": 5741,
      "▁hisobga": 5742,
      "▁reyting": 5743,
      "rem": 5744,
      "▁bayram": 5745,
      "▁sanoati": 5746,
      "▁boʻladi": 5747,
      "o-": 5748,
      "yron": 5749,
      "▁bitir": 5750,
      "▁Isroil": 5751,
      "▁moliya": 5752,
      "48": 5753,
      "har": 5754,
      "talar": 5755,
      "ovi": 5756,
      "oqlar": 5757,
      "▁Mc": 5758,
      "▁spek": 5759,
      "▁energiya": 5760,
      "2000": 5761,
      "▁boshligʻi": 5762,
      "▁harorat": 5763,
      "onasi": 5764,
      "can": 5765,
      "▁(2008)": 5766,
      "▁Mav": 5767,
      "▁55": 5768,
      "79": 5769,
      "▁harakati": 5770,
      "2019-yil": 5771,
      "sasi": 5772,
      "▁janubi": 5773,
      "▁yomon": 5774,
      "▁kerak.": 5775,
      "▁madaniyati": 5776,
      "▁Kim": 5777,
      "▁res": 5778,
      "siv": 5779,
      "ganda": 5780,
      "▁(D": 5781,
      "▁Usmonli": 5782,
      "▁yetib": 5783,
      "▁yashil": 5784,
      "-sentyabr": 5785,
      "lobal": 5786,
      "▁g‘": 5787,
      "osiga": 5788,
      "▁sut": 5789,
      "▁boshladi": 5790,
      "▁arxit": 5791,
      "▁muallifi": 5792,
      "▁Bi": 5793,
      "65": 5794,
      "ots": 5795,
      "▁fuqarolar": 5796,
      "▁Fargʻona": 5797,
      "▁gid": 5798,
      "tom": 5799,
      "isk": 5800,
      "▁not": 5801,
      "1.": 5802,
      "gu": 5803,
      "▁Federatsiyasi": 5804,
      "daning": 5805,
      "eterburg": 5806,
      "▁stadion": 5807,
      "▁tadqiqotlar": 5808,
      "otiga": 5809,
      "▁Arxeologiya": 5810,
      "▁Ga": 5811,
      "▁qoʻn": 5812,
      "2,": 5813,
      "erv": 5814,
      "▁agar": 5815,
      "aff": 5816,
      "▁Az": 5817,
      "▁\n\nIC": 5818,
      "▁Ivan": 5819,
      "chiligidagi": 5820,
      "red": 5821,
      "sak": 5822,
      "▁jihoz": 5823,
      "▁Superliga": 5824,
      "iladi": 5825,
      "▁T.,": 5826,
      "▁sentyabr": 5827,
      "▁Sc": 5828,
      "▁sanʼati": 5829,
      "▁isteʼmol": 5830,
      "nan": 5831,
      "▁poytaxti": 5832,
      "▁televideniye": 5833,
      "avv": 5834,
      "▁oʻtgan.": 5835,
      "▁Kur": 5836,
      "▁Yevrop": 5837,
      "▁(U": 5838,
      "▁\nN": 5839,
      "▁doʻst": 5840,
      "lip": 5841,
      "▁United": 5842,
      "orld": 5843,
      "oʻra": 5844,
      "liqni": 5845,
      "▁futbolchilar": 5846,
      "ennis": 5847,
      "▁Da": 5848,
      "▁Vik": 5849,
      "utuq": 5850,
      "▁My": 5851,
      "moni": 5852,
      "▁Qash": 5853,
      "xiv": 5854,
      "▁aʼzolari": 5855,
      "▁chiqdi": 5856,
      "▁yogʻoch": 5857,
      "bin": 5858,
      "▁asrda": 5859,
      "liyada": 5860,
      "▁muhit": 5861,
      "▁Ze": 5862,
      "▁xoʻja": 5863,
      "fir": 5864,
      "ho": 5865,
      "lud": 5866,
      "▁dvigatel": 5867,
      "▁E.": 5868,
      "maydigan": 5869,
      "▁ko'ra,": 5870,
      "▁xizmatlari": 5871,
      "▁afson": 5872,
      "ID": 5873,
      "ovskiy": 5874,
      "▁qozongan": 5875,
      "▁Bak": 5876,
      "▁vayron": 5877,
      "at,": 5878,
      "chilar\n": 5879,
      "▁okrug": 5880,
      "▁\n\nP": 5881,
      "▁oroli": 5882,
      "▁poyga": 5883,
      "enin": 5884,
      "▁muntazam": 5885,
      "ES": 5886,
      "▁mexani": 5887,
      "azar": 5888,
      "▁dehqon": 5889,
      "▁Agar": 5890,
      "▁oʻtkazdi.": 5891,
      "▁shundan": 5892,
      "osini": 5893,
      "-off": 5894,
      "adis": 5895,
      "▁Qahram": 5896,
      "▁75": 5897,
      "▁raqib": 5898,
      "▁urin": 5899,
      "yus": 5900,
      "samb": 5901,
      "▁Os": 5902,
      "ress": 5903,
      "ganini": 5904,
      "oyev": 5905,
      "own": 5906,
      "▁dush": 5907,
      "Futbol": 5908,
      "▁qamoq": 5909,
      "adimiy": 5910,
      "▁Istanbul": 5911,
      "▁koʻrsatish": 5912,
      "▁tep": 5913,
      "▁All": 5914,
      "▁tal": 5915,
      "otsialistik": 5916,
      "anba": 5917,
      "▁Air": 5918,
      "olda": 5919,
      "arx": 5920,
      "▁meʼ": 5921,
      "siyalari": 5922,
      "▁Ayollar": 5923,
      "ors": 5924,
      "▁boshchiligidagi": 5925,
      "ий": 5926,
      "its": 5927,
      "▁elchi": 5928,
      "▁mukofotiga": 5929,
      "▁Jor": 5930,
      "▁video": 5931,
      "ika": 5932,
      "ze": 5933,
      "▁insonlar\n199": 5934,
      "bus": 5935,
      "▁bo‘yicha": 5936,
      "▁yadro": 5937,
      "▁dunyodagi": 5938,
      "▁(R": 5939,
      "lassik": 5940,
      "▁ehtim": 5941,
      "eles": 5942,
      "uth": 5943,
      "▁Birlashgan": 5944,
      "▁taqiq": 5945,
      "jam": 5946,
      "▁Ok": 5947,
      "▁qaraganda": 5948,
      "▁kislo": 5949,
      "oji": 5950,
      "▁ayniqsa": 5951,
      "▁qimmat": 5952,
      "atij": 5953,
      "▁shaklida": 5954,
      "iyev": 5955,
      "qq": 5956,
      "illiy": 5957,
      "sid": 5958,
      "▁koti": 5959,
      "▁chempionatining": 5960,
      "▁iqlim": 5961,
      "▁qiladigan": 5962,
      "▁Bunday": 5963,
      "erb": 5964,
      "zilish": 5965,
      "▁atom": 5966,
      "▁Pro": 5967,
      "▁yo'l": 5968,
      "▁bostir": 5969,
      "▁Shah": 5970,
      "▁rolida": 5971,
      "▁asosida.": 5972,
      "dan-toʻgʻri": 5973,
      "▁fakulteti": 5974,
      "yol": 5975,
      "ven": 5976,
      "▁koʻrib": 5977,
      "▁49": 5978,
      "▁xotir": 5979,
      "ogar": 5980,
      "4-": 5981,
      "▁taom": 5982,
      "▁oʻtgach,": 5983,
      "-gʻ": 5984,
      "▁Yu": 5985,
      "▁kosmik": 5986,
      "▁Lit": 5987,
      "▁pozi": 5988,
      "▁markazigacha": 5989,
      "▁punkti": 5990,
      "▁sovrindori": 5991,
      "▁munosabatlar": 5992,
      "▁anim": 5993,
      "anik": 5994,
      "32": 5995,
      "▁Sim": 5996,
      "▁yozgan": 5997,
      "▁Mun": 5998,
      "▁pla": 5999,
      "ages": 6000,
      "yera": 6001,
      "▁baho": 6002,
      "▁iqtisodiyot": 6003,
      "chisi,": 6004,
      "▁hujjat": 6005,
      "▁xali": 6006,
      "▁qurilishi": 6007,
      "▁zarra": 6008,
      "▁Shoh": 6009,
      "▁dori": 6010,
      "▁joyi": 6011,
      "▁Ash": 6012,
      "▁piy": 6013,
      "ozlik": 6014,
      "-asrning": 6015,
      "enning": 6016,
      "▁idor": 6017,
      "▁tarjim": 6018,
      "▁mez": 6019,
      "▁Belg": 6020,
      "erning": 6021,
      "▁„I": 6022,
      "▁mintaqa": 6023,
      "gida": 6024,
      "▁М": 6025,
      "▁Rah": 6026,
      "▁xizmati": 6027,
      "▁xitoy": 6028,
      "bla": 6029,
      "▁Liv": 6030,
      "laydi.\n\n": 6031,
      "izz": 6032,
      "oshqa": 6033,
      "▁(O": 6034,
      "46": 6035,
      "▁yum": 6036,
      "▁Ukrain": 6037,
      "▁boshqalar)": 6038,
      "▁ta’": 6039,
      "irma": 6040,
      "▁jarohat": 6041,
      "▁Shvetsiya": 6042,
      "но": 6043,
      "▁turar": 6044,
      "uqori": 6045,
      "tinchi": 6046,
      "▁prod": 6047,
      "vit": 6048,
      "▁'": 6049,
      "▁oʻzida": 6050,
      "▁taraqqiy": 6051,
      "▁\n\nQ": 6052,
      "▁keskin": 6053,
      "achon": 6054,
      "▁taʼsiri": 6055,
      "▁Boshqa": 6056,
      "fik": 6057,
      "ni,": 6058,
      "▁matn": 6059,
      "▁\nY": 6060,
      "▁qas": 6061,
      "▁sahif": 6062,
      "▁Var": 6063,
      "▁moliyaviy": 6064,
      "▁rom": 6065,
      "yerasi": 6066,
      "▁Nov": 6067,
      "▁tavsif": 6068,
      "SS": 6069,
      "skaya": 6070,
      "▁Kengashi": 6071,
      "▁2009-yilda": 6072,
      "▁emas.": 6073,
      "▁Argent": 6074,
      "▁Quy": 6075,
      "▁ma'lumot": 6076,
      "gʻar": 6077,
      "▁Dan": 6078,
      "ektr": 6079,
      "▁Oltin": 6080,
      "▁Ye": 6081,
      "▁Shunday": 6082,
      "▁Sankt": 6083,
      "oʻgʻ": 6084,
      "uniy": 6085,
      "n.": 6086,
      "otidan": 6087,
      "▁texnologiya": 6088,
      "▁ishonch": 6089,
      "qadaryo": 6090,
      "▁2005-yil": 6091,
      "▁evaziga": 6092,
      "▁ban": 6093,
      "▁bul": 6094,
      "▁unvoni": 6095,
      "▁minor": 6096,
      "▁koʻcha": 6097,
      "▁yaqinidagi": 6098,
      "▁+": 6099,
      "▁baʼzan": 6100,
      "sonli": 6101,
      "▁ajoyib": 6102,
      "▁meʼmor": 6103,
      "▁orasidagi": 6104,
      "▁к": 6105,
      "▁shik": 6106,
      "▁tahlil": 6107,
      "▁musiqiy": 6108,
      "▁mayda": 6109,
      "u,": 6110,
      "▁Sun": 6111,
      "▁gaze": 6112,
      "▁ekin": 6113,
      "▁xavfsiz": 6114,
      "▁kafedr": 6115,
      "▁Veng": 6116,
      "▁oʻsmirlar": 6117,
      "AT": 6118,
      "▁saytida": 6119,
      "▁Ligasi": 6120,
      "sal": 6121,
      "chilik,": 6122,
      "▁jad": 6123,
      "▁bergan.": 6124,
      "▁turmushga": 6125,
      "▁Hus": 6126,
      "▁Turkiston": 6127,
      "htiy": 6128,
      "▁Shot": 6129,
      "qit": 6130,
      "▁Ç": 6131,
      "sur": 6132,
      "▁erta": 6133,
      "▁qatlam": 6134,
      "iva": 6135,
      "▁Fer": 6136,
      "ley-off": 6137,
      "▁moʻ": 6138,
      "▁festi": 6139,
      "lari“": 6140,
      "▁mavjud.\n\n": 6141,
      "▁Futbol": 6142,
      "▁zaxira": 6143,
      "▁hissa": 6144,
      "▁jangi": 6145,
      "▁ijaraga": 6146,
      "68": 6147,
      "asi.": 6148,
      "alar\n": 6149,
      "▁Vladimir": 6150,
      "49": 6151,
      "▁(2004).": 6152,
      "▁Ja": 6153,
      "▁men": 6154,
      "lar\n\n": 6155,
      "▁Lin": 6156,
      "▁qo'sh": 6157,
      "diz": 6158,
      "▁jinsiy": 6159,
      "▁2010-yilda": 6160,
      "garlik": 6161,
      "▁185": 6162,
      "▁muzeyi": 6163,
      "▁Pan": 6164,
      "▁manz": 6165,
      "▁sahna": 6166,
      "▁toʻgʻridan-toʻgʻri": 6167,
      "lik.": 6168,
      "▁vazn": 6169,
      "alaba": 6170,
      "3,": 6171,
      "ela": 6172,
      "chel": 6173,
      ");": 6174,
      "77": 6175,
      "▁qachon": 6176,
      "▁o'tkaz": 6177,
      "▁yutuq": 6178,
      "ta,": 6179,
      "gʻin": 6180,
      "obat": 6181,
      "ye": 6182,
      "▁\n199": 6183,
      "▁qiroli": 6184,
      "▁az": 6185,
      "▁pedag": 6186,
      "ujud": 6187,
      "▁tuxum": 6188,
      "ella": 6189,
      "▁ko‘r": 6190,
      "▁asrning": 6191,
      "o\n": 6192,
      "▁sugʻ": 6193,
      "▁ism": 6194,
      "▁qoldi.": 6195,
      "▁topgan": 6196,
      "▁gʻoy": 6197,
      "eview": 6198,
      "▁qadimiy": 6199,
      "▁nik": 6200,
      "▁kurs": 6201,
      "▁Park": 6202,
      "▁Kalifor": 6203,
      "rati": 6204,
      "▁Ni": 6205,
      "▁sharafiga": 6206,
      "▁kiritgan": 6207,
      "magan.": 6208,
      "▁2005": 6209,
      "▁sohiblari\n": 6210,
      "atal": 6211,
      "▁(2005).": 6212,
      "▁futbolchi,": 6213,
      "▁okrugidagi": 6214,
      "siyaga": 6215,
      "▁Andijon": 6216,
      "▁gubernat": 6217,
      "▁vak": 6218,
      "▁Oy": 6219,
      "▁moʻljallangan": 6220,
      "ward": 6221,
      "▁Bolgar": 6222,
      "▁jurnalist": 6223,
      "atr": 6224,
      "▁em": 6225,
      "emb": 6226,
      "Bu": 6227,
      "▁usuli": 6228,
      "-201": 6229,
      "▁suyuq": 6230,
      "dash": 6231,
      "▁munitsipalitet.\n\nManbalar": 6232,
      "▁(2006).\n\nGeografiyasi": 6233,
      "▁kishidan": 6234,
      "▁maqom": 6235,
      "▁general": 6236,
      "▁fili": 6237,
      "▁„J": 6238,
      "▁FC": 6239,
      "▁biri.": 6240,
      "▁sharh": 6241,
      "▁Xorazm": 6242,
      "▁vujud": 6243,
      "-harak": 6244,
      "▁kart": 6245,
      "tiz": 6246,
      "▁uyi": 6247,
      "▁topgan.": 6248,
      "▁tugʻilganlar\nYashayotgan": 6249,
      "▁rasman": 6250,
      "▁lab": 6251,
      "▁tarkibi": 6252,
      "lek": 6253,
      "da)": 6254,
      "akt": 6255,
      "▁\n\nG": 6256,
      "▁samarali": 6257,
      "▁oladi.\n\n": 6258,
      "▁ag": 6259,
      "▁atal": 6260,
      "taf": 6261,
      "ambar": 6262,
      "▁yurak": 6263,
      "▁К": 6264,
      "▁Gruz": 6265,
      "▁ahamiyatga": 6266,
      "tirishga": 6267,
      "▁himoyachisi": 6268,
      "▁fanlar": 6269,
      "▁ehtiy": 6270,
      "▁300": 6271,
      "▁magi": 6272,
      "▁so‘ng": 6273,
      "-oktyabr": 6274,
      "let": 6275,
      "▁Yozgi": 6276,
      "taba": 6277,
      "▁janubi-": 6278,
      "▁nazariyasi": 6279,
      "An": 6280,
      "▁Rh": 6281,
      "▁(L": 6282,
      "▁telekan": 6283,
      "▁ati": 6284,
      "▁farzand": 6285,
      "hol": 6286,
      "men": 6287,
      "▁vujudga": 6288,
      "▁Qar": 6289,
      "▁burchak": 6290,
      "riz": 6291,
      "lashni": 6292,
      "lar:": 6293,
      "laydi,": 6294,
      "▁Sir": 6295,
      "▁2004-yil": 6296,
      "▁aq": 6297,
      "▁Ban": 6298,
      "▁Temur": 6299,
      "▁barqaror": 6300,
      "▁markaziga": 6301,
      "▁qoʻshinlari": 6302,
      "▁\nL": 6303,
      "▁balandligi": 6304,
      "▁teles": 6305,
      "uel": 6306,
      "▁Max": 6307,
      "▁sohasida": 6308,
      "▁jalb": 6309,
      "▁oʻtkazish": 6310,
      "▁markazida": 6311,
      "▁turgan": 6312,
      "▁o'zgar": 6313,
      "▁kimyoviy": 6314,
      "▁mini": 6315,
      "▁zavod": 6316,
      "▁temperat": 6317,
      "▁mabla": 6318,
      "iddiy": 6319,
      "gʻa": 6320,
      "▁qila": 6321,
      "▁ismi": 6322,
      "▁hikoya": 6323,
      "\nM": 6324,
      "-20": 6325,
      "gh": 6326,
      "▁pala": 6327,
      "▁Los": 6328,
      "ик": 6329,
      "▁Sen": 6330,
      "▁ispan": 6331,
      "▁Mont": 6332,
      "▁kengash": 6333,
      "▁shtab": 6334,
      "▁art": 6335,
      "▁etilishi": 6336,
      "eksika": 6337,
      "dira": 6338,
      "▁hib": 6339,
      "▁der": 6340,
      "lova": 6341,
      "▁miqy": 6342,
      "▁chegara": 6343,
      "▁solish": 6344,
      "▁ko‘p": 6345,
      "-oq": 6346,
      "▁koʻrsatkich": 6347,
      "▁Saudiya": 6348,
      "▁tarqali": 6349,
      "▁qush": 6350,
      "▁ma'": 6351,
      "di.\n\nS": 6352,
      "▁Ibn": 6353,
      "▁parlament": 6354,
      "ie": 6355,
      "aron": 6356,
      "▁\nF": 6357,
      "ngliz": 6358,
      "▁pish": 6359,
      "▁keladigan": 6360,
      "▁ketgan": 6361,
      "▁graf": 6362,
      "masligi": 6363,
      "▁vaziyat": 6364,
      "▁kab": 6365,
      "▁qismidagi": 6366,
      "Bir": 6367,
      "▁Gor": 6368,
      "▁yevro": 6369,
      "atsiyasining": 6370,
      "▁(hozirgi": 6371,
      "9)": 6372,
      "cc": 6373,
      "▁barg": 6374,
      "▁yashagan": 6375,
      "ozirda": 6376,
      "urmat": 6377,
      "olibi": 6378,
      "85": 6379,
      "ms": 6380,
      "▁Boy": 6381,
      "▁xoh": 6382,
      "vallud": 6383,
      "▁uchun,": 6384,
      "▁Bro": 6385,
      "▁namoyon": 6386,
      "▁organizm": 6387,
      "▁2006": 6388,
      "▁miqdori": 6389,
      "▁pan": 6390,
      "▁oʻynagan.\n\n": 6391,
      "-X": 6392,
      "are": 6393,
      "од": 6394,
      "gunga": 6395,
      "47": 6396,
      "▁\nQishloq": 6397,
      "2022-yil": 6398,
      "chki": 6399,
      "sial": 6400,
      "▁Ke": 6401,
      "chilarning": 6402,
      "▁O‘zbekiston": 6403,
      "istoniga": 6404,
      "▁Paul": 6405,
      "▁kap": 6406,
      "▁Masalan,": 6407,
      "lum": 6408,
      "▁mashina": 6409,
      "▁ijara": 6410,
      "▁Xorvat": 6411,
      "▁duch": 6412,
      "▁tashkiloti": 6413,
      "ristian": 6414,
      "66": 6415,
      "▁tuzilgan": 6416,
      "rix": 6417,
      "▁aholining": 6418,
      "▁xususiyat": 6419,
      "▁tomonida": 6420,
      "▁(H": 6421,
      "▁Gul": 6422,
      "▁kotibi": 6423,
      "▁bosqichi": 6424,
      "▁xul": 6425,
      "▁kelishuv": 6426,
      "▁juftlik": 6427,
      "▁Den": 6428,
      "▁turdagi": 6429,
      "nov": 6430,
      "ulida": 6431,
      "▁munitsipalitetlar": 6432,
      "▁(X": 6433,
      "▁foydalangan": 6434,
      "▁akademik": 6435,
      "▁adabiyoti": 6436,
      "giz": 6437,
      "araj": 6438,
      "met": 6439,
      "▁parvoz": 6440,
      "▁Uy": 6441,
      "▁koʻrinish": 6442,
      "▁darvozab": 6443,
      "▁Xon": 6444,
      "▁qoʻshildi.": 6445,
      "▁kutubxon": 6446,
      "||": 6447,
      "▁(2": 6448,
      "ely": 6449,
      "▁qilingan.\n\n": 6450,
      "▁qoʻllan": 6451,
      "▁xavfsizlik": 6452,
      "s.": 6453,
      "▁int": 6454,
      "▁Millatlar": 6455,
      "▁darajadagi": 6456,
      "▁ukasi": 6457,
      "▁mashgʻul": 6458,
      "▁jinoyat": 6459,
      "ct": 6460,
      "▁sariq": 6461,
      "▁noma": 6462,
      "▁darajali": 6463,
      "▁seri": 6464,
      "▁Ap": 6465,
      "es,": 6466,
      "▁ketish": 6467,
      "▁(2010).\n\nHavolalar": 6468,
      "▁Men": 6469,
      "▁Yun": 6470,
      "▁Sav": 6471,
      "▁Charl": 6472,
      "▁yuri": 6473,
      "▁galaktika)": 6474,
      "▁direktor": 6475,
      "▁tarqat": 6476,
      "Hayoti": 6477,
      "▁Ax": 6478,
      "kim": 6479,
      "▁2015-yilda": 6480,
      "▁shartnomasi": 6481,
      "▁Mehnat": 6482,
      "r.": 6483,
      "tasidagi": 6484,
      "▁(V": 6485,
      "▁jiddiy": 6486,
      "▁jamoadagi": 6487,
      "▁\n\nH": 6488,
      "192": 6489,
      "▁В": 6490,
      "▁tij": 6491,
      "illik": 6492,
      "una": 6493,
      "▁Texas": 6494,
      "▁atigi": 6495,
      "▁moy": 6496,
      "cy": 6497,
      "▁komis": 6498,
      "▁Qashqadaryo": 6499,
      "▁Armaniston": 6500,
      "—199": 6501,
      "rukt": 6502,
      "▁birga,": 6503,
      "▁World": 6504,
      "▁Van": 6505,
      "▁taqsim": 6506,
      "raziliya": 6507,
      "▁zavodi": 6508,
      "mud": 6509,
      "▁Ko": 6510,
      "▁Bad": 6511,
      "▁hamma": 6512,
      "▁chiqilgan": 6513,
      "maydi": 6514,
      "lari.": 6515,
      "uhrat": 6516,
      "▁teatri": 6517,
      "▁oʻqituvchi": 6518,
      "-sentabrda": 6519,
      "▁Gi": 6520,
      "▁raf": 6521,
      "laka": 6522,
      "atni": 6523,
      "▁hisoblash": 6524,
      "▁farqli": 6525,
      "egi": 6526,
      "▁hollarda": 6527,
      "▁yot": 6528,
      "▁etdi,": 6529,
      "▁maydonidir.\n\nManbalar": 6530,
      "▁havz": 6531,
      "▁oson": 6532,
      "▁2.": 6533,
      "▁rejim": 6534,
      "larni,": 6535,
      "▁qiyin": 6536,
      "▁ush": 6537,
      "▁asari": 6538,
      "▁47": 6539,
      "noma": 6540,
      "▁You": 6541,
      "-Peterburg": 6542,
      "ед": 6543,
      "sist": 6544,
      "95": 6545,
      "▁koʻtari": 6546,
      "▁chiqaruvchi": 6547,
      "▁isteʼ": 6548,
      "▁qilinishi": 6549,
      "▁radio": 6550,
      "▁ishlatiladi.": 6551,
      "los": 6552,
      "▁yozgi": 6553,
      "kazib": 6554,
      "shan": 6555,
      "▁armiyasi": 6556,
      "Or": 6557,
      "▁(E": 6558,
      "▁butunlay": 6559,
      "▁doktor": 6560,
      "▁shahridan": 6561,
      "▁oldini": 6562,
      "oire": 6563,
      "ulla": 6564,
      "erni": 6565,
      "▁Sport": 6566,
      "yoki": 6567,
      "uta": 6568,
      "▁jas": 6569,
      "▁Bok": 6570,
      "▁Can": 6571,
      "▁Dun": 6572,
      "▁Do": 6573,
      "att": 6574,
      "atta": 6575,
      "▁koʻl": 6576,
      "ross": 6577,
      "rig": 6578,
      "iller": 6579,
      "▁qoʻriq": 6580,
      "▁ishi": 6581,
      "ider": 6582,
      "0-": 6583,
      "▁Baʼzi": 6584,
      "▁(2021": 6585,
      "▁inv": 6586,
      "▁berilgan.": 6587,
      "▁MFY": 6588,
      "▁Pe": 6589,
      "jan": 6590,
      "ski": 6591,
      "▁oʻyini": 6592,
      "▁Malay": 6593,
      "▁erit": 6594,
      "▁toʻqqiz": 6595,
      "▁Ram": 6596,
      "oqealar": 6597,
      "odor": 6598,
      "▁sunʼiy": 6599,
      "chik": 6600,
      "▁biriga": 6601,
      "iza": 6602,
      "yoh": 6603,
      "▁qisman": 6604,
      "▁na": 6605,
      "▁Mag": 6606,
      "▁ishlagan.\n\n": 6607,
      "ohir": 6608,
      "▁davlatlar": 6609,
      "▁Mix": 6610,
      "▁\n\nOʻzbekistondagi": 6611,
      "▁Ij": 6612,
      "▁„C": 6613,
      "-oqib": 6614,
      "▁2013-yilda": 6615,
      "dorlari": 6616,
      "way": 6617,
      "tasining": 6618,
      "dish": 6619,
      "▁bosim": 6620,
      "▁Ker": 6621,
      "▁musiq": 6622,
      "▁versiyasi": 6623,
      "porti": 6624,
      "▁vaqti": 6625,
      "▁siyosati": 6626,
      "ramm": 6627,
      "▁buni": 6628,
      "▁Star": 6629,
      "ovuz": 6630,
      "ratsiya": 6631,
      "▁ton": 6632,
      "▁3-": 6633,
      "akam": 6634,
      "▁yetkaz": 6635,
      "1,": 6636,
      "▁Iz": 6637,
      "▁kechir": 6638,
      "▁xorijiy": 6639,
      "▁magnit": 6640,
      "▁\n\nEron": 6641,
      "▁oʻtdi": 6642,
      "choq": 6643,
      "▁shahriga": 6644,
      "toni": 6645,
      "▁ab": 6646,
      "▁hibsga": 6647,
      "▁shifok": 6648,
      "▁dengi": 6649,
      "vali": 6650,
      "▁toʻlqin": 6651,
      "axt": 6652,
      "enej": 6653,
      "tisos": 6654,
      "oniya": 6655,
      "▁„X": 6656,
      "▁ip": 6657,
      "▁dushman": 6658,
      "▁Kav": 6659,
      "20-yil": 6660,
      "ori,": 6661,
      "▁qoʻmondon": 6662,
      "▁kamroq": 6663,
      "▁yoshi": 6664,
      "ole": 6665,
      "sipaliteti": 6666,
      "▁shoh": 6667,
      "▁doktori": 6668,
      "▁Shri": 6669,
      "ganing": 6670,
      "maslik": 6671,
      "▁Premer": 6672,
      "▁Fa": 6673,
      "ray": 6674,
      "oriya": 6675,
      "▁Akadem": 6676,
      "▁Rich": 6677,
      ".\n\nA": 6678,
      "▁quyosh": 6679,
      "ilmoqda": 6680,
      "▁pro": 6681,
      "▁Bla": 6682,
      "▁jamoalar": 6683,
      "TA": 6684,
      "her": 6685,
      "▁Dastlab": 6686,
      "▁kont": 6687,
      "▁aksariyati": 6688,
      ".\n\nTarixi": 6689,
      "layn": 6690,
      "▁Biroq": 6691,
      "▁toʻplami": 6692,
      "▁komediya": 6693,
      "▁rozi": 6694,
      "▁Abdulloh": 6695,
      "klar": 6696,
      "mn": 6697,
      "▁yal": 6698,
      "sning": 6699,
      "▁xar": 6700,
      "▁olgan.\n\n": 6701,
      "▁(J": 6702,
      "▁asoschisi": 6703,
      "dorf": 6704,
      "oni,": 6705,
      "oʻng": 6706,
      "opol": 6707,
      "tali": 6708,
      "▁tushib": 6709,
      "▁finalida": 6710,
      "▁Indonez": 6711,
      "55": 6712,
      "▁ligasida": 6713,
      "avot": 6714,
      "▁arti": 6715,
      "▁Ek": 6716,
      "▁beruvchi": 6717,
      "igar": 6718,
      "▁Tashkil": 6719,
      "▁Din": 6720,
      "▁yorugʻ": 6721,
      "oʻravon": 6722,
      "gʻini": 6723,
      "lari)": 6724,
      "lations": 6725,
      "▁eki": 6726,
      "▁kamida": 6727,
      "▁mineral": 6728,
      "▁rafiq": 6729,
      "▁moddalar": 6730,
      "▁galaktikadir.\n\nHavolalar": 6731,
      "▁janubidagi": 6732,
      "▁bo'lishi": 6733,
      "-sharqiy": 6734,
      "▁qo‘l": 6735,
      "kas": 6736,
      "▁ost": 6737,
      "shimcha": 6738,
      "▁Gro": 6739,
      "emin": 6740,
      "Il": 6741,
      "▁mut": 6742,
      "▁boshlandi.": 6743,
      "▁dasturi": 6744,
      "▁olishga": 6745,
      "nesota": 6746,
      "190": 6747,
      "▁fors": 6748,
      "lashda": 6749,
      "▁CO": 6750,
      "64": 6751,
      "ender": 6752,
      "▁paxta": 6753,
      "▁don": 6754,
      "qib": 6755,
      "▁yo'q": 6756,
      "larus": 6757,
      "▁beradi.\n\n": 6758,
      "ogʻida": 6759,
      "▁tarqalgan.": 6760,
      "aliy": 6761,
      "▁kiritilgan.": 6762,
      "▁°": 6763,
      "▁efir": 6764,
      "▁Asosiy": 6765,
      "▁oltita": 6766,
      "▁bot": 6767,
      "TS": 6768,
      "▁tok": 6769,
      "▁Fili": 6770,
      "▁rivojlanishi": 6771,
      "▁Kap": 6772,
      "▁hadis": 6773,
      "dirish": 6774,
      "▁Florida": 6775,
      "▁Viktor": 6776,
      "Uning": 6777,
      "▁2021-yilda": 6778,
      "ин": 6779,
      "▁bayon": 6780,
      "▁vari": 6781,
      "ise": 6782,
      "atiladi.": 6783,
      "▁Pal": 6784,
      "▁pastki": 6785,
      "d.": 6786,
      "▁oyoq": 6787,
      "▁yarm": 6788,
      "▁shaharning": 6789,
      "▁Nas": 6790,
      "med": 6791,
      "▁Vir": 6792,
      "▁taxt": 6793,
      "▁usta": 6794,
      "▁nafarni": 6795,
      "▁yurish": 6796,
      "-tez": 6797,
      "rali": 6798,
      "emokratik": 6799,
      "dorlik": 6800,
      "laff": 6801,
      "▁We": 6802,
      "ark": 6803,
      "▁pen": 6804,
      "ovo": 6805,
      "▁xari": 6806,
      "▁spir": 6807,
      "olf": 6808,
      "-Al": 6809,
      "▁tilga": 6810,
      "divid": 6811,
      "▁\nJ": 6812,
      "ugur": 6813,
      "▁Ki": 6814,
      "▁(Y": 6815,
      "▁Lot": 6816,
      "kalav": 6817,
      "▁bob": 6818,
      "▁oʻgʻil": 6819,
      "▁qilish,": 6820,
      "▁borish": 6821,
      "▁taʼmir": 6822,
      "▁Nikolay": 6823,
      "▁tushgan": 6824,
      "▁munosabati": 6825,
      "▁chorak": 6826,
      "▁oldi.\n\n": 6827,
      "2-yildan": 6828,
      "▁2003-yil": 6829,
      "▁Maz": 6830,
      "▁„Ch": 6831,
      "▁raqobat": 6832,
      "▁pley-off": 6833,
      "enko": 6834,
      "▁turnirida": 6835,
      "▁Mark": 6836,
      "tirof": 6837,
      "8-yildan": 6838,
      "unt": 6839,
      "▁3.": 6840,
      "▁Serg": 6841,
      "▁uyushmasi": 6842,
      "zidan": 6843,
      "▁Kubogi": 6844,
      "ozogʻiston": 6845,
      "▁qirgʻoq": 6846,
      "atijada": 6847,
      "\n\nKlub": 6848,
      "▁Sof": 6849,
      "▁markazidan": 6850,
      "▁matbu": 6851,
      "▁Yosh": 6852,
      "▁Ag": 6853,
      "amol": 6854,
      "Faoliyat": 6855,
      "▁xonad": 6856,
      "▁dam": 6857,
      "▁olmagan": 6858,
      "):": 6859,
      "gal": 6860,
      "▁Musi": 6861,
      "▁shahrining": 6862,
      "▁loyihasi": 6863,
      "▁teri": 6864,
      "▁Vatan": 6865,
      "▁kiritgan.": 6866,
      "▁178": 6867,
      "▁kasb": 6868,
      "we": 6869,
      "xoz": 6870,
      "▁oʻyinchisi": 6871,
      "▁tanish": 6872,
      "chalar": 6873,
      "▁keltirib": 6874,
      "▁ixtisos": 6875,
      "▁qut": 6876,
      "▁veb-sayt": 6877,
      "alim": 6878,
      "ogo": 6879,
      "▁(p": 6880,
      "etri": 6881,
      "▁qov": 6882,
      "unn": 6883,
      "▁kelin": 6884,
      "ropik": 6885,
      "ziz": 6886,
      "▁Frank": 6887,
      "▁(2000).": 6888,
      "69": 6889,
      "▁о": 6890,
      "erlar": 6891,
      "▁Sm": 6892,
      "▁insonlar\n198": 6893,
      "▁Mo": 6894,
      "▁muroja": 6895,
      "umbaz": 6896,
      "▁millat": 6897,
      "▁Norveg": 6898,
      "kit": 6899,
      "chir": 6900,
      "ings": 6901,
      "▁chiqib": 6902,
      "67": 6903,
      "▁nut": 6904,
      "▁\"K": 6905,
      "▁pedagogi": 6906,
      "▁qurilm": 6907,
      "▁tuzilishi": 6908,
      "▁2011-yilda": 6909,
      "▁ataladi.": 6910,
      "ayyan": 6911,
      "lari\n\n": 6912,
      "▁beshinchi": 6913,
      "hom": 6914,
      "osa": 6915,
      "▁voz": 6916,
      "shoq": 6917,
      "▁o'rta": 6918,
      "▁filmlari\nAQSh": 6919,
      "▁(3": 6920,
      "▁zoʻravon": 6921,
      "▁sayyoh": 6922,
      "▁sovuq": 6923,
      "vard": 6924,
      "▁nikoh": 6925,
      "lanmagan": 6926,
      "▁holi": 6927,
      "▁qishloqda": 6928,
      "▁janubi-gʻ": 6929,
      "lign": 6930,
      "or,": 6931,
      "▁qishloqlar\nKoordinatalar": 6932,
      "▁150": 6933,
      "▁vakillari": 6934,
      "▁kitobi": 6935,
      "▁kod": 6936,
      "▁olishi": 6937,
      "▁Met": 6938,
      "▁Portuga": 6939,
      "quv": 6940,
      "onik": 6941,
      ");\n": 6942,
      "▁uygʻ": 6943,
      "...": 6944,
      "▁sonlar": 6945,
      "dal": 6946,
      "▁hukmronligi": 6947,
      "▁\"A": 6948,
      "▁58": 6949,
      "iografiyasi": 6950,
      "▁Ken": 6951,
      "▁tasni": 6952,
      "▁kimyo": 6953,
      "qima": 6954,
      "▁konser": 6955,
      "atidan": 6956,
      "“da": 6957,
      "ado": 6958,
      "▁Prezidenti": 6959,
      "pes": 6960,
      "▁yoʻqot": 6961,
      "▁2018-yilda": 6962,
      "▁assotsiatsiyasi": 6963,
      "qish": 6964,
      "▁rangli": 6965,
      "avar": 6966,
      "ematik": 6967,
      "iladi.\n\n": 6968,
      "unyod": 6969,
      "▁xususan,": 6970,
      "▁Braziliya": 6971,
      "atning": 6972,
      "orida": 6973,
      "▁jarayoni": 6974,
      "avariya": 6975,
      "liyo": 6976,
      "iyning": 6977,
      "bul": 6978,
      "igh": 6979,
      "review": 6980,
      "ın": 6981,
      "krak": 6982,
      "▁Hers": 6983,
      "он": 6984,
      "▁qaz": 6985,
      "▁2012-yilda": 6986,
      "▁av.": 6987,
      "▁Shveysariya": 6988,
      "KA": 6989,
      "▁tashab": 6990,
      "▁nafaq": 6991,
      "▁buyuk": 6992,
      "▁sohibi": 6993,
      "rah": 6994,
      "▁gʻolibi": 6995,
      "▁ekanligi": 6996,
      "▁akasi": 6997,
      "arix": 6998,
      "▁translations": 6999,
      "▁Geor": 7000,
      "arim": 7001,
      "bobi": 7002,
      "burchak": 7003,
      "odgor": 7004,
      "▁bundan": 7005,
      "takl": 7006,
      "▁konferen": 7007,
      "▁Haute": 7008,
      "adosh": 7009,
      "▁binosi": 7010,
      "▁tug": 7011,
      "▁tez-tez": 7012,
      "-muh": 7013,
      "▁tushdi.": 7014,
      "▁xoʻjalik": 7015,
      "▁oʻrnatilgan": 7016,
      "reviewed": 7017,
      "arm": 7018,
      "▁unreviewed": 7019,
      "▁za": 7020,
      "▁ziyorat": 7021,
      "▁mudiri": 7022,
      "▁Sil": 7023,
      "▁Pav": 7024,
      "▁durang": 7025,
      "asiz": 7026,
      "landiyaning": 7027,
      "“\n": 7028,
      "▁(qar": 7029,
      "oʻj": 7030,
      "▁oʻtadi.": 7031,
      "▁qolgan.": 7032,
      "▁hujumchi": 7033,
      "▁strat": 7034,
      "oid": 7035,
      "▁oʻlch": 7036,
      "su": 7037,
      "atilishi": 7038,
      "▁romani": 7039,
      "▁lib": 7040,
      "▁munitsipaliteti": 7041,
      "▁talabalar": 7042,
      "yot": 7043,
      "▁т": 7044,
      "▁Bul": 7045,
      "▁tovar": 7046,
      "-l": 7047,
      "stika": 7048,
      "▁Trans": 7049,
      "bah": 7050,
      "ет": 7051,
      "▁qum": 7052,
      "▁bogʻliq.": 7053,
      "oll": 7054,
      "▁oʻzlarining": 7055,
      "▁toʻlov": 7056,
      "▁institutida": 7057,
      "▁Qishloqda": 7058,
      "▁boradi.": 7059,
      "▁Mos": 7060,
      "olina": 7061,
      "▁fron": 7062,
      "▁suz": 7063,
      "▁arxe": 7064,
      "▁texnika": 7065,
      "▁Minnesota": 7066,
      "▁(masalan,": 7067,
      ".\n\nS": 7068,
      "▁Kong": 7069,
      "onga": 7070,
      "da.": 7071,
      "▁tahrir": 7072,
      "▁Herschel": 7073,
      "ev,": 7074,
      "▁tamomlagan.": 7075,
      "▁bagʻishlangan": 7076,
      "baq": 7077,
      "1-yildan": 7078,
      "▁etadi": 7079,
      "▁takror": 7080,
      "ee": 7081,
      "pedi": 7082,
      "Qoʻ": 7083,
      "masiga": 7084,
      "▁huquqlari": 7085,
      "▁qulay": 7086,
      "▁oh": 7087,
      "▁2008-yilda": 7088,
      "orf": 7089,
      "aba": 7090,
      "▁Lib": 7091,
      "▁astron": 7092,
      "madi.": 7093,
      "▁olinadi.": 7094,
      "▁(mil": 7095,
      "▁kiritdi.\n\n": 7096,
      "▁olib,": 7097,
      "▁jamoalari": 7098,
      "▁koʻrgaz": 7099,
      "▁natijada": 7100,
      "▁fir": 7101,
      "▁lavozimida": 7102,
      "▁inqilob": 7103,
      "▁Vikimaʼlumotlarda\nB": 7104,
      "▁2014-yilda": 7105,
      "minan": 7106,
      "▁ona": 7107,
      "▁oʻlar": 7108,
      "▁vositalari": 7109,
      "▁qilgan,": 7110,
      "y,": 7111,
      "▁2016-yilda": 7112,
      "▁a'": 7113,
      "▁filmidagi": 7114,
      "ingiya": 7115,
      "dir,": 7116,
      "▁sportchilar": 7117,
      "▁Natijada": 7118,
      "▁htt": 7119,
      "▁taf": 7120,
      "▁183": 7121,
      "▁kuchi": 7122,
      "rus": 7123,
      "bach": 7124,
      "▁chiqqan.": 7125,
      "▁naqsh": 7126,
      "ovv": 7127,
      "▁koʻk": 7128,
      "▁okean": 7129,
      "▁telef": 7130,
      "▁2007-yilda": 7131,
      "▁raqs": 7132,
      "▁platfor": 7133,
      "74": 7134,
      "▁П": 7135,
      "asht": 7136,
      "▁.\n": 7137,
      "gʻib": 7138,
      "lashuv": 7139,
      "▁mustam": 7140,
      "▁taʼminlash": 7141,
      "6,": 7142,
      "lanishiga": 7143,
      "▁chorva": 7144,
      "▁sez": 7145,
      "ati,": 7146,
      "▁arman": 7147,
      "▁endi": 7148,
      "ar,": 7149,
      "alliy": 7150,
      "▁boʻlgani": 7151,
      "qqi": 7152,
      "afot": 7153,
      "▁Xar": 7154,
      "▁vazifasini": 7155,
      "▁Grand": 7156,
      "▁singari": 7157,
      "▁Dis": 7158,
      "7-yildan": 7159,
      "▁Shtatlari": 7160,
      "rum": 7161,
      "▁Sankt-Peterburg": 7162,
      "“ning": 7163,
      "erma": 7164,
      "▁(190": 7165,
      "▁align": 7166,
      "▁orada": 7167,
      "irus": 7168,
      "rohim": 7169,
      "iyatiga": 7170,
      "▁lits": 7171,
      "▁ayol)": 7172,
      "▁IV": 7173,
      "▁ildiz": 7174,
      "▁fuqar": 7175,
      "▁blok": 7176,
      "▁400": 7177,
      "▁mavsumning": 7178,
      "ла": 7179,
      "iddin": 7180,
      "▁hodis": 7181,
      "en,": 7182,
      "▁bilan,": 7183,
      "▁Unda": 7184,
      "Es": 7185,
      "▁tennis": 7186,
      "▁etishga": 7187,
      "98": 7188,
      "▁o'zining": 7189,
      "'zi": 7190,
      "▁meʼmoriy": 7191,
      "okar": 7192,
      "gov": 7193,
      "ог": 7194,
      "orn": 7195,
      "▁2006-yilgi": 7196,
      "tarosh": 7197,
      "▁raqamli": 7198,
      "▁etganlar": 7199,
      "ker": 7200,
      "▁Berlin": 7201,
      "▁daʼvo": 7202,
      "▁chiz": 7203,
      "▁zamon": 7204,
      "▁Som": 7205,
      "▁Indi": 7206,
      "olit": 7207,
      "▁daryosining": 7208,
      "▁1000": 7209,
      "6-yildan": 7210,
      "▁ster": 7211,
      "▁Korey": 7212,
      "▁Qrim": 7213,
      ";\n\n": 7214,
      "bot": 7215,
      "▁Arm": 7216,
      "isha": 7217,
      "▁respublika": 7218,
      "▁koʻpchilik": 7219,
      "▁ogʻri": 7220,
      "▁amaliyot": 7221,
      "▁tiz": 7222,
      "▁biroz": 7223,
      "▁Hindistonning": 7224,
      "▁resurs": 7225,
      "5-yildan": 7226,
      "▁oʻlcham": 7227,
      "kub": 7228,
      "luk": 7229,
      "▁yakuniy": 7230,
      "ws": 7231,
      "mov": 7232,
      "ritan": 7233,
      "lamchi": 7234,
      "▁medalini": 7235,
      "▁Rhône": 7236,
      "i\n": 7237,
      "▁egalladi.\n\n": 7238,
      "▁ma’": 7239,
      "▁Penn": 7240,
      "▁tijorat": 7241,
      "▁boʻlganligi": 7242,
      "▁Amerik": 7243,
      "ishicha,": 7244,
      "▁kubogida": 7245,
      "▁atrofidagi": 7246,
      "Jamo": 7247,
      "▁1999": 7248,
      "▁norozi": 7249,
      "▁1⁄2": 7250,
      "shiga": 7251,
      "aʼlim": 7252,
      "▁oraligʻida": 7253,
      "▁Gir": 7254,
      "ны": 7255,
      "191": 7256,
      "▁aeroporti": 7257,
      "ian": 7258,
      "▁tartibga": 7259,
      "▁Wh": 7260,
      "▁yashovchi": 7261,
      "▁nuqtai": 7262,
      "inlar": 7263,
      "▁qilishda": 7264,
      "▁nomaʼlum": 7265,
      "eth": 7266,
      "▁Vy": 7267,
      "▁(qarang": 7268,
      "▁shaharlar": 7269,
      "▁umum": 7270,
      "▁topilgan": 7271,
      "ugʻilgan": 7272,
      "▁(5": 7273,
      "-Sh": 7274,
      "▁buning": 7275,
      "▁zon": 7276,
      "▁dunyoning": 7277,
      "lishini": 7278,
      "▁Chexiya": 7279,
      "▁bayroq": 7280,
      "ijoz": 7281,
      "▁qozondi.": 7282,
      "▁kubog": 7283,
      "▁loyiha": 7284,
      "emp": 7285,
      ".8": 7286,
      "tur": 7287,
      "▁yopi": 7288,
      "▁vafotidan": 7289,
      "qaz": 7290,
      "tsiyalar": 7291,
      "▁rafiqasi": 7292,
      "▁xarak": 7293,
      "▁siz": 7294,
      "▁bakalav": 7295,
      "▁mukofotini": 7296,
      "▁jism": 7297,
      "▁animatsion": 7298,
      "▁2002": 7299,
      "▁(2022).\n\nManbalar": 7300,
      "liyaga": 7301,
      "▁oʻzgarish": 7302,
      "rag": 7303,
      "▁o‘tkaz": 7304,
      "▁Ind": 7305,
      "-10": 7306,
      "7),": 7307,
      "▁bol": 7308,
      "▁Ale": 7309,
      "▁shox": 7310,
      "▁tepa": 7311,
      "▁mintaqaviy": 7312,
      "▁molek": 7313,
      "3-yilgi": 7314,
      "▁Mash": 7315,
      "▁bo‘lib": 7316,
      "▁id": 7317,
      "tex": 7318,
      "▁jamgʻar": 7319,
      "▁Ukrainaning": 7320,
      "▁aholisining": 7321,
      "▁belgisi": 7322,
      "▁joyda": 7323,
      "▁ferm": 7324,
      "▁al-M": 7325,
      "▁„The": 7326,
      "▁qaratilgan": 7327,
      "▁64": 7328,
      "▁Atlan": 7329,
      "▁ijodi": 7330,
      "uriy": 7331,
      "ube": 7332,
      "▁U,": 7333,
      "▁Oʻzbek": 7334,
      "-sentabr": 7335,
      "▁gapir": 7336,
      "▁kiritdi": 7337,
      "▁homiy": 7338,
      "raq": 7339,
      "▁faz": 7340,
      "▁gimn": 7341,
      "▁singlisi": 7342,
      "▁joylashtir": 7343,
      "di.\n": 7344,
      "▁disk": 7345,
      "▁jarayonida": 7346,
      "4-yilgi": 7347,
      "▁pos": 7348,
      "▁buyon": 7349,
      "ektura": 7350,
      "vol": 7351,
      "▁oyining": 7352,
      "▁Jorj": 7353,
      "▁Red": 7354,
      "▁klassik": 7355,
      "▁(Q": 7356,
      "▁yoshli": 7357,
      "▁turkiy": 7358,
      "pul": 7359,
      "uma": 7360,
      "inal": 7361,
      "▁Harbiy": 7362,
      "uzur": 7363,
      "▁Madrid": 7364,
      "ab,": 7365,
      "▁keldi": 7366,
      "cer": 7367,
      "taxt": 7368,
      "▁mablagʻ": 7369,
      "▁dengizi": 7370,
      "0-yillar": 7371,
      "▁tir": 7372,
      "▁Dam": 7373,
      "▁Jey": 7374,
      "iyatini": 7375,
      "▁asarlar": 7376,
      "▁maʼmur": 7377,
      "▁Sy": 7378,
      "▁mamlakatning": 7379,
      "▁„Oʻ": 7380,
      "▁Fo": 7381,
      "tisod": 7382,
      "▁\nI": 7383,
      "teg": 7384,
      "-O": 7385,
      "▁Yo": 7386,
      "▁etnik": 7387,
      "zer": 7388,
      "▁Stan": 7389,
      "▁uchish": 7390,
      "▁mavsumni": 7391,
      "dividual": 7392,
      "▁\nV": 7393,
      "Xor": 7394,
      "▁mezbon": 7395,
      "igur": 7396,
      "▁oʻqishga": 7397,
      "▁menej": 7398,
      "▁qoʻllanadi.": 7399,
      "▁ijobiy": 7400,
      "▁diqq": 7401,
      "▁golli": 7402,
      "uxoro": 7403,
      "▁Ozarbayjonning": 7404,
      "midan": 7405,
      "▁ishchi": 7406,
      "▁bezak": 7407,
      "evosita": 7408,
      "▁Qoraqalp": 7409,
      "▁kodi": 7410,
      "0-yildan": 7411,
      "▁drama": 7412,
      "▁muddatli": 7413,
      "▁konts": 7414,
      "▁epiz": 7415,
      "omen": 7416,
      "▁Cal": 7417,
      "▁qiymat": 7418,
      "ompan": 7419,
      "▁Ku": 7420,
      "▁jamoasini": 7421,
      "olli": 7422,
      "▁shimoli-sharq": 7423,
      "amangan": 7424,
      "▁shahzoda": 7425,
      "adi:": 7426,
      "▁nafaqat": 7427,
      "▁kompozi": 7428,
      "1-yilgi": 7429,
      "-oktabr": 7430,
      "▁mudda": 7431,
      "▁janr": 7432,
      "ilning": 7433,
      "▁bor.\n\n": 7434,
      "▁soʻzlariga": 7435,
      "▁tanga": 7436,
      "may,": 7437,
      "▁oʻtkazdi": 7438,
      "▁eksper": 7439,
      "▁tug‘": 7440,
      "▁murojaat": 7441,
      "▁Suv": 7442,
      "▁\n\nC": 7443,
      "▁seriyasi": 7444,
      "▁oʻtib,": 7445,
      "▁bo‘lib,": 7446,
      "▁spektakl": 7447,
      "anka": 7448,
      "▁bildi": 7449,
      "▁2017-yilda": 7450,
      "ishning": 7451,
      "▁ta'sir": 7452,
      "▁boshlanishi": 7453,
      "▁Qora": 7454,
      "▁kompaniyasining": 7455,
      "▁yugur": 7456,
      "▁(4": 7457,
      "▁Shotlandiya": 7458,
      "▁so": 7459,
      "▁Jo": 7460,
      "▁978-": 7461,
      "▁etuvchi": 7462,
      "▁yashaydi.": 7463,
      "▁musobaqasida": 7464,
      "lana": 7465,
      "▁qoli": 7466,
      "moqda.\n\n": 7467,
      "▁doʻkon": 7468,
      "▁diqqatga": 7469,
      "azoir": 7470,
      "▁soʻngra": 7471,
      "ит": 7472,
      "▁yoshdan": 7473,
      "til": 7474,
      "ogʻoz": 7475,
      "wa": 7476,
      "lari\nOʻzbekiston": 7477,
      "▁qot": 7478,
      "▁ekran": 7479,
      "ate": 7480,
      "3-yildan": 7481,
      "▁asrlarda": 7482,
      "▁kema": 7483,
      "▁\nE": 7484,
      "▁Tam": 7485,
      "▁kris": 7486,
      "▁hajm": 7487,
      "▁shuni": 7488,
      "ulloh": 7489,
      "▁bugungi": 7490,
      "▁toʻqnash": 7491,
      "eren": 7492,
      "▁oxirigacha": 7493,
      "▁Bey": 7494,
      "▁180": 7495,
      "▁umr": 7496,
      "▁muhok": 7497,
      "▁Win": 7498,
      "▁ensiklope": 7499,
      "utboli": 7500,
      "hon": 7501,
      "uyuk": 7502,
      "▁karra": 7503,
      "▁shaxslar": 7504,
      "▁İ": 7505,
      "▁yurt": 7506,
      "▁(2008).\n\nManbalar\n\nHavolalar": 7507,
      "pital": 7508,
      "▁prodyus": 7509,
      "o“": 7510,
      "8-yilgi": 7511,
      "gan.\n\nM": 7512,
      "▁borgan": 7513,
      "▁oʻrtalarida": 7514,
      "▁qalin": 7515,
      "Toshkent": 7516,
      "chin": 7517,
      "▁Stat": 7518,
      "▁arbob": 7519,
      "▁chempionligini": 7520,
      "langan.\n\nManbalar": 7521,
      "▁tavallud": 7522,
      "▁muq": 7523,
      "▁targʻib": 7524,
      "▁Yusu": 7525,
      "▁sayyor": 7526,
      "▁oʻtkazgan.": 7527,
      "undes": 7528,
      "▁ellik": 7529,
      "▁jangovar": 7530,
      "▁o‘yinda": 7531,
      "▁yordamchi": 7532,
      "ие": 7533,
      "▁fay": 7534,
      "▁vit": 7535,
      "aponiya": 7536,
      "▁Gam": 7537,
      "▁pasport": 7538,
      "▁Hasan": 7539,
      "▁Qon": 7540,
      "▁Kolumb": 7541,
      "▁oxiri": 7542,
      "▁Cast": 7543,
      "▁tiliga": 7544,
      "▁tomoshabin": 7545,
      "amik": 7546,
      "7,": 7547,
      "▁energiyasi": 7548,
      "\nB": 7549,
      "ozan": 7550,
      "▁ishlatiladigan": 7551,
      "▁Nig": 7552,
      "▁oʻzgartirish": 7553,
      "▁ayniqsa,": 7554,
      "ite": 7555,
      "diyasi": 7556,
      "▁boʻlishiga": 7557,
      "▁farzandi": 7558,
      "lovak": 7559,
      "▁yozish": 7560,
      "▁bevosita": 7561,
      "leks": 7562,
      "▁Sab": 7563,
      "oston": 7564,
      "▁oʻqish": 7565,
      "▁zaif": 7566,
      ":2": 7567,
      "yad": 7568,
      "▁vakolat": 7569,
      "itan": 7570,
      "aler": 7571,
      "▁toʻpur": 7572,
      "▁belgilangan": 7573,
      "▁2005-yilda": 7574,
      "rup": 7575,
      "▁Pri": 7576,
      "▁Hol": 7577,
      "▁qurbon": 7578,
      "▁Masjid": 7579,
      "▁Kuch": 7580,
      "▁barpo": 7581,
      "arab": 7582,
      "▁uchun“": 7583,
      "▁vaqtning": 7584,
      "-g": 7585,
      "ma,": 7586,
      "▁59": 7587,
      "▁dub": 7588,
      "▁soliq": 7589,
      "▁serial": 7590,
      "▁Miss": 7591,
      "obel": 7592,
      "▁Turkmaniston": 7593,
      "▁qishlogʻida": 7594,
      "▁futboli": 7595,
      "▁chir": 7596,
      "-joy": 7597,
      "▁(15": 7598,
      "masini": 7599,
      "▁shimoli-gʻ": 7600,
      "▁rahbarlik": 7601,
      "qoq": 7602,
      "▁eri": 7603,
      "▁XIX": 7604,
      "▁Tinch": 7605,
      "▁etiladi.": 7606,
      "▁Rossiyada": 7607,
      "▁Universitet": 7608,
      "▁jamoaning": 7609,
      "▁holda,": 7610,
      "▁sifat": 7611,
      "ол": 7612,
      "aloq": 7613,
      "▁Tuman": 7614,
      "▁68": 7615,
      "ijriy": 7616,
      "▁Xitoyning": 7617,
      "▁kasalxon": 7618,
      "okal": 7619,
      "▁omil": 7620,
      "▁jigar": 7621,
      "▁Mahmud": 7622,
      "▁Ibrohim": 7623,
      "▁raz": 7624,
      "▁Lekin": 7625,
      "onat": 7626,
      "alardagi": 7627,
      "▁Ly": 7628,
      "▁bo'ldi.": 7629,
      "▁muhoj": 7630,
      "▁olishda": 7631,
      "▁tarixidagi": 7632,
      "4-yildan": 7633,
      "▁Muz": 7634,
      "▁qoldiq": 7635,
      "ilyam": 7636,
      "▁narx": 7637,
      ")da": 7638,
      "ier": 7639,
      "tov": 7640,
      "▁biror": 7641,
      "kina": 7642,
      "ombar": 7643,
      "▁qozoq": 7644,
      "▁tovush": 7645,
      "2),": 7646,
      "aryera": 7647,
      "▁gran": 7648,
      "▁oʻrtoqlik": 7649,
      "▁Gri": 7650,
      "▁yozida": 7651,
      "▁yetarli": 7652,
      "raj": 7653,
      "▁O.": 7654,
      "antin": 7655,
      "▁hamkorlikda": 7656,
      "63": 7657,
      "▁koʻrsatadi.": 7658,
      "▁Fre": 7659,
      "▁tug'ilgan": 7660,
      "▁Filipp": 7661,
      "lani": 7662,
      "▁Sent": 7663,
      "▁manfa": 7664,
      "▁jaroh": 7665,
      "vaq": 7666,
      "▁ega,": 7667,
      "▁gazetasi": 7668,
      ".4": 7669,
      "▁Saf": 7670,
      "▁mudofaa": 7671,
      "▁hajmi": 7672,
      "▁toz": 7673,
      "▁2019-yilda": 7674,
      "▁hayvonlar": 7675,
      "▁Yuqori": 7676,
      "eriya": 7677,
      "▁Tolib": 7678,
      "ehr": 7679,
      "▁2006-yilda": 7680,
      "▁Kr": 7681,
      "▁Hozirgi": 7682,
      "oʻzal": 7683,
      "▁Kengash": 7684,
      "▁qoʻshni": 7685,
      "▁kolleji": 7686,
      "ematika": 7687,
      "-ma": 7688,
      "▁miya": 7689,
      "ylv": 7690,
      "▁asrlar.": 7691,
      "▁bog'liq": 7692,
      "kat": 7693,
      "▁kiritish": 7694,
      "maydi,": 7695,
      "-de": 7696,
      "▁\n\n201": 7697,
      "Pages": 7698,
      "▁keladi": 7699,
      "▁Shri-L": 7700,
      "▁shaharda": 7701,
      "▁43": 7702,
      "linik": 7703,
      "sta": 7704,
      "▁Mel": 7705,
      "▁oilasiga": 7706,
      "\nA": 7707,
      "ür": 7708,
      "ishidan": 7709,
      "▁mahsulotlari": 7710,
      "▁jamoaga": 7711,
      "\n\nXalqaro": 7712,
      "▁bo'y": 7713,
      "▁184": 7714,
      "ony": 7715,
      "on-sh": 7716,
      "ulyar": 7717,
      "▁qalʼ": 7718,
      "▁filmlari": 7719,
      "▁Quyosh": 7720,
      "▁fuqarolik": 7721,
      "▁\n\nU": 7722,
      "unarmand": 7723,
      "▁Mot": 7724,
      "▁Shar": 7725,
      "▁\"O": 7726,
      "▁eshit": 7727,
      "ovvoyi": 7728,
      "▁Ulugʻ": 7729,
      "▁mln.": 7730,
      "▁(ok": 7731,
      "yori": 7732,
      "▁nih": 7733,
      "▁Yak": 7734,
      "▁Avstriyaning": 7735,
      "▁mamlak": 7736,
      "▁Va": 7737,
      "mula": 7738,
      "ove": 7739,
      "▁muayyan": 7740,
      "▁banki": 7741,
      "aydi,": 7742,
      "▁(193": 7743,
      "▁tanilgan.": 7744,
      "vand": 7745,
      "▁qad": 7746,
      "▁mahalla.": 7747,
      "▁shou": 7748,
      "▁qarorgoh": 7749,
      "▁uzay": 7750,
      "▁tasi": 7751,
      "▁oʻrnini": 7752,
      "▁Husayn": 7753,
      "▁joylashgan.\n\nManbalar\n\nHavolalar": 7754,
      "-oqibat": 7755,
      "▁Kavkaz": 7756,
      "inga": 7757,
      "▁o'l": 7758,
      "▁tojik": 7759,
      "▁etadi.\n\n": 7760,
      "elli": 7761,
      "▁bahslarida": 7762,
      "-Z": 7763,
      "▁kv": 7764,
      "▁Vikimaʼlumotlarda\nBraziliya": 7765,
      "▁(yoki": 7766,
      "▁Roman": 7767,
      "▁rais": 7768,
      "▁mamlakatlarda": 7769,
      "uka": 7770,
      "istoni": 7771,
      "▁le": 7772,
      "▁Tib": 7773,
      "▁oʻtkazgan": 7774,
      "▁oʻtkazib": 7775,
      "AR": 7776,
      "▁Ex": 7777,
      "▁gumbaz": 7778,
      "▁qoʻshigʻi": 7779,
      "▁Sotsialistik": 7780,
      "▁Mam": 7781,
      "▁Yaqin": 7782,
      "▁to'g'ri": 7783,
      "anjir": 7784,
      "ville": 7785,
      "dasi": 7786,
      "▁sirt": 7787,
      "▁diplomatik": 7788,
      "▁finalga": 7789,
      "SL": 7790,
      "ек": 7791,
      "▁temperatur": 7792,
      "▁boʻladi,": 7793,
      "▁M.,": 7794,
      "71": 7795,
      "jin": 7796,
      "▁ijodiy": 7797,
      "▁Press": 7798,
      "▁ko'plab": 7799,
      "▁termin": 7800,
      "▁xodimi": 7801,
      "▁hash": 7802,
      "▁shartnomasini": 7803,
      "lagi": 7804,
      "otida": 7805,
      "orth": 7806,
      "fal": 7807,
      "▁arbobi": 7808,
      "▁sk": 7809,
      "▁boshlangan.": 7810,
      "▁Shuning": 7811,
      "▁oʻsimliklar": 7812,
      "▁shikast": 7813,
      "ile": 7814,
      "▁buzilishi": 7815,
      "▁insonlar": 7816,
      "▁foydalanuvchi": 7817,
      "ogle": 7818,
      "▁keladi.\n\n": 7819,
      "▁hurmat": 7820,
      "▁David": 7821,
      "san": 7822,
      "▁2004-yilda": 7823,
      "▁filmlar": 7824,
      "▁chida": 7825,
      "9-yildan": 7826,
      "jeles": 7827,
      "ater": 7828,
      "▁Deh": 7829,
      "▁kirgan": 7830,
      "▁miqyos": 7831,
      "a\n": 7832,
      "▁Bang": 7833,
      "▁bilish": 7834,
      "ziy": 7835,
      "aylov": 7836,
      "struk": 7837,
      "▁mazmun": 7838,
      "▁so'ng,": 7839,
      "dil": 7840,
      "omil": 7841,
      "▁toifasida": 7842,
      "▁nutq": 7843,
      "▁Meksika": 7844,
      "uar": 7845,
      "▁pir": 7846,
      "▁oldi,": 7847,
      "amiz": 7848,
      "zila": 7849,
      "▁Sakson": 7850,
      "▁International": 7851,
      "atish": 7852,
      "▁Mary": 7853,
      "▁olam": 7854,
      "▁kirdi.": 7855,
      "ept": 7856,
      "▁sulolasi": 7857,
      "▁mexanik": 7858,
      "▁Lev": 7859,
      "▁rak": 7860,
      "▁yoʻllari": 7861,
      "▁janubi-sharq": 7862,
      "ão": 7863,
      "▁por": 7864,
      "▁sarf": 7865,
      "▁Mirzo": 7866,
      "▁Qirollik": 7867,
      "▁kirib": 7868,
      "▁urdi.": 7869,
      "▁suyak": 7870,
      "▁studiy": 7871,
      "▁xususiyatlari": 7872,
      "-dara": 7873,
      "chi.": 7874,
      "atsiyasida": 7875,
      "▁ogʻ": 7876,
      "larini,": 7877,
      "rend": 7878,
      "qarshi": 7879,
      "▁qoʻshma": 7880,
      "-Alpes": 7881,
      "▁egallab": 7882,
      "▁egallagan.": 7883,
      "▁bostirib": 7884,
      "▁yozgan.": 7885,
      "doni": 7886,
      "▁bet": 7887,
      "▁kunlari": 7888,
      "▁Umar": 7889,
      "▁Pik": 7890,
      "ibir": 7891,
      "▁SB": 7892,
      "▁safiga": 7893,
      "▁oʻqituvchisi": 7894,
      "▁qilgan.\n\nManbalar": 7895,
      "▁ko'ra": 7896,
      "▁garchi": 7897,
      "cial": 7898,
      "▁magʻlubiyatga": 7899,
      "ka-": 7900,
      "\n\nVafot": 7901,
      "yoz": 7902,
      "▁Je": 7903,
      "-Sa": 7904,
      "▁qilindi": 7905,
      "▁quvvat": 7906,
      "▁ilova": 7907,
      "▁bayro": 7908,
      "▁eʼtirof": 7909,
      "omp": 7910,
      "adilar.": 7911,
      "1),": 7912,
      "▁dunyoga": 7913,
      "lend": 7914,
      "▁Т": 7915,
      "▁dalil": 7916,
      "▁tinchlik": 7917,
      "▁Argentina": 7918,
      "▁align=\"": 7919,
      "96": 7920,
      "oʻja": 7921,
      "lashicha,": 7922,
      "Yoshligi": 7923,
      "Ikkinchi": 7924,
      "▁fizik": 7925,
      "▁qoʻzgʻolon": 7926,
      "sev": 7927,
      "▁hukmronlik": 7928,
      "laq": 7929,
      "▁onlayn": 7930,
      "agʻ": 7931,
      "▁qadr": 7932,
      "▁Ac": 7933,
      "▁maqbar": 7934,
      "olga": 7935,
      "▁kundan": 7936,
      "▁Lenin": 7937,
      "▁chiqadi.": 7938,
      "▁Hozirda": 7939,
      "-15": 7940,
      "▁tasvirlangan.": 7941,
      "wood": 7942,
      "▁Qal": 7943,
      "nos": 7944,
      "ama-": 7945,
      "▁mamlakatda": 7946,
      "▁gap": 7947,
      "▁Sher": 7948,
      "▁Premer-liga": 7949,
      "lı": 7950,
      "▁Muq": 7951,
      "▁kanali": 7952,
      "\n\nG": 7953,
      "▁yorqin": 7954,
      "▁global": 7955,
      ".)": 7956,
      "▁funt": 7957,
      "jahon": 7958,
      "anti": 7959,
      "▁yetkazib": 7960,
      "▁tayyorlangan": 7961,
      "yr": 7962,
      "ии": 7963,
      "▁tasavv": 7964,
      "▁idish": 7965,
      "▁yerga": 7966,
      "▁54": 7967,
      "▁(okrug": 7968,
      "ilib,": 7969,
      "▁shun": 7970,
      "▁urgan": 7971,
      "evr": 7972,
      "korlik": 7973,
      "▁asosi": 7974,
      "▁bugʻ": 7975,
      "▁foydali": 7976,
      "▁ulkan": 7977,
      "▁albomi": 7978,
      "ovka": 7979,
      "ovna": 7980,
      "▁TV": 7981,
      "liklarni": 7982,
      "▁berildi.": 7983,
      "ев": 7984,
      "▁Bek": 7985,
      "CO": 7986,
      "ро": 7987,
      "▁mamlakatlar": 7988,
      "▁unvonini": 7989,
      "vey": 7990,
      "ransiya": 7991,
      "▁pishir": 7992,
      "AN": 7993,
      "nd": 7994,
      "▁Richard": 7995,
      "▁1,5": 7996,
      "▁Ameri": 7997,
      "▁Gon": 7998,
      "lanishini": 7999,
      "▁qatnashgan": 8000,
      "anning": 8001,
      "▁afzal": 8002,
      "▁Bon": 8003,
      "▁Her": 8004,
      "▁2001-yil": 8005,
      "▁Akvit": 8006,
      "naya": 8007,
      "imli": 8008,
      "odiq": 8009,
      "\n\nD": 8010,
      "use": 8011,
      "▁oyidan": 8012,
      "▁bo‘lgan.": 8013,
      "▁(okrug)": 8014,
      "▁Bre": 8015,
      "▁taʼsirida": 8016,
      "▁qamrab": 8017,
      "left\"": 8018,
      "inni": 8019,
      "ukum": 8020,
      "▁Cher": 8021,
      "▁muhofaza": 8022,
      "isa": 8023,
      "shid": 8024,
      "-et-L": 8025,
      "▁oʻsish": 8026,
      "▁Respublika": 8027,
      "▁xarakter": 8028,
      "▁Dom": 8029,
      "▁tomir": 8030,
      "▁tizimini": 8031,
      "bd": 8032,
      "▁nafari": 8033,
      "▁Akvitaniya": 8034,
      "97": 8035,
      "▁Qahramoni": 8036,
      "izzax": 8037,
      "▁kafedrasi": 8038,
      "▁salbiy": 8039,
      "▁Karim": 8040,
      "ylvania": 8041,
      "▁oʻlimi": 8042,
      "azz": 8043,
      "▁harf": 8044,
      "▁42": 8045,
      "▁War": 8046,
      "▁tana": 8047,
      "landi,": 8048,
      "Islom": 8049,
      "kun": 8050,
      "▁etishi": 8051,
      "▁nomidan": 8052,
      "▁kattalar": 8053,
      "▁inshoot": 8054,
      "▁на": 8055,
      "ria": 8056,
      "▁Pir": 8057,
      "▁joylarda": 8058,
      "vartir": 8059,
      "2)\n": 8060,
      "▁pop": 8061,
      "▁miloddan": 8062,
      "▁sulton": 8063,
      "ama-qarshi": 8064,
      "ail": 8065,
      "▁mashq": 8066,
      "▁piyoda": 8067,
      "-6": 8068,
      "▁Tour": 8069,
      "▁bildira": 8070,
      "oqon": 8071,
      "▁Dub": 8072,
      "▁kungacha": 8073,
      ".1": 8074,
      "▁г": 8075,
      "▁gor": 8076,
      "▁hududda": 8077,
      "▁Lim": 8078,
      "▁Bill": 8079,
      "▁politsiya": 8080,
      "▁Tosh": 8081,
      "▁boshqariladigan": 8082,
      "moqchi": 8083,
      "▁Mik": 8084,
      "▁Prof": 8085,
      "▁Kichik": 8086,
      "▁aloqalar": 8087,
      "▁Ahol": 8088,
      "A.": 8089,
      "▁Pas": 8090,
      "gan.\n\n201": 8091,
      "▁daromadi": 8092,
      "▁West": 8093,
      "▁Uilyam": 8094,
      "aridan": 8095,
      "▁koʻchasi": 8096,
      "▁Gers": 8097,
      "▁qismiga": 8098,
      "tirgan": 8099,
      "net": 8100,
      "▁To": 8101,
      "▁\n\nY": 8102,
      "vim": 8103,
      "ek,": 8104,
      "▁ostidagi": 8105,
      "▁yasalgan": 8106,
      "siyo": 8107,
      "▁Raj": 8108,
      "▁Bat": 8109,
      "▁Rhe": 8110,
      "▁ketdi.": 8111,
      "▁to'p": 8112,
      "▁reklama": 8113,
      "▁tayinlandi.": 8114,
      "sylvania": 8115,
      "wn": 8116,
      "oy,": 8117,
      "▁shahriston": 8118,
      "-Anjeles": 8119,
      "-5": 8120,
      "tning": 8121,
      "▁ichim": 8122,
      "be": 8123,
      "ochta": 8124,
      "cia": 8125,
      "▁Sol": 8126,
      "▁huquqini": 8127,
      "▁qoʻllab-quvvatlash": 8128,
      "▁terap": 8129,
      "▁ehtiyoj": 8130,
      "▁tra": 8131,
      "▁Xur": 8132,
      "▁Gretsiya": 8133,
      "▁xatti": 8134,
      "▁laborat": 8135,
      "▁„Z": 8136,
      "oʻrgʻon": 8137,
      "-d'": 8138,
      "▁Martin": 8139,
      "3),": 8140,
      "▁voqea": 8141,
      "ander": 8142,
      "taj": 8143,
      "shon": 8144,
      "▁shogir": 8145,
      "ese": 8146,
      "▁texnolog": 8147,
      "▁akademiyasining": 8148,
      "abir": 8149,
      "odar": 8150,
      "evra": 8151,
      "▁yoʻnal": 8152,
      "▁Gollandiya": 8153,
      "▁qilindi.\n\n": 8154,
      "▁okrugiga": 8155,
      "▁ilmiy-": 8156,
      "▁oylik": 8157,
      "▁°C": 8158,
      "▁sana": 8159,
      "obus": 8160,
      "▁oldida": 8161,
      "Iqtisodiy": 8162,
      "▁Rhône-Alpes": 8163,
      "▁raketa": 8164,
      "yotgan": 8165,
      "omiya": 8166,
      "▁Kob": 8167,
      "▁topish": 8168,
      "▁Sergey": 8169,
      "osur": 8170,
      "age": 8171,
      "▁laure": 8172,
      "▁qozoni": 8173,
      "▁Saksoniya": 8174,
      "▁Tarix": 8175,
      "▁Karl": 8176,
      "▁(n": 8177,
      "▁bor,": 8178,
      "▁topilgan.": 8179,
      "ddin": 8180,
      "lisher": 8181,
      "▁yutqaz": 8182,
      "▁AQShda": 8183,
      "▁hisoblanadi": 8184,
      "▁qoʻngʻir": 8185,
      "qos": 8186,
      "ote": 8187,
      "ltin": 8188,
      "udj": 8189,
      "▁oʻtishi": 8190,
      "▁yilga": 8191,
      "▁fut": 8192,
      "▁Abdur": 8193,
      "\nS": 8194,
      "inib,": 8195,
      "▁rejalashtir": 8196,
      "88": 8197,
      "\n\nF": 8198,
      "▁xayriya": 8199,
      "-darajali": 8200,
      "▁huzur": 8201,
      "▁Viz": 8202,
      "▁41": 8203,
      "▁du": 8204,
      "▁yoʻnalishi": 8205,
      "▁iqtisod": 8206,
      "▁Andre": 8207,
      "4.": 8208,
      "yiq": 8209,
      "▁beradi": 8210,
      "NBA": 8211,
      "▁д": 8212,
      "▁Cam": 8213,
      "masdan": 8214,
      "▁poytaxt": 8215,
      "▁goʻsht": 8216,
      "ruq": 8217,
      "▁tirik": 8218,
      "▁NBA": 8219,
      "▁futbolchilari\nOʻzbekiston": 8220,
      "inf": 8221,
      "ele": 8222,
      "uddin": 8223,
      "▁Iqtisodiy": 8224,
      "▁finaliga": 8225,
      "▁sahn": 8226,
      "▁maʼnoni": 8227,
      "▁ro'yxatga": 8228,
      "▁align=\"left\"": 8229,
      "▁Po": 8230,
      "▁Umumiy": 8231,
      "umli": 8232,
      "rij": 8233,
      "3)\n": 8234,
      "▁bir-biriga": 8235,
      "▁matbuot": 8236,
      "7.": 8237,
      "oti,": 8238,
      "indrom": 8239,
      "by": 8240,
      "▁Malayz": 8241,
      "ayr": 8242,
      "▁Sem": 8243,
      "anga": 8244,
      "ordan": 8245,
      "▁Sid": 8246,
      "▁atle": 8247,
      "▁biridir.": 8248,
      "▁Singa": 8249,
      "▁Shveysar": 8250,
      "ektar": 8251,
      "▁shahrist": 8252,
      "▁85": 8253,
      "▁to'rt": 8254,
      "▁Pennsylvania": 8255,
      "▁Petr": 8256,
      "oks": 8257,
      "▁darajasiga": 8258,
      "▁cheklangan": 8259,
      "▁mif": 8260,
      "▁ruhiy": 8261,
      "▁divizion": 8262,
      "▁Bundes": 8263,
      "▁Karolina": 8264,
      "\")": 8265,
      "ayni": 8266,
      "▁\nSh": 8267,
      "▁Vil": 8268,
      "otiv": 8269,
      "▁fikri": 8270,
      "dev": 8271,
      "4,": 8272,
      "▁chizi": 8273,
      "rinni": 8274,
      "ball": 8275,
      "7)\n": 8276,
      "▁Kitob": 8277,
      "xondaryo": 8278,
      "▁Said": 8279,
      "gul": 8280,
      "▁pedagogika": 8281,
      "”,": 8282,
      "▁sarat": 8283,
      "▁2002-yil": 8284,
      "liklarga": 8285,
      "▁nuf": 8286,
      "▁boks": 8287,
      "▁oktabr": 8288,
      "ovsk": 8289,
      "\n\nYana": 8290,
      "▁1992-yil": 8291,
      "1)\n": 8292,
      "▁−": 8293,
      "▁Ot": 8294,
      "▁Ca": 8295,
      "▁uyida": 8296,
      "k,": 8297,
      "▁Г": 8298,
      "▁Yaponiyaning": 8299,
      "▁berdi": 8300,
      "▁2023-yil": 8301,
      "ps://": 8302,
      "▁yigirma": 8303,
      "-2": 8304,
      "▁qonuniy": 8305,
      "▁qazib": 8306,
      "▁ho": 8307,
      "▁sohasidagi": 8308,
      "▁Konstitut": 8309,
      "▁tasnif": 8310,
      "▁markazi.": 8311,
      "▁oldidan": 8312,
      "▁qogʻoz": 8313,
      "▁Award": 8314,
      "zosi": 8315,
      "▁(Sh": 8316,
      "▁rivojlangan": 8317,
      "▁BMT": 8318,
      "▁kislota": 8319,
      "-W": 8320,
      "“ni": 8321,
      "▁malik": 8322,
      "▁2003-yilda": 8323,
      "▁prem": 8324,
      "Um": 8325,
      "\nT": 8326,
      "▁qishloqning": 8327,
      "8)\n": 8328,
      "▁Suriya": 8329,
      "du": 8330,
      "▁xaraj": 8331,
      "ago": 8332,
      "isht": 8333,
      "ère": 8334,
      "▁kredi": 8335,
      "anna": 8336,
      "imiz": 8337,
      ".3": 8338,
      "ken": 8339,
      "onika": 8340,
      "▁(j": 8341,
      "▁tomondan": 8342,
      "—198": 8343,
      "▁qatorda": 8344,
      "over": 8345,
      "▁qalam": 8346,
      "▁Nam": 8347,
      "▁yoʻldosh": 8348,
      "uvoh": 8349,
      "▁Tashqi": 8350,
      "lilar": 8351,
      "el,": 8352,
      "▁Bl": 8353,
      "▁tumanlari": 8354,
      "pol": 8355,
      "otning": 8356,
      "▁Namangan": 8357,
      "maga": 8358,
      "▁1995": 8359,
      "▁hukmdor": 8360,
      "▁vosi": 8361,
      "▁(2000)": 8362,
      "iniga": 8363,
      "▁Radi": 8364,
      "inib": 8365,
      "▁Ya": 8366,
      "ishdi.": 8367,
      "▁guruhining": 8368,
      "istlar": 8369,
      "▁super": 8370,
      "▁Muh": 8371,
      "▁Buning": 8372,
      "▁goʻzal": 8373,
      "▁Ismo": 8374,
      "erson": 8375,
      "ova,": 8376,
      "\nK": 8377,
      "zy": 8378,
      "ич": 8379,
      "▁м": 8380,
      "ism": 8381,
      "▁kolxoz": 8382,
      "▁qatnashgan.": 8383,
      "▁quyidagilar": 8384,
      "giga": 8385,
      "▁Vashington": 8386,
      "▁Б": 8387,
      "▁des": 8388,
      "▁Nar": 8389,
      "▁appar": 8390,
      "▁Poli": 8391,
      "▁tushib,": 8392,
      "ilmas": 8393,
      "6),": 8394,
      "▁tamoy": 8395,
      "▁Rhein": 8396,
      "▁Mamlakat": 8397,
      "▁Maʼ": 8398,
      "▁yorit": 8399,
      "▁sportchi": 8400,
      "▁\n\nF": 8401,
      "▁choʻl": 8402,
      "▁ustasi": 8403,
      "▁bezat": 8404,
      "▁xatti-harak": 8405,
      "▁lager": 8406,
      "▁almashin": 8407,
      "▁haykaltarosh": 8408,
      "▁darhol": 8409,
      "-17": 8410,
      "senariy": 8411,
      "▁meʼros": 8412,
      "omb": 8413,
      "alizm": 8414,
      "▁„Al": 8415,
      "orda": 8416,
      "▁yillarida": 8417,
      "▁matematik": 8418,
      "▁Bab": 8419,
      "axtakor": 8420,
      "▁Irlandiya": 8421,
      "xem": 8422,
      "▁Town": 8423,
      "▁toʻqima": 8424,
      "▁disser": 8425,
      "▁sard": 8426,
      "▁investi": 8427,
      "stor": 8428,
      "▁Daniya": 8429,
      "eyinchalik": 8430,
      "oʻlat": 8431,
      "▁nay": 8432,
      "▁tarixida": 8433,
      "-yanvarida": 8434,
      "▁qarama-qarshi": 8435,
      "arif": 8436,
      "▁tasvirlangan": 8437,
      "my": 8438,
      "▁mijoz": 8439,
      "▁hisoblangan": 8440,
      "▁Superligasi": 8441,
      "62": 8442,
      "▁120": 8443,
      "▁davo": 8444,
      "▁Konst": 8445,
      "▁ug": 8446,
      "▁interv": 8447,
      "▁mustamlaka": 8448,
      "so": 8449,
      "git": 8450,
      "▁Fir": 8451,
      "▁hokimiy": 8452,
      "▁qirollik": 8453,
      "▁\"D": 8454,
      "▁holatda": 8455,
      "▁Los-Anjeles": 8456,
      "vlat": 8457,
      "▁tola": 8458,
      "▁Shayx": 8459,
      "▁joylar": 8460,
      "9-": 8461,
      "TV": 8462,
      "▁hakam": 8463,
      "▁maktabda": 8464,
      "\n\nVoqealar": 8465,
      "gach": 8466,
      "▁paytdagi": 8467,
      "▁dollarni": 8468,
      "▁\n\nV": 8469,
      "▁shaharlari\n": 8470,
      "▁unvoniga": 8471,
      "siyasiga": 8472,
      "▁oʻyinini": 8473,
      "▁chegaradosh": 8474,
      "én": 8475,
      "▁baholash": 8476,
      "▁madh": 8477,
      "s\n": 8478,
      "▁lavozimiga": 8479,
      "6.": 8480,
      "▁И": 8481,
      "▁inqir": 8482,
      "▁cherkovi": 8483,
      "ON": 8484,
      "gin": 8485,
      "▁ya": 8486,
      "▁sindrom": 8487,
      "▁(x": 8488,
      "▁ayti": 8489,
      "qad": 8490,
      "▁izoh": 8491,
      "enta": 8492,
      "▁Bavariya": 8493,
      "▁Yam": 8494,
      "simal": 8495,
      "▁qizlar": 8496,
      "▁tonna": 8497,
      "▁chiqarilgan.": 8498,
      "▁eksport": 8499,
      "VID": 8500,
      "gan.\n\nK": 8501,
      "▁boʻlganlar": 8502,
      "▁hisobidagi": 8503,
      "▁davridagi": 8504,
      "▁basta": 8505,
      "▁Dal": 8506,
      "▁oiladan": 8507,
      "▁Kommun": 8508,
      "ilzila": 8509,
      "▁yakkalik": 8510,
      "ratib": 8511,
      "▁Ray": 8512,
      "laffuzi": 8513,
      "fat": 8514,
      "chiligida": 8515,
      "▁vol": 8516,
      "roniy": 8517,
      "▁anglatadi.": 8518,
      "▁chiqadigan": 8519,
      "Ish": 8520,
      "abri": 8521,
      "▁beradigan": 8522,
      "Yutuq": 8523,
      "▁jamoada": 8524,
      "▁haykali": 8525,
      "▁munosabatlari": 8526,
      "▁Jamo": 8527,
      "▁aytdi.": 8528,
      "▁yashagan.": 8529,
      "sambley": 8530,
      "73": 8531,
      "▁muvaffaqiyatsiz": 8532,
      "▁amaki": 8533,
      "cher": 8534,
      "aydi.\n\n": 8535,
      "▁sohili": 8536,
      "▁Belarus": 8537,
      "aft": 8538,
      "▁magist": 8539,
      "▁egalladi": 8540,
      "w.": 8541,
      "▁chast": 8542,
      "▁Albert": 8543,
      "kli": 8544,
      "▁zir": 8545,
      "▁konstitut": 8546,
      "tatsiya": 8547,
      "▁Jos": 8548,
      "▁qozonib,": 8549,
      "▁hokaz": 8550,
      "ción": 8551,
      "tirdi.": 8552,
      "tiqod": 8553,
      "uliston": 8554,
      "▁miqdorda": 8555,
      "▁muhandislik": 8556,
      "▁fl": 8557,
      "xonalar": 8558,
      "▁(shuningdek,": 8559,
      "▁nafas": 8560,
      "▁yigʻi": 8561,
      "72": 8562,
      "iyosiy": 8563,
      "▁Shtatlar": 8564,
      "▁tob": 8565,
      "laz": 8566,
      "▁qud": 8567,
      "▁2009-yilgi": 8568,
      "tain": 8569,
      "gan.\n\nS": 8570,
      "valida": 8571,
      "oto": 8572,
      "arbda": 8573,
      "▁Qoraqalpogʻiston": 8574,
      "▁ushlab": 8575,
      "▁kotib": 8576,
      "▁Bank": 8577,
      "asida,": 8578,
      "ом": 8579,
      "▁Chan": 8580,
      "▁choʻqqi": 8581,
      "▁1918": 8582,
      "-iyulida": 8583,
      "▁jarroh": 8584,
      "61": 8585,
      "ovli": 8586,
      "▁atletika": 8587,
      "ganligi": 8588,
      "▁qoʻshilgan": 8589,
      "▁qatoriga": 8590,
      "▁koʻrs": 8591,
      "▁ekspedi": 8592,
      "▁oʻtib": 8593,
      "▁nihoyat": 8594,
      "As": 8595,
      "▁Group": 8596,
      "▁muhokama": 8597,
      "▁Pit": 8598,
      "▁tiklash": 8599,
      "▁53": 8600,
      "▁Rod": 8601,
      "▁zaryad": 8602,
      "▁Р": 8603,
      "adiy": 8604,
      "▁kunlik": 8605,
      "▁rivoyat": 8606,
      "▁korxona": 8607,
      "▁tun": 8608,
      "▁ajratib": 8609,
      "yun": 8610,
      "ric": 8611,
      "▁uchuvchi": 8612,
      "Ingliz": 8613,
      "▁gubernator": 8614,
      "mada": 8615,
      "oye": 8616,
      "vel": 8617,
      "zim": 8618,
      "▁Lat": 8619,
      "189": 8620,
      "▁huquqiga": 8621,
      "▁manba": 8622,
      "\n\nO": 8623,
      "▁Bot": 8624,
      "▁kampan": 8625,
      "6)\n": 8626,
      "atining": 8627,
      "▁munitsipalitetlari": 8628,
      "▁bori": 8629,
      "▁Singapur": 8630,
      "WF": 8631,
      "taliya": 8632,
      "▁viz": 8633,
      "▁X.": 8634,
      "▁birida": 8635,
      "▁obraz": 8636,
      "ban": 8637,
      "ku": 8638,
      "▁ishlangan": 8639,
      "▁tahdi": 8640,
      "▁nufuz": 8641,
      "▁Nav": 8642,
      "▁Mil.": 8643,
      "▁78": 8644,
      "itsi": 8645,
      "▁nazorati": 8646,
      "▁qidir": 8647,
      "▁orollari": 8648,
      "▁Abdulla": 8649,
      "onni": 8650,
      "▁os": 8651,
      "▁zahar": 8652,
      "boy": 8653,
      "▁turib": 8654,
      "Filmografiyasi": 8655,
      "▁Togʻ": 8656,
      "▁foizini": 8657,
      "lashuvi": 8658,
      "▁Inter": 8659,
      "▁muxbir": 8660,
      "▁Wal": 8661,
      "viya": 8662,
      "▁App": 8663,
      "▁metal": 8664,
      "-sekin": 8665,
      "kalar": 8666,
      "parvar": 8667,
      "100": 8668,
      "del": 8669,
      "▁\nX": 8670,
      "taroq": 8671,
      "hy": 8672,
      "enni": 8673,
      "talyan": 8674,
      "qiqada": 8675,
      "▁Google": 8676,
      "▁kombin": 8677,
      "▁arxiv": 8678,
      "▁band": 8679,
      "rich": 8680,
      "sa-da,": 8681,
      "▁filmlarida": 8682,
      "▁oxir-oqibat": 8683,
      "▁axloq": 8684,
      "▁yuridik": 8685,
      "VID-19": 8686,
      "▁yozib": 8687,
      "dir.\n\nAholisi": 8688,
      "▁Jal": 8689,
      "▁dunyoda": 8690,
      "▁qilinadi.\n\n": 8691,
      "▁ayollarning": 8692,
      "▁Sev": 8693,
      "▁Dani": 8694,
      "▁tugʻilgan,": 8695,
      "▁Barcha": 8696,
      "▁mashgʻulot": 8697,
      "riba": 8698,
      "▁xom": 8699,
      "xtor": 8700,
      "▁sogʻliqni": 8701,
      "▁yori": 8702,
      "itar": 8703,
      "▁boshqaruvi": 8704,
      "▁qurolli": 8705,
      "stein": 8706,
      "bosh": 8707,
      "▁„W": 8708,
      "▁aylangan": 8709,
      "▁oʻzgarishlar": 8710,
      "liklarning": 8711,
      "▁Bern": 8712,
      "▁boshladi.\n\n": 8713,
      "▁Eston": 8714,
      "FK": 8715,
      "chon": 8716,
      "▁ochilgan": 8717,
      "di;": 8718,
      "▁tuzilm": 8719,
      "lich": 8720,
      "▁Vor": 8721,
      "▁ixtir": 8722,
      "▁MFY.": 8723,
      "rlar": 8724,
      "▁byur": 8725,
      "xtiy": 8726,
      "▁ligada": 8727,
      "▁ko‘rsat": 8728,
      "▁Aks": 8729,
      "olis": 8730,
      "▁(8": 8731,
      "▁shunga": 8732,
      "▁oʻtadigan": 8733,
      "▁vitse": 8734,
      "▁ista": 8735,
      "▁boʻlmas": 8736,
      "▁isbot": 8737,
      "▁qilishdi.": 8738,
      "▁Qoʻqon": 8739,
      "▁Janub": 8740,
      "▁etildi.\n\n": 8741,
      "ade": 8742,
      "▁televizion": 8743,
      "ake": 8744,
      "reb": 8745,
      "ladesh": 8746,
      "ta-sekin": 8747,
      "▁Tir": 8748,
      "▁oʻyinlar": 8749,
      "▁tushgan.": 8750,
      ".9": 8751,
      "▁professori": 8752,
      "otining": 8753,
      "siyada": 8754,
      "▁yilligi": 8755,
      "▁tashqarida": 8756,
      "▁Anna": 8757,
      "▁Osiyoda": 8758,
      "evralida": 8759,
      "▁berdi.\n\n": 8760,
      "▁Norman": 8761,
      "▁borayotgan": 8762,
      "▁misol": 8763,
      "▁shahristoni": 8764,
      "▁Institut": 8765,
      "▁tillarida": 8766,
      "▁Fi": 8767,
      "▁chal": 8768,
      "▁masofa": 8769,
      "▁yorugʻlik": 8770,
      "▁Rumin": 8771,
      "▁Qay": 8772,
      "▁Madan": 8773,
      "▁olimlar": 8774,
      "OS": 8775,
      "▁1998-yil": 8776,
      "▁hunarmand": 8777,
      "▁\n5": 8778,
      "▁yilgacha": 8779,
      "▁mavsumi": 8780,
      "▁(2005)": 8781,
      "ock": 8782,
      "▁ا": 8783,
      "ligidagi": 8784,
      "-sur": 8785,
      "▁asarida": 8786,
      "▁suh": 8787,
      "▁qoʻshiqchi": 8788,
      "omiy": 8789,
      "▁Ichki": 8790,
      "▁kommuna.\n\nAholisi": 8791,
      "▁guvoh": 8792,
      "▁Fors": 8793,
      "▁asrlar": 8794,
      "▁stansiyasi": 8795,
      "▁Internet": 8796,
      "falz": 8797,
      "dilar": 8798,
      "▁H.": 8799,
      "8),": 8800,
      "▁Qo'": 8801,
      "’s": 8802,
      "▁Guruh": 8803,
      "www.": 8804,
      "-muhit": 8805,
      "koni": 8806,
      "ukofotlari": 8807,
      "▁2002-yilda": 8808,
      "▁muxlis": 8809,
      "▁aylanish": 8810,
      "▁Eur": 8811,
      "lass": 8812,
      "▁aktyorlik": 8813,
      "▁joʻ": 8814,
      "▁kelajak": 8815,
      "▁Komp": 8816,
      "▁ota-onasi": 8817,
      "dlari": 8818,
      "itʼ": 8819,
      "▁Poy": 8820,
      "oi": 8821,
      "▁Qatar": 8822,
      "chalari": 8823,
      "▁raund": 8824,
      "▁qurilma": 8825,
      "▁yonida": 8826,
      "▁isteʼf": 8827,
      "gʻor": 8828,
      "opiya": 8829,
      "▁punktlari\nAlifbo": 8830,
      "▁qo‘sh": 8831,
      "▁bep": 8832,
      "▁xona": 8833,
      "▁His": 8834,
      "▁Ara": 8835,
      "▁kompaniyalar": 8836,
      "▁Arabiston": 8837,
      "▁qiymati": 8838,
      "▁(va": 8839,
      "▁operatsiya": 8840,
      "ence": 8841,
      "▁nima": 8842,
      "▁muddati": 8843,
      "gʻim": 8844,
      "▁federatsiyasi": 8845,
      "▁korporat": 8846,
      "▁Mud": 8847,
      "kaga": 8848,
      "▁km.": 8849,
      "▁soʻzi": 8850,
      "▁1991-yil": 8851,
      "▁(0": 8852,
      "▁ishlarini": 8853,
      "▁1999-yil": 8854,
      "▁jadval": 8855,
      "je": 8856,
      "▁egalik": 8857,
      "ʼs": 8858,
      "▁eff": 8859,
      "▁\"P": 8860,
      "▁borgan.": 8861,
      "▁250": 8862,
      "▁statistika": 8863,
      "otik": 8864,
      "▁qochib": 8865,
      "▁sevgi": 8866,
      "ой": 8867,
      "▁ishlaydi.": 8868,
      "▁keyinroq": 8869,
      "▁Del": 8870,
      "▁dollarga": 8871,
      "▁tavsiya": 8872,
      "▁Xuddi": 8873,
      "▁sabz": 8874,
      "▁Sel": 8875,
      "ahr": 8876,
      "aqiq": 8877,
      "salari": 8878,
      "▁Chi": 8879,
      "eningrad": 8880,
      "une": 8881,
      "▁ligasining": 8882,
      "2-yilgi": 8883,
      "▁Pic": 8884,
      "▁Fu": 8885,
      "▁hokazo": 8886,
      "▁irq": 8887,
      "ochi": 8888,
      "▁Jizzax": 8889,
      "oqli": 8890,
      "▁gur": 8891,
      "▁51": 8892,
      "▁nafaqaga": 8893,
      "▁xud": 8894,
      "▁Xiva": 8895,
      "▁nerv": 8896,
      "▁qoladi.": 8897,
      "dak": 8898,
      "omet": 8899,
      "▁Oʻzbekistonning": 8900,
      "▁aylandi.\n\n": 8901,
      "▁Lotar": 8902,
      "\".": 8903,
      "atib,": 8904,
      "▁qarshilik": 8905,
      "▁transfer": 8906,
      "▁variant": 8907,
      "chash": 8908,
      "lev": 8909,
      "▁Tai": 8910,
      "▁Dor": 8911,
      "▁Shaharning": 8912,
      "▁\n|": 8913,
      "▁muqad": 8914,
      "▁Land": 8915,
      "odat": 8916,
      "dis": 8917,
      "▁NHL": 8918,
      "▁kommunadir.\n\nAholisi": 8919,
      "▁quruqlik.": 8920,
      "▁razved": 8921,
      "ims": 8922,
      "▁tutash": 8923,
      "▁yashirin": 8924,
      "onlik": 8925,
      "▁FA": 8926,
      "▁ataladi": 8927,
      "onal": 8928,
      "▁tezligi": 8929,
      "▁gʻaz": 8930,
      "▁ilhom": 8931,
      "▁nazariy": 8932,
      "ces": 8933,
      "kö": 8934,
      "▁riba": 8935,
      "▁qismlari": 8936,
      "▁jamoatchilik": 8937,
      "▁Adam": 8938,
      "▁tashlash": 8939,
      "▁Bra": 8940,
      "▁himoy": 8941,
      "▁sti": 8942,
      "▁Xit": 8943,
      "ffi": 8944,
      "▁holati": 8945,
      "▁hukmdori": 8946,
      "▁anti": 8947,
      "▁modeli": 8948,
      "▁daha": 8949,
      "▁etgan.\n\nManbalar": 8950,
      "tonom": 8951,
      "▁Imom": 8952,
      "ing,": 8953,
      "▁Washington": 8954,
      "▁xotini": 8955,
      "▁Kh": 8956,
      "▁Tra": 8957,
      "ladi.\n\nManbalar": 8958,
      "▁Black": 8959,
      "▁neyt": 8960,
      "▁tizimining": 8961,
      "8,": 8962,
      "▁Kay": 8963,
      "iyadan": 8964,
      "▁0,1": 8965,
      "astika": 8966,
      "▁Bh": 8967,
      "▁Finlandiya": 8968,
      "a)": 8969,
      "▁Toshkentda": 8970,
      "▁tadqiq": 8971,
      "▁yordamchisi": 8972,
      "▁koʻng": 8973,
      "aliz": 8974,
      "▁\"Y": 8975,
      "▁nomlari": 8976,
      "▁muhojir": 8977,
      "▁Aj": 8978,
      "▁pot": 8979,
      "▁ishlaydigan": 8980,
      "iks": 8981,
      "▁Times": 8982,
      "▁zanjir": 8983,
      "▁oʻynaydi.": 8984,
      "▁Top": 8985,
      "▁koʻkrak": 8986,
      "▁Fe": 8987,
      "▁notoʻgʻri": 8988,
      "▁Ras": 8989,
      "▁Superkub": 8990,
      "man,": 8991,
      "\n\nP": 8992,
      "5-yillarda": 8993,
      "▁sotsi": 8994,
      "▁Hir": 8995,
      "lamo": 8996,
      "▁tuy": 8997,
      ".org": 8998,
      "ozor": 8999,
      "▁Chor": 9000,
      "▁tilidan": 9001,
      "▁\n\nJ": 9002,
      "▁barchasi": 9003,
      "▁“M": 9004,
      "▁teatrida": 9005,
      "▁Pu": 9006,
      "▁soʻra": 9007,
      "▁atash": 9008,
      "ehnat": 9009,
      "▁tarmogʻi": 9010,
      "mor": 9011,
      "▁Zar": 9012,
      "▁Jin": 9013,
      "▁dehistoniga": 9014,
      "▁korxonalari": 9015,
      "abbat": 9016,
      "▁1990-yil": 9017,
      "▁uslubi": 9018,
      "Av": 9019,
      "▁bunda": 9020,
      "▁moddiy": 9021,
      "ardiya": 9022,
      "urnali": 9023,
      "chilaridan": 9024,
      "▁qoldi": 9025,
      "▁yiliga": 9026,
      "▁brend": 9027,
      "▁Vas": 9028,
      "▁chiqishga": 9029,
      "kitob": 9030,
      "Hindiston": 9031,
      "▁Biz": 9032,
      "▁\nC": 9033,
      "▁Nider": 9034,
      "▁konf": 9035,
      "-0": 9036,
      "al,": 9037,
      "▁po": 9038,
      "inamo": 9039,
      "uvlar": 9040,
      "▁Anqar": 9041,
      "▁intervyu": 9042,
      "ardi.": 9043,
      "▁oltinchi": 9044,
      "▁sentabr": 9045,
      "▁Boʻ": 9046,
      "▁dum": 9047,
      "▁ribaund": 9048,
      "41": 9049,
      "▁Toki": 9050,
      "▁mukofotlari": 9051,
      "▁Tun": 9052,
      "▁oʻyinlarda": 9053,
      "▁atalgan": 9054,
      "'s": 9055,
      "▁Rey": 9056,
      "▁\"Q": 9057,
      "▁taʼkidlashicha,": 9058,
      "▁zarba": 9059,
      "▁osmon": 9060,
      "▁Map": 9061,
      "▁tushdi": 9062,
      "oʻstlik": 9063,
      "▁turizm": 9064,
      "cent": 9065,
      "asl": 9066,
      "▁urdi": 9067,
      "skan": 9068,
      "▁Net": 9069,
      "▁2001": 9070,
      "▁talaba": 9071,
      "▁Nobel": 9072,
      "guz": 9073,
      "▁soz": 9074,
      "8.": 9075,
      "evropa": 9076,
      "▁koʻrinishi": 9077,
      "43": 9078,
      "▁Hor": 9079,
      "pin": 9080,
      "elev": 9081,
      "▁o'yn": 9082,
      "▁„Eng": 9083,
      "lang": 9084,
      "enne": 9085,
      ".\n\nYana": 9086,
      "▁kiruvchi": 9087,
      "ngliya": 9088,
      "▁kommunadir.\n\nManbalar": 9089,
      "\n\nManbalar\n\nAdabiyotlar": 9090,
      "enetik": 9091,
      ".\n\n201": 9092,
      "br": 9093,
      "yil": 9094,
      "chini": 9095,
      "▁asta-sekin": 9096,
      "us,": 9097,
      "▁2001-yilda": 9098,
      "▁Mac": 9099,
      "▁Lotaringiya": 9100,
      "▁Sing": 9101,
      "laymon": 9102,
      "▁aviak": 9103,
      "maning": 9104,
      "▁qutqar": 9105,
      "▁tillari": 9106,
      "▁gektar": 9107,
      "ikatsiya": 9108,
      "▁aql": 9109,
      "avqul": 9110,
      "▁Open": 9111,
      "▁<": 9112,
      "▁moj": 9113,
      "▁Est": 9114,
      "▁diam": 9115,
      "▁prefekturasi": 9116,
      "▁Vyetnam": 9117,
      "▁Qozogʻistonning": 9118,
      "▁qosh": 9119,
      "▁Hind": 9120,
      "mosfer": 9121,
      "▁Н": 9122,
      "▁boʻladigan": 9123,
      "ussiya": 9124,
      "▁futbolchilari\nYashayotgan": 9125,
      "▁ataladigan": 9126,
      "▁tezda": 9127,
      "ildirak": 9128,
      "▁sonli": 9129,
      "▁teleserial": 9130,
      "▁×": 9131,
      "▁s.": 9132,
      "▁shunda": 9133,
      "aklar": 9134,
      "otip": 9135,
      "▁soy": 9136,
      "▁chan": 9137,
      "pon": 9138,
      "tle": 9139,
      "▁oke": 9140,
      "9),": 9141,
      "mey": 9142,
      "▁Dur": 9143,
      "188": 9144,
      "▁kamp": 9145,
      "▁musulmonlar": 9146,
      "ches": 9147,
      "▁kiri": 9148,
      "▁integ": 9149,
      "▁Gruziya": 9150,
      "2022": 9151,
      "▁tabiat": 9152,
      "▁qoʻlyoz": 9153,
      "▁kamer": 9154,
      "▁James": 9155,
      "son,": 9156,
      "▁zam": 9157,
      "▁hujjatli": 9158,
      "▁Gal": 9159,
      "▁qoʻyilgan": 9160,
      "▁usullari": 9161,
      "▁alla": 9162,
      "▁foydalanishga": 9163,
      "-xotin": 9164,
      "gʻiga": 9165,
      "▁ruda": 9166,
      "▁yozi": 9167,
      "▁sardori": 9168,
      "▁2003": 9169,
      "▁ishonchli": 9170,
      "▁qoʻshib": 9171,
      "▁egasi": 9172,
      "▁al-A": 9173,
      "▁yozuvchisi": 9174,
      "▁maʼlumotlarni": 9175,
      "ges": 9176,
      "▁Mit": 9177,
      "▁aylangan.": 9178,
      "▁Lou": 9179,
      "▁borib": 9180,
      "▁(10": 9181,
      "▁mahallalar\nKoordinatalar": 9182,
      "▁б": 9183,
      "▁Bran": 9184,
      "ak,": 9185,
      "▁maʼlumotlarga": 9186,
      "▁takomil": 9187,
      "▁efirga": 9188,
      "Eng": 9189,
      "▁2:1": 9190,
      "addas": 9191,
      "42": 9192,
      "▁ssenariy": 9193,
      "▁marosi": 9194,
      "▁57": 9195,
      "▁Toʻrt": 9196,
      "zu": 9197,
      "iyb": 9198,
      "▁it": 9199,
      "▁Britaniyaning": 9200,
      "▁yondash": 9201,
      "▁Yevropada": 9202,
      "''": 9203,
      "ug'": 9204,
      "▁boshlaydi.": 9205,
      "▁bordi.": 9206,
      "Oʻyin": 9207,
      "iladi,": 9208,
      "yuj": 9209,
      "▁kesib": 9210,
      "chael": 9211,
      "chisi.": 9212,
      "uto": 9213,
      "▁taqvim": 9214,
      "ский": 9215,
      "sifi": 9216,
      "▁ba'zi": 9217,
      "▁briga": 9218,
      "sishi": 9219,
      "▁Kara": 9220,
      "▁56": 9221,
      "qachon": 9222,
      "▁mavjudligi": 9223,
      "asi“": 9224,
      "fan": 9225,
      "xa": 9226,
      "▁University": 9227,
      "▁namoz": 9228,
      "▁2018-yilgi": 9229,
      "liv": 9230,
      "▁Occ": 9231,
      "ос": 9232,
      "▁Mol": 9233,
      "▁Yon": 9234,
      "ekis": 9235,
      "▁oqsil": 9236,
      "▁oʻynadi": 9237,
      "▁kollek": 9238,
      "93": 9239,
      "▁95": 9240,
      "XI": 9241,
      "▁binoan": 9242,
      "▁(ingliz": 9243,
      "▁dona": 9244,
      "ov\n": 9245,
      "▁orbi": 9246,
      "▁galer": 9247,
      "xil": 9248,
      "zan": 9249,
      "▁2000-yilda": 9250,
      "▁fotosur": 9251,
      "▁shoʻr": 9252,
      "qlimi": 9253,
      "▁qamal": 9254,
      "tel": 9255,
      "▁\n\nD": 9256,
      "▁oʻzgarishi": 9257,
      ".2": 9258,
      "liklarini": 9259,
      "▁yuqor": 9260,
      "senal": 9261,
      "▁Kaliforn": 9262,
      "antiya": 9263,
      "-daqiqada": 9264,
      "▁xalifa": 9265,
      "aktiv": 9266,
      "▁Shunga": 9267,
      "▁rejalashtirilgan": 9268,
      "▁Sov": 9269,
      "▁beriladi.": 9270,
      "▁sababi": 9271,
      "▁Konstantin": 9272,
      "▁nufuzli": 9273,
      "▁ichidagi": 9274,
      "▁ma'lumotlariga": 9275,
      "▁Yusuf": 9276,
      "▁oʻgʻir": 9277,
      "▁Kras": 9278,
      "▁mazkur": 9279,
      "p://": 9280,
      "▁audi": 9281,
      "oson": 9282,
      "▁qatʼiy": 9283,
      "▁kompon": 9284,
      "Ij": 9285,
      "▁oylarida": 9286,
      "tomobil": 9287,
      "▁telefon": 9288,
      "Gʻ": 9289,
      "▁ing": 9290,
      "jiss": 9291,
      "▁Sw": 9292,
      "▁muzokar": 9293,
      "4),": 9294,
      "li.": 9295,
      "reis": 9296,
      "avqulodda": 9297,
      "d,": 9298,
      "▁lugʻ": 9299,
      "▁klinik": 9300,
      "▁chiqardi.": 9301,
      "▁Tax": 9302,
      "▁rossiya": 9303,
      "▁maktabini": 9304,
      "92": 9305,
      "aka": 9306,
      "ammal": 9307,
      "▁choʻz": 9308,
      "ilib": 9309,
      "ri,": 9310,
      "▁Jazoir": 9311,
      "▁Oʻyin": 9312,
      "▁52": 9313,
      "laffuzi:": 9314,
      "▁qoʻyish": 9315,
      "▁2020-yilda": 9316,
      "chilari\n": 9317,
      "▁Alloh": 9318,
      "▁kengaytir": 9319,
      "▁shifokor": 9320,
      "▁2,5": 9321,
      "▁boʻysun": 9322,
      "▁Centre": 9323,
      "xay": 9324,
      "▁musobaqalarda": 9325,
      "▁kesish": 9326,
      "▁yashaydigan": 9327,
      "▁Surxondaryo": 9328,
      "▁miqyosda": 9329,
      "AF": 9330,
      "ilgʻi": 9331,
      "-avgustida": 9332,
      "shik": 9333,
      "▁ta'lim": 9334,
      "ал": 9335,
      "▁(ta": 9336,
      "▁qavatli": 9337,
      "▁sudi": 9338,
      "7-yillarda": 9339,
      "▁Pet": 9340,
      "▁Soʻng": 9341,
      "essi": 9342,
      "format": 9343,
      "▁navb": 9344,
      "rob": 9345,
      "ento": 9346,
      "▁Wil": 9347,
      "BS": 9348,
      "Geografiyasi": 9349,
      "▁qoʻshilish": 9350,
      "▁hokimi": 9351,
      "ohiy": 9352,
      "▁lozim": 9353,
      "▁restor": 9354,
      "▁agentligi": 9355,
      "og'i": 9356,
      "hin": 9357,
      "ommun": 9358,
      "▁bo'lin": 9359,
      "▁shahristonidagi": 9360,
      "▁pochta": 9361,
      "emi": 9362,
      "▁janubda": 9363,
      "▁Ley": 9364,
      "▁boshqargan.": 9365,
      "▁etadi.\n\nManbalar": 9366,
      "▁xodimlari": 9367,
      "▁manbai": 9368,
      "-Q": 9369,
      "chus": 9370,
      "▁Odat": 9371,
      "oft": 9372,
      "▁tayyorgarlik": 9373,
      "▁Chern": 9374,
      "xoʻr": 9375,
      "▁76": 9376,
      "Oʻz": 9377,
      "▁YouT": 9378,
      "▁Pikardiya": 9379,
      "▁chiqdi,": 9380,
      "▁xalif": 9381,
      "▁moda": 9382,
      "avlat": 9383,
      "6-yillarda": 9384,
      "▁tayinlangan": 9385,
      "▁2018-yilning": 9386,
      "▁mavsumdan": 9387,
      "▁aktrisalari\n": 9388,
      "nev": 9389,
      "▁o’": 9390,
      "ali,": 9391,
      "▁kattaroq": 9392,
      "▁(2000).\n\nGeografiyasi": 9393,
[...]
